<unk>	0
<s>	0
</s>	0
▁t	-0
▁a	-1
en	-2
er	-3
▁,	-4
▁i	-5
▁th	-6
▁.	-7
▁s	-8
▁w	-9
▁d	-10
in	-11
▁o	-12
es	-13
▁c	-14
▁m	-15
▁p	-16
at	-17
an	-18
▁the	-19
os	-20
on	-21
re	-22
▁b	-23
▁h	-24
▁l	-25
▁&	-26
nd	-27
or	-28
ou	-29
▁n	-30
ar	-31
▁f	-32
al	-33
ch	-34
ap	-35
▁e	-36
▁in	-37
▁g	-38
ing	-39
as	-40
ot	-41
▁to	-42
qu	-43
▁and	-44
it	-45
is	-46
▁ا	-47
ie	-48
apos	-49
el	-50
▁u	-51
ed	-52
om	-53
▁y	-54
▁of	-55
et	-56
▁v	-57
le	-58
ent	-59
ic	-60
▁that	-61
▁ال	-62
▁de	-63
▁is	-64
ro	-65
ut	-66
▁we	-67
ion	-68
▁you	-69
▁k	-70
am	-71
▁wh	-72
▁م	-73
ow	-74
quot	-75
▁it	-76
il	-77
ol	-78
st	-79
▁z	-80
ve	-81
▁al	-82
ad	-83
▁be	-84
est	-85
ere	-86
▁ה	-87
ig	-88
▁st	-89
▁ب	-90
ac	-91
id	-92
▁j	-93
ur	-94
▁r	-95
▁re	-96
▁on	-97
ly	-98
▁qu	-99
▁un	-100
ir	-101
▁א	-102
im	-103
▁so	-104
▁en	-105
▁this	-106
▁و	-107
ay	-108
em	-109
us	-110
▁di	-111
▁ch	-112
▁-	-113
ver	-114
▁an	-115
ct	-116
▁se	-117
ra	-118
▁ל	-119
▁do	-120
un	-121
ich	-122
▁ha	-123
▁--	-124
ים	-125
▁ש	-126
▁מ	-127
▁?	-128
▁for	-129
ak	-130
▁،	-131
▁com	-132
ter	-133
and	-134
▁was	-135
▁con	-136
od	-137
▁la	-138
▁ab	-139
op	-140
ld	-141
ul	-142
ia	-143
ell	-144
▁ت	-145
ant	-146
▁per	-147
ות	-148
▁ه	-149
▁pro	-150
▁es	-151
▁:	-152
ag	-153
▁he	-154
▁they	-155
▁me	-156
▁ver	-157
ce	-158
▁د	-159
▁li	-160
▁ב	-161
▁أ	-162
ان	-163
▁ne	-164
▁pr	-165
▁as	-166
ij	-167
▁ل	-168
ith	-169
▁ک	-170
ci	-171
▁go	-172
th	-173
▁are	-174
ess	-175
ally	-176
▁le	-177
▁with	-178
▁ف	-179
▁can	-180
ist	-181
um	-182
▁what	-183
▁all	-184
▁but	-185
▁have	-186
ation	-187
را	-188
▁mo	-189
ال	-190
▁wor	-191
▁at	-192
ill	-193
ind	-194
▁sh	-195
▁te	-196
▁die	-197
▁lo	-198
▁que	-199
end	-200
to	-201
ht	-202
out	-203
▁sp	-204
ens	-205
ke	-206
▁und	-207
ab	-208
te	-209
▁ن	-210
▁tr	-211
▁ex	-212
▁fr	-213
ze	-214
og	-215
ust	-216
ست	-217
iv	-218
▁su	-219
ار	-220
▁1	-221
▁or	-222
▁not	-223
ier	-224
▁there	-225
▁about	-226
ine	-227
art	-228
ould	-229
se	-230
▁ع	-231
ese	-232
نا	-233
are	-234
▁som	-235
▁pe	-236
ge	-237
▁no	-238
de	-239
▁im	-240
ok	-241
ach	-242
ff	-243
▁ו	-244
▁er	-245
ost	-246
▁my	-247
▁el	-248
▁si	-249
▁ar	-250
ers	-251
▁من	-252
zy	-253
▁che	-254
ort	-255
▁כ	-256
ate	-257
all	-258
▁ي	-259
ight	-260
ون	-261
▁one	-262
▁est	-263
ca	-264
▁ע	-265
ies	-266
▁het	-267
ect	-268
ها	-269
▁ك	-270
▁us	-271
ما	-272
ib	-273
ین	-274
▁ge	-275
▁peop	-276
▁people	-277
נו	-278
ente	-279
▁by	-280
▁ش	-281
ity	-282
▁if	-283
▁das	-284
▁pl	-285
▁from	-286
pl	-287
ud	-288
ien	-289
▁man	-290
ive	-291
ני	-292
▁like	-293
aar	-294
▁op	-295
▁een	-296
▁س	-297
▁في	-298
▁kn	-299
▁now	-300
▁ein	-301
▁als	-302
use	-303
ast	-304
▁nie	-305
ink	-306
▁dat	-307
▁gr	-308
▁י	-309
ند	-310
go	-311
ard	-312
iz	-313
▁our	-314
00	-315
one	-316
io	-317
▁una	-318
▁these	-319
▁just	-320
ure	-321
▁van	-322
her	-323
▁out	-324
ten	-325
▁של	-326
▁know	-327
▁می	-328
ear	-329
▁ح	-330
ond	-331
▁ro	-332
▁thing	-333
▁mu	-334
▁الم	-335
▁2	-336
▁when	-337
ake	-338
▁po	-339
▁sie	-340
▁beca	-341
▁because	-342
ול	-343
▁par	-344
li	-345
ية	-346
ain	-347
▁è	-348
▁get	-349
oug	-350
gen	-351
▁them	-352
▁how	-353
▁در	-354
▁think	-355
▁act	-356
ven	-357
ור	-358
▁up	-359
▁who	-360
▁inter	-361
▁very	-362
▁את	-363
▁am	-364
▁comp	-365
▁quest	-366
▁je	-367
az	-368
▁خ	-369
ات	-370
▁که	-371
▁il	-372
ber	-373
▁wir	-374
▁some	-375
▁had	-376
ound	-377
ans	-378
ne	-379
per	-380
זה	-381
▁sch	-382
ose	-383
be	-384
▁des	-385
ip	-386
▁به	-387
▁del	-388
▁na	-389
▁der	-390
▁ich	-391
▁sa	-392
▁ever	-393
▁ج	-394
act	-395
▁آ	-396
▁see	-397
▁ze	-398
if	-399
den	-400
orm	-401
lo	-402
ue	-403
▁your	-404
▁year	-405
ack	-406
ور	-407
ru	-408
▁more	-409
no	-410
اد	-411
▁tim	-412
▁which	-413
ass	-414
ame	-415
tr	-416
our	-417
▁این	-418
▁going	-419
▁ق	-420
ول	-421
ين	-422
▁here	-423
▁ist	-424
ود	-425
reat	-426
ام	-427
wo	-428
ذا	-429
ace	-430
▁أن	-431
▁look	-432
ید	-433
▁ik	-434
▁ر	-435
▁would	-436
hr	-437
▁want	-438
olog	-439
app	-440
ment	-441
▁don	-442
ous	-443
we	-444
▁over	-445
ang	-446
▁really	-447
ide	-448
▁their	-449
icht	-450
وا	-451
▁ma	-452
▁world	-453
ck	-454
▁work	-455
ually	-456
▁prob	-457
ben	-458
▁zu	-459
▁dis	-460
▁ما	-461
▁were	-462
▁co	-463
du	-464
▁إ	-465
▁then	-466
▁imp	-467
hing	-468
ild	-469
▁every	-470
▁vo	-471
▁af	-472
ית	-473
cc	-474
▁los	-475
لى	-476
ale	-477
ijn	-478
▁bu	-479
▁way	-480
av	-481
ik	-482
amo	-483
▁than	-484
▁will	-485
ite	-486
▁met	-487
itt	-488
ore	-489
za	-490
lem	-491
nen	-492
▁has	-493
▁را	-494
▁pre	-495
▁br	-496
ong	-497
ica	-498
▁fe	-499
▁ad	-500
oss	-501
ando	-502
ther	-503
▁ی	-504
ono	-505
▁gen	-506
▁pers	-507
רו	-508
ón	-509
ym	-510
ied	-511
▁ח	-512
ough	-513
▁time	-514
pp	-515
▁non	-516
oll	-517
▁ind	-518
▁actually	-519
یم	-520
▁say	-521
ft	-522
alk	-523
gr	-524
ult	-525
lich	-526
ice	-527
لك	-528
▁where	-529
▁den	-530
ato	-531
ions	-532
bi	-533
▁could	-534
▁into	-535
▁הי	-536
▁cl	-537
pr	-538
▁się	-539
▁الت	-540
▁با	-541
ater	-542
▁new	-543
ign	-544
▁part	-545
age	-546
▁also	-547
لا	-548
▁pu	-549
▁ent	-550
וד	-551
▁years	-552
▁por	-553
▁things	-554
▁come	-555
▁other	-556
▁sc	-557
▁au	-558
ير	-559
▁em	-560
che	-561
eren	-562
▁somet	-563
▁res	-564
▁did	-565
▁از	-566
ung	-567
fe	-568
że	-569
ical	-570
▁well	-571
▁diff	-572
▁;	-573
رد	-574
▁kind	-575
▁ide	-576
▁her	-577
▁much	-578
▁לה	-579
▁cu	-580
▁real	-581
je	-582
▁الأ	-583
▁war	-584
▁ho	-585
▁..	-586
▁לא	-587
▁cont	-588
▁זה	-589
▁tod	-590
la	-591
nie	-592
kt	-593
▁sol	-594
ione	-595
▁happ	-596
▁any	-597
ano	-598
בר	-599
ry	-600
oun	-601
▁bet	-602
cie	-603
▁she	-604
cent	-605
ire	-606
▁make	-607
ía	-608
ces	-609
▁ان	-610
elf	-611
▁המ	-612
zie	-613
▁است	-614
▁fir	-615
▁ob	-616
▁right	-617
▁da	-618
ree	-619
▁inf	-620
ów	-621
ory	-622
pt	-623
ely	-624
ial	-625
ken	-626
cz	-627
▁bo	-628
und	-629
▁problem	-630
▁چ	-631
▁said	-632
▁wie	-633
ll	-634
▁start	-635
▁been	-636
ord	-637
sch	-638
هم	-639
▁ag	-640
▁dan	-641
ni	-642
▁two	-643
▁need	-644
רי	-645
▁most	-646
▁wer	-647
يد	-648
يا	-649
▁something	-650
▁پ	-651
לי	-652
ych	-653
كن	-654
▁om	-655
▁las	-656
די	-657
mo	-658
וא	-659
ys	-660
▁ת	-661
▁ph	-662
▁3	-663
▁pi	-664
ją	-665
na	-666
▁first	-667
con	-668
▁cre	-669
▁mi	-670
ick	-671
▁got	-672
▁ter	-673
able	-674
yst	-675
▁those	-676
▁נ	-677
he	-678
▁mar	-679
▁car	-680
cr	-681
▁tak	-682
▁הא	-683
own	-684
▁od	-685
▁cos	-686
▁back	-687
amp	-688
וב	-689
▁على	-690
▁talk	-691
▁call	-692
▁hum	-693
▁tra	-694
bl	-695
zi	-696
תי	-697
▁ser	-698
ep	-699
▁his	-700
▁jest	-701
▁ק	-702
▁mod	-703
ug	-704
vers	-705
▁inc	-706
ای	-707
▁spe	-708
▁zijn	-709
ado	-710
000	-711
ody	-712
▁dec	-713
row	-714
ome	-715
▁że	-716
ase	-717
ade	-718
ittle	-719
▁let	-720
לו	-721
▁little	-722
▁bl	-723
nolog	-724
▁tech	-725
ał	-726
ste	-727
▁even	-728
ür	-729
int	-730
ión	-731
▁col	-732
ence	-733
vel	-734
▁lot	-735
▁life	-736
▁pow	-737
▁person	-738
▁פ	-739
▁کن	-740
▁str	-741
pe	-742
عل	-743
ient	-744
נה	-745
▁voor	-746
chen	-747
co	-748
▁gu	-749
ual	-750
ty	-751
▁nicht	-752
▁von	-753
gan	-754
▁para	-755
▁mit	-756
ert	-757
ile	-758
way	-759
▁under	-760
ving	-761
ern	-762
▁על	-763
اب	-764
ري	-765
▁dass	-766
erent	-767
▁wat	-768
▁eine	-769
ors	-770
▁niet	-771
iss	-772
▁med	-773
▁only	-774
ijk	-775
▁may	-776
▁מה	-777
get	-778
amos	-779
▁nu	-780
▁ke	-781
▁dr	-782
▁auf	-783
ated	-784
ations	-785
▁nat	-786
لي	-787
amente	-788
ves	-789
ella	-790
▁آن	-791
تر	-792
▁stud	-793
▁گ	-794
▁ג	-795
▁ز	-796
▁ר	-797
▁good	-798
▁ci	-799
▁day	-800
vol	-801
מו	-802
▁یک	-803
▁thr	-804
ystem	-805
ذه	-806
قد	-807
▁many	-808
br	-809
ish	-810
▁sim	-811
ict	-812
ob	-813
▁trans	-814
حد	-815
▁comm	-816
בי	-817
other	-818
▁take	-819
▁sono	-820
ible	-821
▁pot	-822
ful	-823
שה	-824
cht	-825
ון	-826
ks	-827
▁هم	-828
▁pol	-829
▁different	-830
▁does	-831
▁cr	-832
ti	-833
▁bel	-834
▁int	-835
ás	-836
وم	-837
▁hel	-838
▁...	-839
▁mens	-840
▁wy	-841
▁pod	-842
wn	-843
▁mus	-844
que	-845
▁ten	-846
▁الع	-847
ta	-848
▁show	-849
▁؟	-850
ante	-851
▁19	-852
ina	-853
▁ok	-854
▁sec	-855
ian	-856
▁bra	-857
als	-858
▁through	-859
▁5	-860
▁import	-861
▁off	-862
ents	-863
▁dies	-864
▁um	-865
ico	-866
▁down	-867
שי	-868
▁jak	-869
▁why	-870
ange	-871
oc	-872
فت	-873
▁هذا	-874
▁around	-875
red	-876
tó	-877
▁fl	-878
יה	-879
ject	-880
▁بال	-881
▁wr	-882
▁pat	-883
▁form	-884
▁mak	-885
▁sm	-886
▁ele	-887
zen	-888
cia	-889
ning	-890
▁put	-891
▁ins	-892
▁technolog	-893
▁ص	-894
▁10	-895
▁art	-896
ary	-897
▁któ	-898
ię	-899
▁שה	-900
יות	-901
▁produ	-902
▁human	-903
▁ס	-904
▁20	-905
לה	-906
▁coun	-907
▁ve	-908
▁mat	-909
▁system	-910
▁fin	-911
erg	-912
enn	-913
מה	-914
▁رو	-915
▁uns	-916
נים	-917
▁mill	-918
▁cons	-919
wa	-920
▁مع	-921
▁ד	-922
men	-923
ada	-924
▁وال	-925
▁rel	-926
▁שא	-927
iel	-928
▁exper	-929
po	-930
▁poss	-931
▁tell	-932
▁being	-933
▁questo	-934
ting	-935
מי	-936
cial	-937
ance	-938
▁min	-939
▁big	-940
רא	-941
vent	-942
▁same	-943
▁use	-944
ذلك	-945
▁tut	-946
▁dem	-947
▁acc	-948
▁app	-949
▁sur	-950
ought	-951
▁لل	-952
▁!	-953
▁dit	-954
▁great	-955
▁4	-956
▁ط	-957
▁find	-958
▁av	-959
שים	-960
omen	-961
▁happen	-962
ons	-963
▁three	-964
ise	-965
hen	-966
▁cor	-967
▁או	-968
eld	-969
my	-970
ren	-971
▁heb	-972
▁its	-973
ele	-974
▁cap	-975
▁maar	-976
▁كان	-977
▁idea	-978
▁mil	-979
▁sk	-980
▁plan	-981
▁fact	-982
כל	-983
xt	-984
בל	-985
▁bas	-986
عد	-987
▁الح	-988
iend	-989
▁stat	-990
les	-991
▁try	-992
urn	-993
▁mom	-994
▁mon	-995
▁design	-996
رو	-997
▁אח	-998
▁vol	-999
▁cent	-1000
▁doing	-1001
יי	-1002
▁uni	-1003
▁sci	-1004
▁sich	-1005
igh	-1006
▁child	-1007
ars	-1008
ora	-1009
ull	-1010
ically	-1011
▁percent	-1012
▁ז	-1013
idad	-1014
cy	-1015
▁kan	-1016
▁لا	-1017
vo	-1018
▁creat	-1019
▁hier	-1020
▁inform	-1021
ved	-1022
لی	-1023
▁build	-1024
emos	-1025
▁ben	-1026
igen	-1027
era	-1028
ute	-1029
ación	-1030
ition	-1031
شت	-1032
ics	-1033
▁aan	-1034
▁after	-1035
▁más	-1036
ali	-1037
body	-1038
▁برا	-1039
▁again	-1040
▁וא	-1041
سا	-1042
دا	-1043
iamo	-1044
▁fam	-1045
▁bec	-1046
elt	-1047
iem	-1048
▁aut	-1049
thing	-1050
ger	-1051
ood	-1052
aw	-1053
▁più	-1054
▁ear	-1055
ious	-1056
über	-1057
▁aus	-1058
ple	-1059
▁rec	-1060
▁dar	-1061
▁pero	-1062
▁zo	-1063
stand	-1064
,000	-1065
▁called	-1066
▁como	-1067
▁prim	-1068
▁וה	-1069
רים	-1070
au	-1071
ige	-1072
▁الب	-1073
▁אי	-1074
wer	-1075
ool	-1076
ero	-1077
נות	-1078
▁הוא	-1079
ular	-1080
▁waar	-1081
وان	-1082
▁long	-1083
▁mach	-1084
▁best	-1085
▁cam	-1086
▁hand	-1087
▁אני	-1088
▁sind	-1089
ete	-1090
כול	-1091
ści	-1092
ah	-1093
ific	-1094
aj	-1095
▁بود	-1096
▁countr	-1097
▁far	-1098
▁amer	-1099
▁מא	-1100
ום	-1101
▁sens	-1102
قت	-1103
ism	-1104
tra	-1105
▁هذه	-1106
▁ga	-1107
▁hac	-1108
fore	-1109
▁era	-1110
▁should	-1111
▁ty	-1112
ento	-1113
ende	-1114
▁rem	-1115
▁אנ	-1116
▁imag	-1117
ior	-1118
ets	-1119
▁lear	-1120
مل	-1121
▁ask	-1122
▁inst	-1123
▁ges	-1124
▁fun	-1125
▁وا	-1126
▁¿	-1127
▁کرد	-1128
▁comput	-1129
يم	-1130
▁made	-1131
▁today	-1132
▁für	-1133
mente	-1134
▁pres	-1135
ph	-1136
▁aber	-1137
▁reg	-1138
old	-1139
▁lu	-1140
▁jed	-1141
ote	-1142
▁عن	-1143
▁own	-1144
▁هو	-1145
▁בא	-1146
▁ac	-1147
ating	-1148
▁ih	-1149
▁hat	-1150
ail	-1151
ingen	-1152
ön	-1153
▁last	-1154
ution	-1155
ła	-1156
خت	-1157
▁important	-1158
▁&#	-1159
▁&#9	-1160
▁wenn	-1161
یر	-1162
ży	-1163
▁end	-1164
▁haben	-1165
▁gener	-1166
פי	-1167
▁tem	-1168
zo	-1169
▁play	-1170
▁alle	-1171
ont	-1172
▁beg	-1173
▁energ	-1174
ità	-1175
▁beh	-1176
▁dur	-1177
▁دار	-1178
▁bi	-1179
▁organ	-1180
form	-1181
نت	-1182
ata	-1183
▁brain	-1184
raw	-1185
czy	-1186
▁mol	-1187
▁another	-1188
gg	-1189
ek	-1190
lt	-1191
ki	-1192
▁כל	-1193
▁num	-1194
▁eff	-1195
ده	-1196
ities	-1197
قة	-1198
ids	-1199
ello	-1200
▁econ	-1201
▁school	-1202
ło	-1203
bre	-1204
▁למ	-1205
▁feel	-1206
▁thought	-1207
▁him	-1208
▁200	-1209
▁prze	-1210
pect	-1211
ede	-1212
▁ess	-1213
▁della	-1214
مكن	-1215
▁צ	-1216
▁eng	-1217
رة	-1218
▁الس	-1219
▁uit	-1220
wor	-1221
▁mean	-1222
שר	-1223
▁interest	-1224
▁son	-1225
▁help	-1226
▁compl	-1227
▁power	-1228
▁kun	-1229
חי	-1230
▁change	-1231
▁vis	-1232
▁second	-1233
▁pos	-1234
▁before	-1235
▁ed	-1236
▁men	-1237
يع	-1238
▁afr	-1239
▁cour	-1240
▁التي	-1241
▁didn	-1242
ać	-1243
▁pens	-1244
▁nel	-1245
▁ها	-1246
▁pass	-1247
▁über	-1248
قا	-1249
▁sl	-1250
bo	-1251
▁deze	-1252
▁econom	-1253
ido	-1254
▁inv	-1255
sel	-1256
يل	-1257
ko	-1258
▁przy	-1259
cess	-1260
▁ws	-1261
با	-1262
▁está	-1263
ane	-1264
▁ted	-1265
ction	-1266
▁אות	-1267
▁ris	-1268
▁hist	-1269
טי	-1270
▁sin	-1271
▁word	-1272
סי	-1273
▁برای	-1274
עי	-1275
كل	-1276
▁famil	-1277
בה	-1278
▁never	-1279
▁started	-1280
▁det	-1281
▁understand	-1282
net	-1283
▁kom	-1284
▁imm	-1285
▁الذ	-1286
بر	-1287
▁הת	-1288
وع	-1289
anno	-1290
▁هنا	-1291
att	-1292
▁turn	-1293
▁story	-1294
▁water	-1295
▁kön	-1296
▁went	-1297
ioni	-1298
גי	-1299
port	-1300
یز	-1301
ופ	-1302
gu	-1303
▁esto	-1304
▁bit	-1305
up	-1306
ori	-1307
دي	-1308
رف	-1309
▁give	-1310
ility	-1311
▁qual	-1312
▁كل	-1313
▁expl	-1314
ka	-1315
▁better	-1316
▁ذلك	-1317
▁دا	-1318
ner	-1319
ומ	-1320
▁ale	-1321
▁إلى	-1322
▁found	-1323
▁point	-1324
▁ś	-1325
▁partic	-1326
ici	-1327
قع	-1328
חנו	-1329
▁بر	-1330
▁cz	-1331
erd	-1332
va	-1333
▁progr	-1334
▁rob	-1335
▁pa	-1336
▁אבל	-1337
▁att	-1338
ieve	-1339
ura	-1340
▁vor	-1341
▁6	-1342
▁אז	-1343
اه	-1344
ists	-1345
▁diese	-1346
▁pop	-1347
▁cell	-1348
▁fil	-1349
▁mag	-1350
ings	-1351
▁mis	-1352
▁might	-1353
عت	-1354
▁high	-1355
▁fu	-1356
▁thank	-1357
وب	-1358
▁dire	-1359
gt	-1360
▁doll	-1361
▁sort	-1362
▁الك	-1363
ito	-1364
▁bus	-1365
وج	-1366
azione	-1367
▁fat	-1368
wi	-1369
▁الج	-1370
ku	-1371
▁ap	-1372
▁الن	-1373
قي	-1374
בו	-1375
▁ja	-1376
▁hij	-1377
ced	-1378
▁each	-1379
▁bot	-1380
▁ste	-1381
▁יכול	-1382
שו	-1383
▁לע	-1384
▁course	-1385
uro	-1386
elijk	-1387
▁land	-1388
rem	-1389
ural	-1390
velop	-1391
▁still	-1392
سی	-1393
ari	-1394
oro	-1395
cept	-1396
aus	-1397
رب	-1398
gether	-1399
ami	-1400
▁lar	-1401
רה	-1402
▁naar	-1403
▁next	-1404
▁glo	-1405
▁ago	-1406
ني	-1407
▁hebben	-1408
ward	-1409
eden	-1410
▁contro	-1411
cu	-1412
▁together	-1413
گر	-1414
▁commun	-1415
▁במ	-1416
iet	-1417
▁sign	-1418
▁conf	-1419
ny	-1420
ath	-1421
▁nas	-1422
خر	-1423
alth	-1424
▁ט	-1425
ins	-1426
biamo	-1427
its	-1428
▁های	-1429
▁غ	-1430
▁הם	-1431
by	-1432
▁الا	-1433
▁gro	-1434
▁tot	-1435
ische	-1436
▁develop	-1437
▁able	-1438
▁sub	-1439
▁du	-1440
enti	-1441
▁anim	-1442
▁grow	-1443
▁grand	-1444
▁technology	-1445
▁door	-1446
▁million	-1447
▁يمكن	-1448
▁مت	-1449
onder	-1450
▁prof	-1451
ween	-1452
▁et	-1453
▁vers	-1454
▁four	-1455
▁بد	-1456
سب	-1457
ita	-1458
▁שי	-1459
cer	-1460
▁מי	-1461
▁cas	-1462
▁יש	-1463
یش	-1464
▁mor	-1465
▁val	-1466
lu	-1467
▁9	-1468
▁בע	-1469
▁ass	-1470
▁set	-1471
erm	-1472
▁ant	-1473
▁came	-1474
▁cosa	-1475
ines	-1476
ść	-1477
aph	-1478
▁stu	-1479
مر	-1480
▁data	-1481
كون	-1482
قط	-1483
▁jo	-1484
▁between	-1485
▁así	-1486
▁tu	-1487
حت	-1488
▁dist	-1489
▁شما	-1490
ותר	-1491
ati	-1492
כם	-1493
ness	-1494
bal	-1495
▁learn	-1496
ché	-1497
ited	-1498
ital	-1499
▁project	-1500
וח	-1501
▁fut	-1502
▁place	-1503
▁mal	-1504
ience	-1505
read	-1506
▁lat	-1507
iness	-1508
▁probab	-1509
arch	-1510
أن	-1511
▁uno	-1512
▁7	-1513
كم	-1514
▁geb	-1515
śmy	-1516
رت	-1517
▁הע	-1518
▁gra	-1519
ieren	-1520
ruct	-1521
▁ah	-1522
ized	-1523
▁few	-1524
▁questa	-1525
▁הח	-1526
▁הש	-1527
iter	-1528
▁8	-1529
anie	-1530
▁30	-1531
zt	-1532
וק	-1533
▁hal	-1534
self	-1535
צי	-1536
ri	-1537
ures	-1538
▁50	-1539
▁too	-1540
های	-1541
ania	-1542
▁cost	-1543
ros	-1544
▁sal	-1545
▁ir	-1546
▁هست	-1547
▁bill	-1548
▁الإ	-1549
▁used	-1550
فا	-1551
▁الش	-1552
ank	-1553
der	-1554
▁רו	-1555
▁15	-1556
duc	-1557
amm	-1558
▁este	-1559
▁small	-1560
▁question	-1561
▁resp	-1562
ational	-1563
▁kon	-1564
▁old	-1565
▁ni	-1566
ps	-1567
▁mijn	-1568
▁מת	-1569
ample	-1570
aal	-1571
én	-1572
▁maybe	-1573
ida	-1574
yn	-1575
▁עם	-1576
▁colle	-1577
▁יותר	-1578
▁mater	-1579
عة	-1580
▁fac	-1581
▁char	-1582
▁lang	-1583
isch	-1584
▁publ	-1585
▁wo	-1586
▁children	-1587
zą	-1588
▁wię	-1589
ways	-1590
▁لم	-1591
▁read	-1592
▁کار	-1593
▁perché	-1594
▁gl	-1595
▁cal	-1596
▁light	-1597
▁mensen	-1598
aut	-1599
▁100	-1600
مان	-1601
▁מש	-1602
▁לי	-1603
▁mir	-1604
▁sit	-1605
erv	-1606
يف	-1607
▁מס	-1608
▁مث	-1609
▁esta	-1610
▁done	-1611
▁def	-1612
ños	-1613
uss	-1614
▁univers	-1615
▁nach	-1616
▁looking	-1617
▁wa	-1618
▁whole	-1619
▁less	-1620
ats	-1621
oney	-1622
▁لي	-1623
▁open	-1624
▁vi	-1625
▁move	-1626
▁doesn	-1627
▁nos	-1628
▁–	-1629
▁abbiamo	-1630
▁hu	-1631
els	-1632
▁cult	-1633
▁health	-1634
iert	-1635
▁הר	-1636
▁love	-1637
ino	-1638
וג	-1639
▁mind	-1640
וש	-1641
ין	-1642
pos	-1643
▁fa	-1644
▁care	-1645
جا	-1646
▁moment	-1647
▁وه	-1648
▁werden	-1649
▁sem	-1650
▁hard	-1651
לא	-1652
می	-1653
▁example	-1654
eten	-1655
מש	-1656
▁kr	-1657
▁einen	-1658
▁information	-1659
▁women	-1660
▁cur	-1661
▁czy	-1662
ellen	-1663
صل	-1664
▁alt	-1665
▁net	-1666
▁היא	-1667
ters	-1668
▁الق	-1669
▁live	-1670
tern	-1671
selves	-1672
▁stor	-1673
iones	-1674
hl	-1675
▁hoe	-1676
iał	-1677
▁social	-1678
▁sing	-1679
▁מע	-1680
▁mot	-1681
سم	-1682
▁five	-1683
▁الص	-1684
▁giv	-1685
פר	-1686
▁الط	-1687
▁vide	-1688
endo	-1689
▁test	-1690
land	-1691
▁pun	-1692
رات	-1693
▁begin	-1694
▁os	-1695
▁prz	-1696
▁قد	-1697
▁sag	-1698
▁bes	-1699
▁bre	-1700
▁lud	-1701
ope	-1702
ana	-1703
▁oh	-1704
ęd	-1705
▁always	-1706
▁book	-1707
ones	-1708
▁الف	-1709
▁wanted	-1710
▁mark	-1711
ative	-1712
▁sta	-1713
▁dav	-1714
▁tien	-1715
ount	-1716
▁everything	-1717
מת	-1718
▁elect	-1719
▁polit	-1720
me	-1721
▁können	-1722
pre	-1723
par	-1724
nect	-1725
ird	-1726
▁تا	-1727
یا	-1728
▁working	-1729
ustr	-1730
▁rest	-1731
▁gli	-1732
▁é	-1733
▁sent	-1734
▁dise	-1735
▁ث	-1736
▁او	-1737
כי	-1738
ji	-1739
▁process	-1740
▁computer	-1741
▁تر	-1742
▁gre	-1743
▁space	-1744
سي	-1745
▁hay	-1746
iten	-1747
▁kids	-1748
ję	-1749
ional	-1750
ogr	-1751
cul	-1752
▁leg	-1753
خص	-1754
▁times	-1755
osa	-1756
▁reas	-1757
▁supp	-1758
isten	-1759
▁trying	-1760
▁money	-1761
▁roz	-1762
▁stand	-1763
ضا	-1764
cle	-1765
▁solo	-1766
▁kunnen	-1767
▁chang	-1768
▁lab	-1769
▁ext	-1770
▁muy	-1771
▁believe	-1772
▁vie	-1773
▁أو	-1774
ett	-1775
لة	-1776
▁gover	-1777
of	-1778
▁fre	-1779
ili	-1780
▁oder	-1781
ble	-1782
▁global	-1783
▁succ	-1784
ates	-1785
ng	-1786
▁tro	-1787
▁vir	-1788
▁teach	-1789
hren	-1790
gun	-1791
▁using	-1792
▁contin	-1793
▁away	-1794
▁super	-1795
▁hacer	-1796
▁country	-1797
▁evol	-1798
▁food	-1799
▁אם	-1800
▁چیز	-1801
▁lead	-1802
▁pie	-1803
jo	-1804
בים	-1805
▁robot	-1806
▁هي	-1807
▁dei	-1808
dy	-1809
▁nost	-1810
ather	-1811
ثر	-1812
▁الخ	-1813
orn	-1814
▁prot	-1815
▁ons	-1816
vi	-1817
ief	-1818
ijd	-1819
ider	-1820
▁stop	-1821
any	-1822
▁إن	-1823
ani	-1824
▁educ	-1825
▁speci	-1826
▁היה	-1827
zione	-1828
▁molto	-1829
▁tam	-1830
▁mich	-1831
▁cuando	-1832
▁eso	-1833
▁nur	-1834
▁run	-1835
▁pict	-1836
vir	-1837
wh	-1838
▁bad	-1839
▁nam	-1840
▁internet	-1841
gl	-1842
▁ans	-1843
▁są	-1844
iment	-1845
▁sein	-1846
▁viel	-1847
hal	-1848
ción	-1849
▁nuest	-1850
▁بع	-1851
▁mid	-1852
اده	-1853
aces	-1854
ember	-1855
מר	-1856
▁number	-1857
▁thinking	-1858
hn	-1859
nych	-1860
▁cir	-1861
▁gente	-1862
▁minut	-1863
ini	-1864
▁ev	-1865
ments	-1866
▁quando	-1867
hip	-1868
▁zou	-1869
▁term	-1870
לים	-1871
ores	-1872
ja	-1873
▁earth	-1874
▁ru	-1875
ły	-1876
▁sul	-1877
تم	-1878
שות	-1879
▁هناك	-1880
▁fra	-1881
▁الآ	-1882
ize	-1883
▁create	-1884
▁rad	-1885
את	-1886
▁aff	-1887
ivid	-1888
▁equ	-1889
til	-1890
▁sus	-1891
▁walk	-1892
▁fig	-1893
▁home	-1894
▁means	-1895
▁took	-1896
▁energy	-1897
وت	-1898
verse	-1899
▁hun	-1900
esso	-1901
▁film	-1902
▁ment	-1903
▁delle	-1904
ados	-1905
דר	-1906
▁africa	-1907
الم	-1908
וי	-1909
▁kle	-1910
aba	-1911
▁parte	-1912
▁friend	-1913
allen	-1914
▁const	-1915
▁dus	-1916
▁الذي	-1917
▁لكن	-1918
▁future	-1919
▁כא	-1920
▁enough	-1921
ric	-1922
▁pas	-1923
ga	-1924
▁interesting	-1925
דים	-1926
▁tym	-1927
עים	-1928
▁cle	-1929
acy	-1930
ולם	-1931
▁così	-1932
וצ	-1933
▁connect	-1934
▁kl	-1935
▁kann	-1936
▁blo	-1937
aps	-1938
▁sw	-1939
▁planet	-1940
یست	-1941
▁left	-1942
▁ond	-1943
▁norm	-1944
▁bij	-1945
▁אנחנו	-1946
ues	-1947
▁zw	-1948
ungen	-1949
▁cui	-1950
▁become	-1951
کن	-1952
▁govern	-1953
▁مش	-1954
ering	-1955
▁getting	-1956
▁head	-1957
▁הק	-1958
ativ	-1959
▁id	-1960
▁حال	-1961
▁air	-1962
▁stre	-1963
▁które	-1964
cover	-1965
▁sz	-1966
ouw	-1967
ری	-1968
▁phys	-1969
gn	-1970
▁science	-1971
▁without	-1972
▁qué	-1973
pro	-1974
▁hab	-1975
▁says	-1976
▁einer	-1977
▁andere	-1978
▁quite	-1979
▁add	-1980
▁pret	-1981
zyst	-1982
▁probably	-1983
ican	-1984
ape	-1985
ouse	-1986
▁grou	-1987
af	-1988
▁ref	-1989
▁sense	-1990
▁result	-1991
כו	-1992
▁god	-1993
▁%	-1994
ef	-1995
▁face	-1996
دم	-1997
▁bar	-1998
كان	-1999
▁complet	-2000
▁بعد	-2001
ron	-2002
▁مو	-2003
▁half	-2004
ws	-2005
▁gel	-2006
▁سا	-2007
▁auch	-2008
אים	-2009
js	-2010
▁control	-2011
▁building	-2012
▁تو	-2013
pu	-2014
▁porque	-2015
▁dom	-2016
▁month	-2017
▁stuff	-2018
mer	-2019
▁باش	-2020
▁product	-2021
▁happened	-2022
▁arch	-2023
ices	-2024
▁simple	-2025
▁alla	-2026
col	-2027
بل	-2028
▁علي	-2029
▁chi	-2030
▁comes	-2031
ator	-2032
▁dollars	-2033
▁sam	-2034
▁talking	-2035
emy	-2036
lam	-2037
▁india	-2038
▁mein	-2039
iting	-2040
gli	-2041
▁loc	-2042
ilt	-2043
ברים	-2044
▁wel	-2045
▁wonder	-2046
قل	-2047
bs	-2048
plic	-2049
▁gem	-2050
▁mem	-2051
▁okay	-2052
man	-2053
▁video	-2054
▁لدي	-2055
▁aqu	-2056
ertain	-2057
▁beaut	-2058
▁loro	-2059
▁gi	-2060
▁later	-2061
▁anni	-2062
▁making	-2063
▁moż	-2064
דה	-2065
▁fare	-2066
▁mund	-2067
▁business	-2068
▁top	-2069
wie	-2070
▁tre	-2071
▁הז	-2072
1;	-2073
▁&#91;	-2074
3;	-2075
▁&#93;	-2076
▁dann	-2077
▁socie	-2078
▁نف	-2079
▁خوا	-2080
▁scient	-2081
من	-2082
▁وج	-2083
▁ont	-2084
▁har	-2085
يات	-2086
▁inno	-2087
▁einem	-2088
רות	-2089
▁ps	-2090
ظر	-2091
حا	-2092
▁أي	-2093
▁ولك	-2094
▁body	-2095
atie	-2096
رك	-2097
▁bring	-2098
ibt	-2099
▁ved	-2100
▁abs	-2101
▁material	-2102
ever	-2103
נית	-2104
zu	-2105
▁acr	-2106
קה	-2107
▁ook	-2108
▁כי	-2109
▁gesch	-2110
anto	-2111
▁בה	-2112
▁individ	-2113
▁job	-2114
▁sab	-2115
▁else	-2116
▁rese	-2117
led	-2118
▁red	-2119
▁essere	-2120
▁invest	-2121
ناس	-2122
▁sehr	-2123
ät	-2124
▁anything	-2125
▁bed	-2126
▁dru	-2127
▁mond	-2128
▁fund	-2129
▁ideas	-2130
▁tip	-2131
▁model	-2132
▁keep	-2133
▁gir	-2134
▁terr	-2135
▁room	-2136
▁anche	-2137
viron	-2138
uto	-2139
▁cond	-2140
▁הזה	-2141
▁research	-2142
▁فقط	-2143
lex	-2144
ury	-2145
تي	-2146
▁arr	-2147
▁city	-2148
▁18	-2149
▁dig	-2150
ument	-2151
▁todo	-2152
▁לח	-2153
▁اون	-2154
▁particular	-2155
▁ای	-2156
bie	-2157
▁phot	-2158
łem	-2159
▁environ	-2160
▁/	-2161
▁ra	-2162
▁public	-2163
▁persone	-2164
▁incred	-2165
inci	-2166
▁12	-2167
amy	-2168
indi	-2169
▁makes	-2170
▁wird	-2171
▁eas	-2172
heid	-2173
▁oce	-2174
▁mic	-2175
▁effect	-2176
anz	-2177
▁לש	-2178
ba	-2179
▁side	-2180
▁hanno	-2181
▁sound	-2182
▁such	-2183
änd	-2184
▁مج	-2185
▁cer	-2186
▁dre	-2187
▁mie	-2188
▁six	-2189
ges	-2190
▁ora	-2191
▁عند	-2192
מים	-2193
ts	-2194
▁seem	-2195
ischen	-2196
ma	-2197
قی	-2198
res	-2199
▁exc	-2200
enza	-2201
▁ولكن	-2202
▁الر	-2203
▁coming	-2204
▁آنها	-2205
▁daar	-2206
▁מח	-2207
▁lives	-2208
▁pretty	-2209
▁mas	-2210
cze	-2211
sten	-2212
ائ	-2213
▁40	-2214
▁biolog	-2215
oud	-2216
ują	-2217
▁تع	-2218
▁ta	-2219
▁quindi	-2220
▁countries	-2221
▁case	-2222
▁אתם	-2223
ią	-2224
eft	-2225
ene	-2226
יתי	-2227
ño	-2228
▁za	-2229
וכ	-2230
▁nog	-2231
▁hope	-2232
iger	-2233
án	-2234
ann	-2235
▁imagine	-2236
▁allow	-2237
owe	-2238
▁across	-2239
▁doen	-2240
بد	-2241
ying	-2242
▁bis	-2243
ograph	-2244
گی	-2245
pres	-2246
▁conc	-2247
▁מק	-2248
▁quello	-2249
▁amaz	-2250
▁once	-2251
בע	-2252
ios	-2253
▁sel	-2254
▁modo	-2255
▁الو	-2256
▁meer	-2257
acht	-2258
▁ko	-2259
▁menschen	-2260
erence	-2261
ück	-2262
ijke	-2263
▁שמ	-2264
vis	-2265
gest	-2266
press	-2267
izz	-2268
▁exp	-2269
▁innov	-2270
▁نح	-2271
بت	-2272
▁goes	-2273
▁años	-2274
▁fas	-2275
▁הה	-2276
▁خود	-2277
▁شد	-2278
▁told	-2279
▁ot	-2280
▁כך	-2281
▁سو	-2282
▁port	-2283
ork	-2284
▁נו	-2285
▁cho	-2286
ately	-2287
▁qui	-2288
▁có	-2289
▁yet	-2290
▁reason	-2291
śli	-2292
▁pap	-2293
ensch	-2294
▁dzie	-2295
مت	-2296
▁הד	-2297
▁tw	-2298
elle	-2299
da	-2300
▁dell	-2301
▁living	-2302
▁nor	-2303
لف	-2304
▁happens	-2305
jor	-2306
▁داشت	-2307
aft	-2308
▁כמו	-2309
▁young	-2310
ime	-2311
nym	-2312
aten	-2313
▁incre	-2314
▁dev	-2315
▁line	-2316
kie	-2317
▁ey	-2318
▁trad	-2319
كثر	-2320
▁مثل	-2321
▁basically	-2322
▁pom	-2323
▁اما	-2324
▁ways	-2325
▁fot	-2326
ipt	-2327
▁alm	-2328
▁לפ	-2329
was	-2330
▁mass	-2331
▁bard	-2332
▁patient	-2333
▁gibt	-2334
▁הפ	-2335
מן	-2336
▁ihnen	-2337
▁cou	-2338
▁שלי	-2339
do	-2340
رض	-2341
iti	-2342
▁saw	-2343
where	-2344
ales	-2345
▁having	-2346
lau	-2347
که	-2348
ivo	-2349
يت	-2350
▁הג	-2351
▁ży	-2352
▁ده	-2353
▁experience	-2354
oot	-2355
▁seen	-2356
iendo	-2357
▁music	-2358
elen	-2359
bar	-2360
▁בי	-2361
▁sobre	-2362
▁دی	-2363
▁wur	-2364
▁problems	-2365
▁hour	-2366
כים	-2367
▁environment	-2368
ization	-2369
לק	-2370
▁לנו	-2371
▁waren	-2372
▁euro	-2373
▁wil	-2374
اره	-2375
▁while	-2376
anda	-2377
נת	-2378
▁algo	-2379
▁family	-2380
▁تص	-2381
icult	-2382
▁ahora	-2383
▁nun	-2384
שהו	-2385
▁obs	-2386
▁tutti	-2387
▁bab	-2388
▁days	-2389
▁decid	-2390
▁remember	-2391
▁camp	-2392
▁onze	-2393
▁inside	-2394
akt	-2395
▁مد	-2396
ną	-2397
sen	-2398
ared	-2399
▁york	-2400
▁natural	-2401
enden	-2402
انی	-2403
ined	-2404
▁exact	-2405
▁les	-2406
imos	-2407
urs	-2408
ثير	-2409
▁self	-2410
▁25	-2411
iento	-2412
ily	-2413
▁billion	-2414
▁tego	-2415
▁אחד	-2416
וס	-2417
ورد	-2418
fer	-2419
▁contr	-2420
▁mundo	-2421
lijk	-2422
▁level	-2423
▁picture	-2424
▁aud	-2425
▁dam	-2426
▁state	-2427
▁girl	-2428
▁prov	-2429
▁توان	-2430
▁geen	-2431
▁وقت	-2432
علم	-2433
נט	-2434
▁program	-2435
▁both	-2436
▁hund	-2437
▁watch	-2438
اری	-2439
▁og	-2440
ousand	-2441
▁الد	-2442
▁discover	-2443
gel	-2444
ורה	-2445
por	-2446
▁present	-2447
▁شي	-2448
▁pon	-2449
▁states	-2450
▁ric	-2451
ament	-2452
▁news	-2453
--	-2454
▁pain	-2455
ista	-2456
ether	-2457
כת	-2458
▁asked	-2459
▁china	-2460
▁nothing	-2461
▁بش	-2462
▁langu	-2463
▁ca	-2464
▁post	-2465
line	-2466
▁welt	-2467
▁tutto	-2468
▁single	-2469
▁ven	-2470
▁jaar	-2471
נס	-2472
▁دو	-2473
rop	-2474
fect	-2475
▁בש	-2476
ield	-2477
هر	-2478
▁everybody	-2479
▁thousand	-2480
itive	-2481
▁ur	-2482
ident	-2483
דע	-2484
▁wereld	-2485
imes	-2486
▁zien	-2487
لم	-2488
▁tun	-2489
▁history	-2490
▁הס	-2491
▁lav	-2492
یت	-2493
▁within	-2494
▁bro	-2495
▁cells	-2496
▁whether	-2497
▁almost	-2498
ark	-2499
▁noch	-2500
▁certain	-2501
▁dla	-2502
▁midd	-2503
chte	-2504
▁cancer	-2505
▁dep	-2506
▁sehen	-2507
▁wrong	-2508
רת	-2509
▁demo	-2510
▁oper	-2511
▁unter	-2512
▁سال	-2513
ware	-2514
ants	-2515
▁gew	-2516
ala	-2517
اص	-2518
▁ple	-2519
▁arm	-2520
cho	-2521
str	-2522
istem	-2523
▁treat	-2524
▁רק	-2525
▁hom	-2526
▁nad	-2527
▁yo	-2528
los	-2529
és	-2530
يث	-2531
iful	-2532
▁relig	-2533
▁wszyst	-2534
ender	-2535
▁saying	-2536
▁versch	-2537
کر	-2538
▁bin	-2539
▁clim	-2540
▁ret	-2541
▁dieser	-2542
▁coll	-2543
▁answer	-2544
▁hear	-2545
▁heart	-2546
▁class	-2547
cun	-2548
fr	-2549
▁تق	-2550
▁واقع	-2551
bra	-2552
▁ju	-2553
ready	-2554
iva	-2555
rze	-2556
vie	-2557
▁וב	-2558
▁יכולים	-2559
▁etwas	-2560
ras	-2561
▁الآن	-2562
ages	-2563
▁sure	-2564
▁בת	-2565
▁כדי	-2566
▁rich	-2567
▁tele	-2568
gi	-2569
שת	-2570
baj	-2571
ulation	-2572
▁przez	-2573
▁هر	-2574
▁mondo	-2575
nego	-2576
▁must	-2577
acter	-2578
▁onder	-2579
kom	-2580
bbe	-2581
dat	-2582
رس	-2583
▁سن	-2584
مو	-2585
▁aquí	-2586
▁extra	-2587
▁يت	-2588
▁זו	-2589
▁sou	-2590
▁nature	-2591
▁beautiful	-2592
▁ihr	-2593
▁wid	-2594
mos	-2595
bers	-2596
▁hy	-2597
aż	-2598
مة	-2599
بي	-2600
▁לק	-2601
▁already	-2602
▁interess	-2603
▁durch	-2604
▁situ	-2605
▁tom	-2606
▁إذا	-2607
ować	-2608
▁שלנו	-2609
▁mö	-2610
▁low	-2611
▁הב	-2612
▁مح	-2613
▁chr	-2614
▁więc	-2615
▁کنیم	-2616
▁تح	-2617
یلی	-2618
▁لأن	-2619
לות	-2620
▁تلك	-2621
▁market	-2622
▁حت	-2623
▁kill	-2624
في	-2625
حدث	-2626
▁lle	-2627
▁guy	-2628
▁matter	-2629
cript	-2630
uje	-2631
ony	-2632
ían	-2633
עות	-2634
▁یا	-2635
imo	-2636
▁activ	-2637
▁جدا	-2638
▁looks	-2639
▁fall	-2640
▁speak	-2641
▁todos	-2642
▁كانت	-2643
▁true	-2644
▁يع	-2645
▁possib	-2646
▁twe	-2647
▁habe	-2648
يرة	-2649
▁lim	-2650
▁often	-2651
▁sat	-2652
▁mer	-2653
gar	-2654
▁الى	-2655
▁wind	-2656
▁exist	-2657
ted	-2658
▁fue	-2659
▁decis	-2660
▁mess	-2661
▁ול	-2662
▁appro	-2663
lus	-2664
▁który	-2665
▁عندما	-2666
▁worden	-2667
▁possible	-2668
▁بعض	-2669
▁cosas	-2670
▁حس	-2671
▁ست	-2672
انه	-2673
▁disc	-2674
▁wiss	-2675
▁works	-2676
ctor	-2677
צה	-2678
▁math	-2679
▁amazing	-2680
كر	-2681
raf	-2682
בור	-2683
▁buen	-2684
▁sil	-2685
icz	-2686
▁someone	-2687
iera	-2688
▁espe	-2689
less	-2690
▁spend	-2691
כן	-2692
▁ام	-2693
▁לב	-2694
▁histor	-2695
ياء	-2696
▁fatto	-2697
▁west	-2698
▁naj	-2699
iar	-2700
▁dos	-2701
▁אנו	-2702
van	-2703
osp	-2704
▁experiment	-2705
خل	-2706
nej	-2707
▁pal	-2708
▁sistem	-2709
▁tec	-2710
▁zur	-2711
ób	-2712
cin	-2713
▁mehr	-2714
▁60	-2715
▁success	-2716
lie	-2717
▁questi	-2718
דו	-2719
▁age	-2720
▁heard	-2721
ias	-2722
com	-2723
▁zn	-2724
▁تن	-2725
iedy	-2726
▁drug	-2727
▁psych	-2728
▁group	-2729
▁puede	-2730
▁trabaj	-2731
▁neur	-2732
▁individual	-2733
בות	-2734
▁جم	-2735
▁وأ	-2736
▁miss	-2737
▁challen	-2738
oman	-2739
▁mog	-2740
▁sym	-2741
▁education	-2742
▁united	-2743
▁community	-2744
▁cose	-2745
ör	-2746
דול	-2747
▁personal	-2748
▁kiedy	-2749
▁کنم	-2750
▁occ	-2751
جام	-2752
מצ	-2753
אי	-2754
▁universe	-2755
pen	-2756
▁کنند	-2757
▁complex	-2758
▁team	-2759
▁להיות	-2760
▁media	-2761
▁serv	-2762
گاه	-2763
▁months	-2764
ודה	-2765
anti	-2766
▁due	-2767
▁green	-2768
▁ident	-2769
▁verb	-2770
uk	-2771
ollow	-2772
▁until	-2773
▁past	-2774
▁אנשים	-2775
▁looked	-2776
olo	-2777
▁zm	-2778
▁figure	-2779
▁anal	-2780
▁الناس	-2781
▁liter	-2782
work	-2783
pir	-2784
▁simp	-2785
רג	-2786
▁foc	-2787
▁engine	-2788
▁شده	-2789
▁yes	-2790
stead	-2791
▁sle	-2792
▁chem	-2793
uur	-2794
▁sometimes	-2795
▁alles	-2796
▁nella	-2797
▁absol	-2798
plo	-2799
▁america	-2800
▁نش	-2801
▁dna	-2802
ired	-2803
▁iss	-2804
▁ye	-2805
▁hundred	-2806
yt	-2807
▁كنت	-2808
▁vr	-2809
▁struct	-2810
▁instead	-2811
یک	-2812
▁eigen	-2813
וך	-2814
▁dest	-2815
vious	-2816
▁built	-2817
aan	-2818
מות	-2819
▁myself	-2820
ret	-2821
▁hor	-2822
▁همه	-2823
▁cómo	-2824
▁bien	-2825
pow	-2826
▁kil	-2827
▁rag	-2828
▁democr	-2829
▁isn	-2830
ler	-2831
▁zwe	-2832
▁نمی	-2833
pa	-2834
ún	-2835
äch	-2836
▁יוד	-2837
▁somebody	-2838
▁ged	-2839
ave	-2840
طور	-2841
▁princi	-2842
وی	-2843
▁tool	-2844
שוב	-2845
▁verd	-2846
مات	-2847
▁może	-2848
▁kne	-2849
▁stories	-2850
▁idee	-2851
حة	-2852
▁object	-2853
esz	-2854
lio	-2855
▁cop	-2856
▁queste	-2857
▁since	-2858
▁heeft	-2859
▁veel	-2860
ario	-2861
emat	-2862
▁din	-2863
ement	-2864
▁government	-2865
▁pay	-2866
وق	-2867
▁كه	-2868
▁enc	-2869
▁behav	-2870
ling	-2871
▁follow	-2872
▁invent	-2873
▁العالم	-2874
▁تج	-2875
بع	-2876
▁sn	-2877
ii	-2878
zę	-2879
▁gran	-2880
▁places	-2881
aria	-2882
▁groß	-2883
كت	-2884
▁bei	-2885
▁ach	-2886
▁prima	-2887
▁چه	-2888
iden	-2889
▁ri	-2890
▁words	-2891
▁comun	-2892
▁ai	-2893
▁night	-2894
▁language	-2895
▁order	-2896
side	-2897
.000	-2898
fic	-2899
▁dall	-2900
unch	-2901
▁خیلی	-2902
▁חי	-2903
lichen	-2904
▁noi	-2905
▁jeśli	-2906
portun	-2907
▁opt	-2908
ode	-2909
▁opportun	-2910
▁wirk	-2911
▁front	-2912
▁instit	-2913
▁dal	-2914
▁nue	-2915
ruik	-2916
▁entire	-2917
▁wied	-2918
▁house	-2919
יתה	-2920
ares	-2921
▁טוב	-2922
ense	-2923
▁step	-2924
▁middle	-2925
כשי	-2926
iche	-2927
▁zd	-2928
▁caus	-2929
rawd	-2930
liche	-2931
▁einf	-2932
▁fant	-2933
▁personas	-2934
▁prop	-2935
ład	-2936
▁zro	-2937
ולי	-2938
▁lie	-2939
ونه	-2940
▁consum	-2941
▁ger	-2942
eter	-2943
▁piece	-2944
▁bud	-2945
▁fav	-2946
▁species	-2947
▁کنید	-2948
▁tipo	-2949
▁large	-2950
fort	-2951
▁mother	-2952
וז	-2953
▁typ	-2954
▁تما	-2955
▁comb	-2956
ście	-2957
▁zum	-2958
▁algun	-2959
ديد	-2960
▁entre	-2961
اف	-2962
crib	-2963
▁צרי	-2964
▁rze	-2965
▁mig	-2966
▁va	-2967
▁świ	-2968
▁taking	-2969
mi	-2970
عم	-2971
▁mole	-2972
waż	-2973
ots	-2974
ton	-2975
jąc	-2976
▁wasn	-2977
▁rather	-2978
▁چیزی	-2979
▁سر	-2980
▁سي	-2981
▁اگر	-2982
وس	-2983
وي	-2984
ضع	-2985
▁everyone	-2986
▁انجام	-2987
▁80	-2988
▁גם	-2989
▁vez	-2990
▁bardzo	-2991
eg	-2992
▁orig	-2993
ycz	-2994
ades	-2995
keit	-2996
▁completely	-2997
▁students	-2998
anza	-2999
▁dz	-3000
vert	-3001
▁yeah	-3002
▁though	-3003
حي	-3004
▁لقد	-3005
▁están	-3006
▁يج	-3007
▁quick	-3008
▁focus	-3009
nik	-3010
אה	-3011
▁ast	-3012
itect	-3013
▁exactly	-3014
łe	-3015
ima	-3016
▁itself	-3017
▁mia	-3018
▁11	-3019
▁sor	-3020
▁interact	-3021
▁اند	-3022
▁emot	-3023
▁enton	-3024
▁medic	-3025
oth	-3026
▁mult	-3027
ister	-3028
▁ocean	-3029
עה	-3030
▁entonces	-3031
ames	-3032
קר	-3033
▁לעשות	-3034
▁minutes	-3035
▁society	-3036
uch	-3037
▁meet	-3038
لب	-3039
▁revol	-3040
▁tal	-3041
▁share	-3042
▁star	-3043
פה	-3044
▁sex	-3045
▁third	-3046
▁kinds	-3047
▁לת	-3048
▁وب	-3049
▁تت	-3050
upp	-3051
▁couple	-3052
▁sea	-3053
▁via	-3054
▁enorm	-3055
▁sun	-3056
▁maken	-3057
▁study	-3058
אות	-3059
קים	-3060
iny	-3061
▁woman	-3062
▁bez	-3063
▁game	-3064
▁mnie	-3065
▁deb	-3066
▁ese	-3067
▁ourselves	-3068
▁iets	-3069
azioni	-3070
▁friends	-3071
ستط	-3072
▁będ	-3073
▁oil	-3074
▁won	-3075
ullie	-3076
▁jullie	-3077
put	-3078
ium	-3079
▁fly	-3080
etzt	-3081
▁كيف	-3082
imens	-3083
▁io	-3084
▁بت	-3085
קי	-3086
▁stra	-3087
▁199	-3088
amb	-3089
▁المت	-3090
▁anc	-3091
śl	-3092
פת	-3093
▁فر	-3094
ash	-3095
▁decided	-3096
شر	-3097
▁gets	-3098
▁recent	-3099
פור	-3100
ples	-3101
▁עצ	-3102
▁dingen	-3103
▁unsere	-3104
▁disease	-3105
▁happening	-3106
▁extrem	-3107
▁began	-3108
▁ave	-3109
uit	-3110
iek	-3111
▁themselves	-3112
▁geh	-3113
▁któr	-3114
▁company	-3115
▁web	-3116
▁اف	-3117
▁ihre	-3118
▁واحد	-3119
ress	-3120
חת	-3121
▁free	-3122
ged	-3123
▁أنه	-3124
zego	-3125
▁wür	-3126
▁wä	-3127
▁huge	-3128
▁pred	-3129
▁turns	-3130
istic	-3131
▁wirklich	-3132
▁aver	-3133
הם	-3134
▁impro	-3135
assen	-3136
ności	-3137
▁became	-3138
▁وت	-3139
ordin	-3140
▁deal	-3141
▁tiene	-3142
▁sud	-3143
▁guard	-3144
▁perfect	-3145
▁transform	-3146
▁فکر	-3147
▁raz	-3148
▁name	-3149
▁consider	-3150
▁oc	-3151
▁هستند	-3152
▁kw	-3153
▁nar	-3154
▁intern	-3155
pie	-3156
▁tecnolog	-3157
רח	-3158
▁happy	-3159
met	-3160
bro	-3161
سر	-3162
fen	-3163
inge	-3164
atic	-3165
עשה	-3166
gh	-3167
רך	-3168
ungs	-3169
min	-3170
▁ciò	-3171
נשים	-3172
▁sum	-3173
ól	-3174
ama	-3175
▁cy	-3176
agen	-3177
▁أكثر	-3178
chi	-3179
ffen	-3180
▁mio	-3181
▁gaan	-3182
▁area	-3183
bién	-3184
▁también	-3185
▁cał	-3186
▁stato	-3187
▁defin	-3188
face	-3189
▁leven	-3190
▁meine	-3191
زه	-3192
▁record	-3193
▁meas	-3194
▁خواه	-3195
▁pueden	-3196
heit	-3197
▁bott	-3198
▁learned	-3199
▁machine	-3200
anc	-3201
▁spr	-3202
یه	-3203
▁dra	-3204
▁win	-3205
▁לג	-3206
▁normal	-3207
▁viol	-3208
عب	-3209
▁eer	-3210
▁along	-3211
▁event	-3212
▁ات	-3213
▁לכם	-3214
▁fü	-3215
▁شخص	-3216
▁created	-3217
▁week	-3218
▁shows	-3219
▁intell	-3220
inden	-3221
dzie	-3222
▁priv	-3223
▁otr	-3224
▁وجود	-3225
▁omdat	-3226
عتقد	-3227
▁cambi	-3228
▁scr	-3229
▁weil	-3230
▁prom	-3231
▁spo	-3232
▁poi	-3233
▁forma	-3234
▁animals	-3235
ראה	-3236
▁divers	-3237
▁black	-3238
▁clear	-3239
lko	-3240
جه	-3241
▁vert	-3242
wards	-3243
▁czas	-3244
▁خوب	-3245
▁expect	-3246
ola	-3247
▁civ	-3248
▁vog	-3249
▁deep	-3250
دة	-3251
▁بل	-3252
▁questions	-3253
amento	-3254
zelf	-3255
▁squ	-3256
▁dove	-3257
▁arbe	-3258
▁profess	-3259
▁ומ	-3260
▁tenemos	-3261
▁transcript	-3262
▁בח	-3263
▁gut	-3264
haps	-3265
▁leben	-3266
not	-3267
▁dzi	-3268
▁nap	-3269
▁חוש	-3270
▁دست	-3271
▁قبل	-3272
▁perhaps	-3273
▁pier	-3274
▁direct	-3275
▁עו	-3276
▁field	-3277
חות	-3278
كي	-3279
▁jour	-3280
▁sia	-3281
ished	-3282
▁listen	-3283
زر	-3284
▁تم	-3285
▁זאת	-3286
▁guys	-3287
▁dro	-3288
ró	-3289
▁ones	-3290
▁الي	-3291
▁gebruik	-3292
▁bur	-3293
▁vita	-3294
▁werk	-3295
▁against	-3296
ena	-3297
zym	-3298
acji	-3299
▁zeit	-3300
▁hours	-3301
▁viv	-3302
▁tijd	-3303
üs	-3304
▁early	-3305
▁wurde	-3306
łow	-3307
▁הצ	-3308
astic	-3309
▁oth	-3310
▁dir	-3311
▁grande	-3312
طر	-3313
ush	-3314
▁نحن	-3315
▁death	-3316
▁dif	-3317
▁مرد	-3318
imy	-3319
ایی	-3320
▁fast	-3321
ateg	-3322
▁machen	-3323
▁others	-3324
▁mów	-3325
▁arg	-3326
ker	-3327
ół	-3328
▁x	-3329
▁يق	-3330
▁learning	-3331
▁relations	-3332
▁knew	-3333
itting	-3334
▁סי	-3335
כשיו	-3336
▁estos	-3337
▁culture	-3338
וו	-3339
▁american	-3340
▁زند	-3341
▁couldn	-3342
▁esper	-3343
כה	-3344
▁ذ	-3345
cks	-3346
inen	-3347
▁hold	-3348
▁zal	-3349
עת	-3350
▁tas	-3351
▁labor	-3352
▁continu	-3353
▁seven	-3354
▁vida	-3355
▁dieses	-3356
wy	-3357
▁گفت	-3358
▁peri	-3359
esto	-3360
▁full	-3361
ster	-3362
▁kra	-3363
ادة	-3364
apt	-3365
الي	-3366
igu	-3367
ains	-3368
▁الث	-3369
ases	-3370
ته	-3371
wij	-3372
▁داد	-3373
▁neg	-3374
▁کند	-3375
صب	-3376
ral	-3377
▁pra	-3378
▁wall	-3379
▁ليس	-3380
▁view	-3381
▁heel	-3382
▁zich	-3383
▁national	-3384
▁break	-3385
▁einfach	-3386
▁ec	-3387
ראות	-3388
▁tylko	-3389
ورة	-3390
▁architect	-3391
شياء	-3392
▁toen	-3393
▁הנ	-3394
▁denken	-3395
خرى	-3396
aron	-3397
▁soft	-3398
▁gdy	-3399
▁wonderful	-3400
▁ogni	-3401
▁invol	-3402
fl	-3403
زی	-3404
▁seg	-3405
▁worked	-3406
ential	-3407
▁nuo	-3408
▁מאוד	-3409
▁esa	-3410
▁local	-3411
طة	-3412
aren	-3413
▁gave	-3414
▁systems	-3415
▁بين	-3416
▁realmente	-3417
وش	-3418
اج	-3419
ped	-3420
▁estas	-3421
▁بگ	-3422
▁takes	-3423
▁repres	-3424
▁cat	-3425
▁hace	-3426
▁eight	-3427
▁inse	-3428
▁john	-3429
▁اين	-3430
▁becom	-3431
שא	-3432
▁خل	-3433
▁lots	-3434
uj	-3435
fü	-3436
▁trat	-3437
ered	-3438
صد	-3439
▁دان	-3440
ature	-3441
▁finally	-3442
▁zelf	-3443
▁حد	-3444
iene	-3445
▁esc	-3446
nos	-3447
▁communic	-3448
▁pok	-3449
▁blue	-3450
▁amount	-3451
mt	-3452
▁respons	-3453
رار	-3454
aring	-3455
▁tur	-3456
▁europe	-3457
▁problema	-3458
eln	-3459
▁least	-3460
▁evolution	-3461
▁أف	-3462
▁ult	-3463
▁immer	-3464
asta	-3465
itten	-3466
▁echt	-3467
▁ken	-3468
▁goog	-3469
▁behavior	-3470
▁main	-3471
▁نت	-3472
▁sistema	-3473
סט	-3474
דם	-3475
ało	-3476
▁thousands	-3477
▁cut	-3478
▁difficult	-3479
امل	-3480
etic	-3481
▁tan	-3482
▁الغ	-3483
▁tiem	-3484
▁short	-3485
ئة	-3486
▁moving	-3487
▁prote	-3488
ource	-3489
دام	-3490
▁during	-3491
▁moeten	-3492
▁אמ	-3493
▁siamo	-3494
▁outside	-3495
▁די	-3496
▁zoals	-3497
▁obvious	-3498
ór	-3499
▁ludzi	-3500
uw	-3501
نی	-3502
▁אותו	-3503
▁favor	-3504
וף	-3505
▁powerful	-3506
▁goed	-3507
▁تغ	-3508
ara	-3509
▁pattern	-3510
▁أع	-3511
itu	-3512
▁besch	-3513
▁שע	-3514
▁لت	-3515
▁بنا	-3516
سان	-3517
גל	-3518
▁wsp	-3519
▁special	-3520
50	-3521
▁micro	-3522
▁poor	-3523
▁90	-3524
▁אל	-3525
son	-3526
▁century	-3527
▁בכל	-3528
▁map	-3529
este	-3530
יא	-3531
ستطيع	-3532
یده	-3533
▁نوع	-3534
▁16	-3535
▁distr	-3536
▁difference	-3537
ارد	-3538
▁עלי	-3539
ides	-3540
▁neces	-3541
inal	-3542
▁كما	-3543
ither	-3544
▁dice	-3545
▁center	-3546
▁fail	-3547
▁دیگر	-3548
▁protect	-3549
▁بسی	-3550
icos	-3551
▁behind	-3552
hmen	-3553
aciones	-3554
▁شيء	-3555
▁moral	-3556
▁clos	-3557
ggi	-3558
▁מצ	-3559
▁può	-3560
bia	-3561
▁pick	-3562
יותר	-3563
جل	-3564
ić	-3565
▁cada	-3566
▁llam	-3567
▁swo	-3568
▁paar	-3569
▁importante	-3570
ining	-3571
ney	-3572
▁momento	-3573
▁close	-3574
▁needs	-3575
utions	-3576
sh	-3577
▁só	-3578
▁אפ	-3579
▁dov	-3580
▁qualc	-3581
cio	-3582
▁—	-3583
▁industr	-3584
▁compass	-3585
▁intellig	-3586
▁הרבה	-3587
ift	-3588
▁mad	-3589
▁perform	-3590
eds	-3591
▁han	-3592
▁population	-3593
ika	-3594
رفت	-3595
▁propr	-3596
▁כמה	-3597
▁whatever	-3598
▁الان	-3599
▁hecho	-3600
▁surpr	-3601
فر	-3602
سة	-3603
נחנו	-3604
▁pic	-3605
bst	-3606
vin	-3607
▁phil	-3608
adas	-3609
ging	-3610
طف	-3611
ارة	-3612
▁tiempo	-3613
نگ	-3614
▁sólo	-3615
▁liber	-3616
▁common	-3617
ís	-3618
uc	-3619
▁nut	-3620
▁ض	-3621
▁sold	-3622
תם	-3623
▁يكون	-3624
unt	-3625
▁mó	-3626
▁support	-3627
ريق	-3628
▁san	-3629
▁حسنا	-3630
▁שזה	-3631
▁student	-3632
▁היו	-3633
emand	-3634
ught	-3635
▁بیش	-3636
▁pued	-3637
▁باید	-3638
etto	-3639
uego	-3640
▁וכ	-3641
▁lik	-3642
ograf	-3643
ix	-3644
▁podemos	-3645
jekt	-3646
▁ep	-3647
▁link	-3648
▁الوا	-3649
▁relationship	-3650
▁incredib	-3651
▁jetzt	-3652
ilar	-3653
ona	-3654
▁pract	-3655
▁עכשיו	-3656
elijke	-3657
igt	-3658
▁kid	-3659
▁אתה	-3660
▁collect	-3661
▁שנ	-3662
▁period	-3663
▁taken	-3664
▁نیست	-3665
▁لن	-3666
▁בס	-3667
ming	-3668
▁google	-3669
▁gior	-3670
▁beginning	-3671
جم	-3672
▁flow	-3673
▁hosp	-3674
▁press	-3675
▁visual	-3676
ział	-3677
ستخ	-3678
tà	-3679
ונים	-3680
rar	-3681
▁gan	-3682
▁ill	-3683
▁tras	-3684
▁absolut	-3685
טים	-3686
▁given	-3687
bor	-3688
▁hiv	-3689
▁sto	-3690
än	-3691
▁weg	-3692
▁access	-3693
▁wissen	-3694
itions	-3695
▁south	-3696
▁spos	-3697
▁twee	-3698
▁הט	-3699
▁زی	-3700
▁וזה	-3701
▁أنا	-3702
isto	-3703
▁yourself	-3704
ban	-3705
▁gaat	-3706
▁qualcosa	-3707
ability	-3708
عا	-3709
eks	-3710
▁pen	-3711
▁miles	-3712
یل	-3713
▁zap	-3714
▁14	-3715
iero	-3716
▁hot	-3717
בת	-3718
سل	-3719
▁woll	-3720
▁iniz	-3721
▁bal	-3722
▁tend	-3723
emen	-3724
ising	-3725
▁buy	-3726
ורים	-3727
▁הכ	-3728
▁każ	-3729
▁organiz	-3730
▁ya	-3731
وات	-3732
▁soll	-3733
▁zac	-3734
▁حول	-3735
▁eyes	-3736
▁habl	-3737
▁terms	-3738
esc	-3739
▁auto	-3740
ison	-3741
▁flo	-3742
oso	-3743
erde	-3744
▁hem	-3745
gio	-3746
▁anderen	-3747
عات	-3748
جة	-3749
vano	-3750
▁podr	-3751
▁verl	-3752
▁cra	-3753
king	-3754
▁مر	-3755
ías	-3756
چه	-3757
▁unser	-3758
וני	-3759
abor	-3760
▁hands	-3761
▁70	-3762
▁parts	-3763
▁leave	-3764
▁nucle	-3765
mal	-3766
ogn	-3767
▁seeing	-3768
icy	-3769
▁لذا	-3770
ساس	-3771
▁carb	-3772
▁تش	-3773
▁fundament	-3774
▁להת	-3775
▁general	-3776
▁ני	-3777
يش	-3778
▁major	-3779
▁כאן	-3780
onden	-3781
ador	-3782
▁image	-3783
▁cool	-3784
eng	-3785
▁easy	-3786
▁reach	-3787
▁rac	-3788
▁benef	-3789
ريد	-3790
iste	-3791
odzi	-3792
▁ecc	-3793
فعل	-3794
iver	-3795
▁שאני	-3796
ased	-3797
▁hatte	-3798
ives	-3799
ination	-3800
▁حتى	-3801
▁gez	-3802
▁audience	-3803
▁street	-3804
▁یه	-3805
year	-3806
▁changed	-3807
بة	-3808
yw	-3809
▁tempo	-3810
▁alg	-3811
▁rid	-3812
▁economic	-3813
▁دارد	-3814
▁alcun	-3815
chan	-3816
▁cannot	-3817
ريقة	-3818
▁requ	-3819
nte	-3820
▁vill	-3821
▁online	-3822
▁حيث	-3823
ention	-3824
ował	-3825
▁rod	-3826
▁altro	-3827
ختلف	-3828
▁dol	-3829
▁mucho	-3830
▁bere	-3831
▁turned	-3832
▁האלה	-3833
▁hol	-3834
▁wij	-3835
ąd	-3836
utt	-3837
▁mathemat	-3838
▁mut	-3839
لت	-3840
▁عمل	-3841
▁fore	-3842
▁corre	-3843
اء	-3844
▁gest	-3845
▁longer	-3846
edi	-3847
ava	-3848
▁var	-3849
▁perm	-3850
וע	-3851
▁denn	-3852
▁virus	-3853
▁ox	-3854
▁plant	-3855
▁ground	-3856
▁color	-3857
kon	-3858
▁ثم	-3859
▁pur	-3860
חה	-3861
for	-3862
▁الل	-3863
روع	-3864
air	-3865
▁روی	-3866
room	-3867
▁punto	-3868
śnie	-3869
▁וי	-3870
lud	-3871
▁near	-3872
▁tru	-3873
▁chin	-3874
▁משהו	-3875
▁tel	-3876
▁keine	-3877
▁humans	-3878
▁estaba	-3879
cing	-3880
▁slow	-3881
▁impact	-3882
▁diag	-3883
▁donde	-3884
▁fine	-3885
är	-3886
▁civil	-3887
▁paper	-3888
ادی	-3889
▁surv	-3890
▁wordt	-3891
▁lug	-3892
▁syn	-3893
إن	-3894
▁selbst	-3895
▁electric	-3896
▁simply	-3897
▁father	-3898
▁وقتی	-3899
▁finan	-3900
▁ואני	-3901
▁capac	-3902
istan	-3903
▁ball	-3904
▁powied	-3905
▁leute	-3906
▁איך	-3907
ches	-3908
chten	-3909
cious	-3910
▁baby	-3911
مي	-3912
▁بخ	-3913
enta	-3914
▁final	-3915
▁animal	-3916
iß	-3917
▁decir	-3918
▁ang	-3919
▁flu	-3920
▁vac	-3921
▁zus	-3922
emente	-3923
▁stay	-3924
ledge	-3925
▁parl	-3926
schaft	-3927
▁cities	-3928
▁gio	-3929
▁compan	-3930
▁sobie	-3931
▁هل	-3932
فس	-3933
▁needed	-3934
▁revolution	-3935
▁modern	-3936
rod	-3937
ugh	-3938
▁explain	-3939
▁size	-3940
▁realized	-3941
▁bat	-3942
▁viele	-3943
oit	-3944
▁suo	-3945
▁نظ	-3946
ieden	-3947
▁pregun	-3948
▁conse	-3949
rum	-3950
eder	-3951
▁مست	-3952
▁programm	-3953
lia	-3954
▁diesem	-3955
▁tradition	-3956
▁foot	-3957
▁photograph	-3958
ën	-3959
▁mac	-3960
ams	-3961
▁جه	-3962
▁creo	-3963
قيقة	-3964
▁kam	-3965
▁fort	-3966
idence	-3967
گه	-3968
▁signific	-3969
▁dollar	-3970
quen	-3971
▁było	-3972
לת	-3973
▁پس	-3974
▁poco	-3975
وند	-3976
تما	-3977
ער	-3978
day	-3979
▁نفس	-3980
▁17	-3981
uren	-3982
▁ber	-3983
▁laten	-3984
▁natur	-3985
ouwen	-3986
▁white	-3987
▁müs	-3988
▁שהם	-3989
▁bewe	-3990
▁farm	-3991
▁software	-3992
▁מב	-3993
ently	-3994
ander	-3995
▁scre	-3996
nia	-3997
▁verw	-3998
یچ	-3999
▁tienen	-4000
▁fur	-4001
contr	-4002
▁gol	-4003
▁مورد	-4004
▁spent	-4005
راء	-4006
▁feed	-4007
נג	-4008
lish	-4009
▁digital	-4010
ology	-4011
vil	-4012
▁gone	-4013
▁הל	-4014
zion	-4015
cil	-4016
oty	-4017
ivity	-4018
sto	-4019
▁ster	-4020
▁redu	-4021
▁הרא	-4022
▁scale	-4023
tu	-4024
▁بین	-4025
ley	-4026
oren	-4027
▁był	-4028
▁experien	-4029
▁zeg	-4030
▁مس	-4031
vero	-4032
▁moet	-4033
ources	-4034
▁być	-4035
▁interested	-4036
▁المش	-4037
rij	-4038
▁شود	-4039
▁lost	-4040
uen	-4041
▁één	-4042
▁parents	-4043
unque	-4044
▁ability	-4045
▁send	-4046
▁possiamo	-4047
▁vu	-4048
▁וע	-4049
kład	-4050
▁quickly	-4051
zyć	-4052
ively	-4053
leg	-4054
▁incredible	-4055
▁gas	-4056
▁zei	-4057
▁بح	-4058
▁pan	-4059
▁bene	-4060
cially	-4061
▁value	-4062
▁growth	-4063
▁sagte	-4064
▁coś	-4065
ئي	-4066
▁measure	-4067
שב	-4068
▁sagen	-4069
כות	-4070
▁بی	-4071
imento	-4072
▁fear	-4073
▁grad	-4074
▁13	-4075
▁poz	-4076
זי	-4077
omet	-4078
▁either	-4079
فة	-4080
▁vra	-4081
▁בר	-4082
▁tried	-4083
▁rzeczy	-4084
טה	-4085
▁ول	-4086
▁immag	-4087
car	-4088
▁dinge	-4089
omo	-4090
val	-4091
▁political	-4092
▁bueno	-4093
▁יודעים	-4094
▁crit	-4095
▁zwei	-4096
▁companies	-4097
▁dark	-4098
▁الما	-4099
▁eines	-4100
▁structure	-4101
▁לד	-4102
▁force	-4103
▁sudden	-4104
▁له	-4105
▁tag	-4106
ela	-4107
▁denk	-4108
▁feet	-4109
jer	-4110
oper	-4111
▁بسیار	-4112
abil	-4113
icas	-4114
▁מפ	-4115
▁key	-4116
liśmy	-4117
▁north	-4118
▁tar	-4119
▁اینکه	-4120
▁ancora	-4121
ouch	-4122
▁nieu	-4123
▁economy	-4124
▁necess	-4125
ival	-4126
▁hon	-4127
▁198	-4128
▁constru	-4129
▁á	-4130
▁pac	-4131
▁غير	-4132
▁compr	-4133
▁cere	-4134
▁diesen	-4135
▁serious	-4136
▁quel	-4137
▁کردم	-4138
▁similar	-4139
▁opportunity	-4140
▁foto	-4141
zent	-4142
jem	-4143
iving	-4144
▁زمان	-4145
▁estamos	-4146
▁aw	-4147
▁exam	-4148
ogen	-4149
▁box	-4150
ole	-4151
▁cual	-4152
הי	-4153
ha	-4154
ولا	-4155
▁שב	-4156
▁ون	-4157
▁david	-4158
▁predict	-4159
imi	-4160
▁الكثير	-4161
urt	-4162
▁gebe	-4163
▁schw	-4164
▁known	-4165
▁produce	-4166
▁sap	-4167
▁temper	-4168
▁انت	-4169
▁poll	-4170
▁haar	-4171
▁דבר	-4172
▁کش	-4173
▁concept	-4174
▁soort	-4175
وه	-4176
▁201	-4177
▁پیش	-4178
ption	-4179
iteit	-4180
▁strong	-4181
خذ	-4182
▁alleen	-4183
ستان	-4184
▁بیشتر	-4185
▁sugg	-4186
▁reality	-4187
win	-4188
hood	-4189
▁agr	-4190
fully	-4191
▁erg	-4192
oon	-4193
▁apr	-4194
▁degli	-4195
▁בו	-4196
▁mai	-4197
▁jahr	-4198
▁wouldn	-4199
ump	-4200
zz	-4201
▁bom	-4202
▁آخر	-4203
▁krij	-4204
▁durante	-4205
▁bacter	-4206
▁glau	-4207
ators	-4208
kow	-4209
▁sulla	-4210
بط	-4211
▁elk	-4212
▁bamb	-4213
▁vier	-4214
▁vedere	-4215
sche	-4216
▁leaders	-4217
alt	-4218
ضل	-4219
łą	-4220
▁jap	-4221
▁ממש	-4222
▁werd	-4223
▁network	-4224
▁sitting	-4225
▁eat	-4226
íamos	-4227
ua	-4228
nis	-4229
▁anyone	-4230
▁ولی	-4231
▁quella	-4232
▁growing	-4233
▁اله	-4234
▁auth	-4235
gs	-4236
cej	-4237
▁ביותר	-4238
▁mes	-4239
ienia	-4240
▁allem	-4241
▁sí	-4242
▁rock	-4243
▁knowledge	-4244
▁based	-4245
▁books	-4246
צים	-4247
▁computers	-4248
▁ban	-4249
▁felt	-4250
▁tools	-4251
▁compassion	-4252
رق	-4253
▁draw	-4254
fä	-4255
▁wła	-4256
▁approach	-4257
pio	-4258
▁convers	-4259
▁surface	-4260
▁stru	-4261
سبة	-4262
▁ust	-4263
▁technologies	-4264
▁patients	-4265
ram	-4266
▁represent	-4267
▁مي	-4268
▁sho	-4269
anger	-4270
▁sust	-4271
abe	-4272
▁solar	-4273
ffe	-4274
اري	-4275
▁jahren	-4276
▁travel	-4277
▁لو	-4278
▁verh	-4279
▁אותם	-4280
▁کم	-4281
ites	-4282
▁stage	-4283
▁jako	-4284
▁ludzie	-4285
عه	-4286
▁بزر	-4287
kl	-4288
▁theory	-4289
▁müssen	-4290
▁sł	-4291
▁entw	-4292
elli	-4293
ills	-4294
▁cli	-4295
▁teil	-4296
▁blood	-4297
▁suggest	-4298
▁brought	-4299
▁card	-4300
▁indust	-4301
▁لأ	-4302
▁climate	-4303
imiento	-4304
▁describ	-4305
▁نظر	-4306
חד	-4307
gre	-4308
▁dead	-4309
▁brit	-4310
▁hin	-4311
▁שהוא	-4312
etti	-4313
▁mij	-4314
itar	-4315
▁שלו	-4316
glich	-4317
▁eerste	-4318
uf	-4319
▁dopo	-4320
▁fight	-4321
▁development	-4322
▁خلال	-4323
▁trov	-4324
book	-4325
▁dic	-4326
▁images	-4327
▁changes	-4328
▁adv	-4329
bol	-4330
▁שיש	-4331
▁areas	-4332
▁اليوم	-4333
▁gar	-4334
▁law	-4335
פים	-4336
▁peque	-4337
▁manera	-4338
▁morning	-4339
▁ice	-4340
▁ellos	-4341
نب	-4342
▁laat	-4343
rebbe	-4344
▁eth	-4345
▁casa	-4346
▁born	-4347
▁innovation	-4348
▁pad	-4349
▁developed	-4350
ived	-4351
unden	-4352
▁persona	-4353
▁ging	-4354
▁pare	-4355
▁attention	-4356
▁نق	-4357
▁lad	-4358
uth	-4359
stell	-4360
▁fish	-4361
▁שם	-4362
zenia	-4363
▁pull	-4364
▁بب	-4365
ياة	-4366
▁مق	-4367
▁تكون	-4368
▁erf	-4369
▁weeks	-4370
▁wieder	-4371
jes	-4372
חים	-4373
צור	-4374
▁هن	-4375
▁rele	-4376
▁voi	-4377
▁base	-4378
óż	-4379
▁amb	-4380
▁mayor	-4381
▁mechan	-4382
▁write	-4383
ott	-4384
▁average	-4385
▁understanding	-4386
antes	-4387
izing	-4388
▁można	-4389
▁belang	-4390
▁pierws	-4391
▁starting	-4392
وز	-4393
ammen	-4394
▁bild	-4395
▁compet	-4396
▁spread	-4397
▁situation	-4398
ichtig	-4399
▁luego	-4400
sc	-4401
▁intro	-4402
▁influ	-4403
ex	-4404
▁esp	-4405
▁manag	-4406
nal	-4407
zioni	-4408
entially	-4409
راد	-4410
▁ממ	-4411
▁pub	-4412
▁wrote	-4413
▁bottom	-4414
▁scientists	-4415
▁muse	-4416
רט	-4417
مال	-4418
▁cris	-4419
▁tej	-4420
enz	-4421
▁davvero	-4422
▁anders	-4423
▁kleine	-4424
ule	-4425
▁לו	-4426
▁חד	-4427
▁نا	-4428
▁bank	-4429
▁teraz	-4430
cion	-4431
▁gives	-4432
▁באמת	-4433
▁physical	-4434
له	-4435
▁sar	-4436
▁divent	-4437
▁feeling	-4438
lemente	-4439
ismo	-4440
▁technologie	-4441
enie	-4442
▁לפני	-4443
▁mejor	-4444
مد	-4445
▁24	-4446
▁challenge	-4447
▁developing	-4448
▁nice	-4449
▁historia	-4450
▁مختلف	-4451
▁בק	-4452
▁الواقع	-4453
▁pla	-4454
▁اول	-4455
▁prac	-4456
imin	-4457
▁había	-4458
▁risk	-4459
▁سوف	-4460
כנו	-4461
▁يجب	-4462
▁mount	-4463
▁él	-4464
▁hig	-4465
▁numbers	-4466
▁ند	-4467
▁smart	-4468
▁giving	-4469
▁kor	-4470
▁zost	-4471
▁czę	-4472
▁würde	-4473
כון	-4474
▁weet	-4475
ichte	-4476
▁acqu	-4477
▁react	-4478
▁كب	-4479
▁myśl	-4480
▁ואז	-4481
▁استف	-4482
קום	-4483
▁path	-4484
דות	-4485
صول	-4486
▁div	-4487
▁tit	-4488
ność	-4489
▁doc	-4490
ادر	-4491
▁led	-4492
▁suff	-4493
▁tegen	-4494
▁פשו	-4495
▁extraordin	-4496
▁rap	-4497
لاق	-4498
▁fab	-4499
▁road	-4500
▁text	-4501
▁geld	-4502
▁uży	-4503
زار	-4504
▁desde	-4505
▁לראות	-4506
▁ce	-4507
▁sand	-4508
leicht	-4509
▁cover	-4510
▁damit	-4511
łam	-4512
ules	-4513
▁projekt	-4514
idos	-4515
▁depend	-4516
geb	-4517
▁الذين	-4518
▁przed	-4519
▁interes	-4520
▁pros	-4521
ensive	-4522
▁nobody	-4523
▁פע	-4524
▁separ	-4525
▁وهذا	-4526
▁carbon	-4527
▁absolutely	-4528
▁inspir	-4529
▁includ	-4530
▁הזו	-4531
▁forward	-4532
▁english	-4533
▁medical	-4534
▁hospital	-4535
▁literally	-4536
▁mismo	-4537
▁będzie	-4538
▁بن	-4539
▁wet	-4540
וט	-4541
▁spir	-4542
▁heraus	-4543
▁أيضا	-4544
bel	-4545
ahre	-4546
اني	-4547
▁confl	-4548
▁miejs	-4549
▁curr	-4550
ised	-4551
▁dag	-4552
atori	-4553
▁گرفت	-4554
▁generation	-4555
وية	-4556
▁بأن	-4557
ellow	-4558
▁element	-4559
▁להם	-4560
▁seems	-4561
▁500	-4562
itor	-4563
▁cars	-4564
▁affect	-4565
▁university	-4566
▁גדול	-4567
pi	-4568
▁زندگی	-4569
▁discovered	-4570
חר	-4571
esta	-4572
▁prost	-4573
ופן	-4574
ifica	-4575
ität	-4576
▁gene	-4577
ality	-4578
حظ	-4579
▁למעשה	-4580
▁gle	-4581
▁świat	-4582
▁segu	-4583
▁stan	-4584
▁standard	-4585
▁type	-4586
kommen	-4587
iesz	-4588
▁leb	-4589
▁عام	-4590
uring	-4591
▁save	-4592
وك	-4593
kel	-4594
▁استفاده	-4595
▁tych	-4596
▁gdzie	-4597
▁realize	-4598
▁vielleicht	-4599
zys	-4600
▁phone	-4601
▁tanto	-4602
▁لدينا	-4603
▁chinese	-4604
▁meth	-4605
▁hit	-4606
▁بم	-4607
otros	-4608
▁שלהם	-4609
אר	-4610
ונ	-4611
▁المد	-4612
▁movement	-4613
▁nod	-4614
▁playing	-4615
▁fire	-4616
نات	-4617
▁complic	-4618
▁fol	-4619
▁guess	-4620
hi	-4621
ops	-4622
▁except	-4623
▁hundreds	-4624
▁sac	-4625
بار	-4626
ków	-4627
▁صح	-4628
▁lay	-4629
▁vost	-4630
▁express	-4631
▁بها	-4632
uchen	-4633
زي	-4634
rol	-4635
▁dl	-4636
▁otra	-4637
▁meaning	-4638
▁macht	-4639
▁millions	-4640
kken	-4641
▁girls	-4642
las	-4643
▁tats	-4644
ieron	-4645
▁sell	-4646
▁manier	-4647
▁stess	-4648
▁zie	-4649
▁track	-4650
▁worth	-4651
▁اینجا	-4652
ances	-4653
enia	-4654
▁ton	-4655
▁altr	-4656
▁21	-4657
▁samen	-4658
از	-4659
▁eye	-4660
ussen	-4661
▁geme	-4662
▁ساخت	-4663
bed	-4664
▁perspect	-4665
ijken	-4666
▁dalla	-4667
▁ponie	-4668
▁sustain	-4669
اس	-4670
arlo	-4671
piel	-4672
▁touch	-4673
▁sempre	-4674
▁نه	-4675
▁aby	-4676
▁میکن	-4677
▁effic	-4678
▁fair	-4679
▁עד	-4680
▁recently	-4681
▁פי	-4682
▁nosotros	-4683
the	-4684
▁groot	-4685
▁مص	-4686
▁bek	-4687
وری	-4688
roll	-4689
▁pet	-4690
▁truth	-4691
tegr	-4692
هایی	-4693
▁196	-4694
text	-4695
▁shape	-4696
▁sever	-4697
▁total	-4698
▁telling	-4699
aban	-4700
▁running	-4701
ziej	-4702
▁ara	-4703
▁alone	-4704
▁ponieważ	-4705
pués	-4706
hlen	-4707
שמ	-4708
▁nostro	-4709
▁después	-4710
▁رفت	-4711
▁escu	-4712
▁300	-4713
▁college	-4714
▁dzię	-4715
▁avail	-4716
▁americ	-4717
ables	-4718
iard	-4719
▁רוצה	-4720
▁zusammen	-4721
▁hasta	-4722
صة	-4723
▁knows	-4724
▁sposób	-4725
head	-4726
▁volta	-4727
▁stim	-4728
פות	-4729
oci	-4730
▁blog	-4731
▁wen	-4732
کل	-4733
▁encontr	-4734
▁voice	-4735
yl	-4736
kte	-4737
▁לס	-4738
ser	-4739
▁proper	-4740
tract	-4741
▁ziem	-4742
▁דברים	-4743
▁już	-4744
ktion	-4745
▁جميع	-4746
کت	-4747
▁mos	-4748
▁رس	-4749
gend	-4750
▁رب	-4751
▁dent	-4752
▁dou	-4753
▁bir	-4754
▁مردم	-4755
▁detail	-4756
▁haven	-4757
▁vision	-4758
▁جد	-4759
auen	-4760
ties	-4761
rawdę	-4762
דרך	-4763
▁مهم	-4764
▁קי	-4765
▁capt	-4766
كرة	-4767
view	-4768
ęp	-4769
▁בכ	-4770
▁park	-4771
▁dimens	-4772
▁ud	-4773
▁שאנחנו	-4774
rie	-4775
برا	-4776
ford	-4777
▁neigh	-4778
▁hemos	-4779
▁nuestra	-4780
▁boy	-4781
▁especially	-4782
▁nell	-4783
לתי	-4784
▁lavoro	-4785
une	-4786
▁سل	-4787
▁zak	-4788
▁distrib	-4789
wet	-4790
▁کردن	-4791
▁soon	-4792
▁האם	-4793
urity	-4794
zenie	-4795
▁terug	-4796
▁obviously	-4797
▁aren	-4798
▁proces	-4799
▁industry	-4800
ßen	-4801
▁מד	-4802
▁showed	-4803
▁מר	-4804
ploy	-4805
▁ira	-4806
▁creating	-4807
▁fis	-4808
▁oggi	-4809
מוד	-4810
arse	-4811
▁virt	-4812
▁הסי	-4813
▁tener	-4814
▁dost	-4815
▁nuestro	-4816
ئية	-4817
▁incredibly	-4818
uer	-4819
▁شب	-4820
▁estud	-4821
kę	-4822
▁terror	-4823
▁mamy	-4824
ولة	-4825
kich	-4826
▁fal	-4827
▁hele	-4828
wią	-4829
▁bisog	-4830
▁día	-4831
▁anybody	-4832
▁أم	-4833
▁أحد	-4834
osten	-4835
▁jahre	-4836
cient	-4837
ניים	-4838
▁یکی	-4839
▁peace	-4840
ub	-4841
▁grote	-4842
▁mov	-4843
▁talked	-4844
iała	-4845
▁«	-4846
▁אך	-4847
▁wish	-4848
schien	-4849
▁allemaal	-4850
▁happiness	-4851
▁cin	-4852
▁quanto	-4853
▁capital	-4854
تون	-4855
وف	-4856
icamente	-4857
atr	-4858
ored	-4859
▁geht	-4860
▁progress	-4861
▁zrobi	-4862
▁zeggen	-4863
iare	-4864
סת	-4865
▁belangr	-4866
▁rate	-4867
▁nostra	-4868
open	-4869
▁anno	-4870
ורי	-4871
▁collabor	-4872
عر	-4873
▁wz	-4874
cies	-4875
▁fem	-4876
▁ecco	-4877
▁solution	-4878
erca	-4879
iven	-4880
طفال	-4881
ió	-4882
▁zas	-4883
▁empe	-4884
▁waarom	-4885
▁depress	-4886
▁emp	-4887
▁niż	-4888
czą	-4889
▁hall	-4890
▁drive	-4891
▁particip	-4892
aves	-4893
▁بي	-4894
▁»	-4895
▁eg	-4896
▁usa	-4897
▁lugar	-4898
קט	-4899
▁fond	-4900
▁detto	-4901
مه	-4902
ified	-4903
▁entwick	-4904
▁gala	-4905
▁altri	-4906
או	-4907
▁קט	-4908
▁197	-4909
▁erano	-4910
▁zero	-4911
▁autom	-4912
zza	-4913
▁schools	-4914
▁subject	-4915
▁ay	-4916
▁piccol	-4917
▁أخرى	-4918
▁بزرگ	-4919
▁بشكل	-4920
חיים	-4921
▁realidad	-4922
سته	-4923
▁east	-4924
▁bev	-4925
▁کرده	-4926
▁japan	-4927
▁nuclear	-4928
פילו	-4929
▁jeden	-4930
▁strateg	-4931
▁وي	-4932
ichten	-4933
▁bird	-4934
▁galax	-4935
▁determ	-4936
cha	-4937
eli	-4938
היה	-4939
▁bey	-4940
▁راه	-4941
▁chance	-4942
▁trust	-4943
▁beyond	-4944
▁becomes	-4945
فل	-4946
▁róż	-4947
imp	-4948
▁חיי	-4949
بيع	-4950
▁sua	-4951
זו	-4952
تاب	-4953
▁storia	-4954
▁issue	-4955
▁zurück	-4956
▁discuss	-4957
▁kinder	-4958
▁list	-4959
▁among	-4960
▁אומר	-4961
▁sleep	-4962
oli	-4963
▁לכ	-4964
asing	-4965
▁esem	-4966
▁verand	-4967
صف	-4968
▁tv	-4969
▁też	-4970
ابل	-4971
▁visto	-4972
▁scientific	-4973
▁actual	-4974
גיע	-4975
ולה	-4976
ried	-4977
▁منا	-4978
▁function	-4979
▁لذلك	-4980
▁motiv	-4981
▁سب	-4982
▁quant	-4983
▁tiny	-4984
▁داشته	-4985
▁wahr	-4986
▁please	-4987
zych	-4988
▁ost	-4989
▁available	-4990
▁conscious	-4991
▁الوقت	-4992
▁rot	-4993
▁rip	-4994
חו	-4995
צר	-4996
auf	-4997
▁tum	-4998
▁toe	-4999
▁util	-5000
▁fing	-5001
▁ż	-5002
לוג	-5003
bber	-5004
▁vari	-5005
▁misschien	-5006
لاث	-5007
رم	-5008
▁kinderen	-5009
▁sare	-5010
▁lavor	-5011
רון	-5012
▁died	-5013
▁واقعا	-5014
▁integr	-5015
ms	-5016
▁أق	-5017
▁كم	-5018
▁proget	-5019
▁اش	-5020
bes	-5021
oph	-5022
▁issues	-5023
ju	-5024
sz	-5025
▁هیچ	-5026
▁która	-5027
▁בין	-5028
▁log	-5029
▁cit	-5030
▁pover	-5031
zn	-5032
ife	-5033
▁respect	-5034
طي	-5035
▁dzieci	-5036
▁quiero	-5037
به	-5038
وجود	-5039
▁باشد	-5040
▁reasons	-5041
▁העולם	-5042
▁tutte	-5043
▁designed	-5044
▁פשוט	-5045
▁adult	-5046
▁afgh	-5047
ינו	-5048
▁אחת	-5049
ows	-5050
enen	-5051
▁فعل	-5052
▁libr	-5053
▁resources	-5054
▁costru	-5055
▁żeby	-5056
sp	-5057
▁stick	-5058
▁rules	-5059
▁otro	-5060
▁البي	-5061
▁naprawdę	-5062
▁robi	-5063
▁bod	-5064
▁درب	-5065
▁انه	-5066
▁چون	-5067
iente	-5068
▁natuur	-5069
▁pictures	-5070
ój	-5071
شان	-5072
aliśmy	-5073
سط	-5074
edere	-5075
▁bigger	-5076
▁office	-5077
eed	-5078
▁האי	-5079
▁attack	-5080
לט	-5081
zej	-5082
وار	-5083
▁ov	-5084
ניות	-5085
▁muss	-5086
▁organism	-5087
osed	-5088
▁central	-5089
▁gł	-5090
▁device	-5091
▁involved	-5092
▁materials	-5093
ktr	-5094
angen	-5095
▁grund	-5096
▁grupp	-5097
▁heute	-5098
ضي	-5099
▁blind	-5100
▁milit	-5101
▁convin	-5102
oms	-5103
▁lif	-5104
▁mental	-5105
▁tells	-5106
▁report	-5107
ächlich	-5108
ńst	-5109
▁rand	-5110
▁games	-5111
▁وقد	-5112
mit	-5113
how	-5114
▁وم	-5115
▁روز	-5116
org	-5117
▁solve	-5118
▁island	-5119
نع	-5120
▁christ	-5121
▁groups	-5122
▁nine	-5123
▁camera	-5124
▁מג	-5125
▁dijo	-5126
▁היתה	-5127
ula	-5128
▁trabajo	-5129
▁changing	-5130
▁fundamental	-5131
▁نم	-5132
▁security	-5133
▁gal	-5134
▁hen	-5135
▁writing	-5136
קות	-5137
▁אלה	-5138
▁code	-5139
▁islam	-5140
ery	-5141
▁dank	-5142
idge	-5143
▁rit	-5144
▁wiel	-5145
▁chiam	-5146
▁بإ	-5147
aro	-5148
▁فع	-5149
ume	-5150
▁הן	-5151
▁כן	-5152
ping	-5153
בד	-5154
▁cru	-5155
▁clin	-5156
▁schon	-5157
▁usted	-5158
ims	-5159
▁several	-5160
ories	-5161
▁mism	-5162
▁asking	-5163
▁nei	-5164
▁einz	-5165
▁action	-5166
▁crisis	-5167
▁שלא	-5168
▁nich	-5169
▁للت	-5170
▁jeste	-5171
▁teachers	-5172
▁כמ	-5173
idades	-5174
▁imposs	-5175
▁możemy	-5176
▁مغ	-5177
ichen	-5178
▁stad	-5179
▁rom	-5180
▁webs	-5181
otto	-5182
▁detect	-5183
▁potential	-5184
▁وع	-5185
ullen	-5186
▁المن	-5187
▁ander	-5188
asi	-5189
▁hoy	-5190
▁lev	-5191
▁fel	-5192
aggio	-5193
▁radio	-5194
▁robots	-5195
▁towards	-5196
▁lub	-5197
át	-5198
iers	-5199
▁voy	-5200
▁nieuwe	-5201
ér	-5202
▁בצ	-5203
▁مان	-5204
zin	-5205
istr	-5206
▁warum	-5207
▁צריכים	-5208
▁putting	-5209
▁בני	-5210
▁clean	-5211
▁lond	-5212
▁عم	-5213
▁bang	-5214
enomen	-5215
▁اي	-5216
▁حالا	-5217
▁sounds	-5218
▁wis	-5219
▁immedi	-5220
oni	-5221
bert	-5222
▁cerc	-5223
icians	-5224
▁atmos	-5225
▁graph	-5226
▁ganz	-5227
▁infr	-5228
▁prec	-5229
الت	-5230
▁grac	-5231
▁المو	-5232
▁contrib	-5233
▁projects	-5234
entes	-5235
▁lived	-5236
بی	-5237
לדים	-5238
▁isra	-5239
▁transport	-5240
▁עבור	-5241
زش	-5242
فع	-5243
▁kont	-5244
▁שנים	-5245
stellen	-5246
anden	-5247
▁menos	-5248
▁differen	-5249
▁song	-5250
▁international	-5251
baar	-5252
▁vel	-5253
▁circ	-5254
▁jobs	-5255
▁risp	-5256
▁afghan	-5257
▁stati	-5258
▁lij	-5259
وجه	-5260
▁اج	-5261
▁klein	-5262
▁chemical	-5263
▁ö	-5264
ners	-5265
▁passion	-5266
▁investig	-5267
uls	-5268
▁ومن	-5269
▁skin	-5270
▁داریم	-5271
▁futuro	-5272
فك	-5273
▁statist	-5274
▁fuer	-5275
▁todas	-5276
ify	-5277
▁شروع	-5278
▁odpow	-5279
قتص	-5280
▁اط	-5281
▁basic	-5282
▁voglio	-5283
▁evidence	-5284
וון	-5285
▁הכל	-5286
▁dad	-5287
▁positive	-5288
▁bew	-5289
▁begr	-5290
▁optim	-5291
▁wiele	-5292
cji	-5293
ache	-5294
▁spraw	-5295
▁museum	-5296
▁millones	-5297
▁país	-5298
ذي	-5299
bier	-5300
▁danger	-5301
צת	-5302
▁قرار	-5303
▁pew	-5304
let	-5305
encia	-5306
▁context	-5307
ously	-5308
ove	-5309
▁gt	-5310
▁zaw	-5311
▁cross	-5312
▁اح	-5313
anne	-5314
▁niem	-5315
endere	-5316
iu	-5317
یی	-5318
▁ú	-5319
▁weten	-5320
enschaft	-5321
▁cred	-5322
▁دارند	-5323
▁więcej	-5324
bile	-5325
▁spiel	-5326
▁proprio	-5327
▁wszystko	-5328
oby	-5329
▁العمل	-5330
▁wol	-5331
▁cele	-5332
▁senza	-5333
▁فإن	-5334
▁king	-5335
نى	-5336
eth	-5337
aking	-5338
▁weiter	-5339
▁caso	-5340
amiento	-5341
▁explor	-5342
▁suddenly	-5343
טר	-5344
▁تد	-5345
▁region	-5346
▁الأشياء	-5347
arily	-5348
▁dream	-5349
▁درباره	-5350
▁lt	-5351
▁الأم	-5352
شته	-5353
arsi	-5354
▁anyway	-5355
▁ero	-5356
phere	-5357
▁plat	-5358
▁einige	-5359
▁televis	-5360
▁בפ	-5361
▁repl	-5362
▁everywhere	-5363
▁particularly	-5364
▁estar	-5365
▁brill	-5366
▁nation	-5367
▁avere	-5368
anten	-5369
▁fascin	-5370
סים	-5371
▁pes	-5372
▁certainly	-5373
▁אמר	-5374
▁komen	-5375
▁wild	-5376
war	-5377
نده	-5378
▁ig	-5379
▁doch	-5380
▁conflict	-5381
▁creative	-5382
▁mont	-5383
▁character	-5384
▁spre	-5385
▁trial	-5386
▁بدأ	-5387
▁artist	-5388
▁further	-5389
ips	-5390
▁ut	-5391
▁הול	-5392
öß	-5393
▁mam	-5394
▁ragaz	-5395
▁pag	-5396
▁nast	-5397
▁molti	-5398
▁dob	-5399
▁ul	-5400
▁chris	-5401
niej	-5402
▁volg	-5403
▁nau	-5404
▁plaats	-5405
ror	-5406
خاص	-5407
▁village	-5408
avo	-5409
bt	-5410
una	-5411
▁היום	-5412
adores	-5413
▁search	-5414
▁كن	-5415
▁bor	-5416
▁sei	-5417
▁choice	-5418
tery	-5419
▁wants	-5420
▁zouden	-5421
▁estoy	-5422
▁democracy	-5423
زن	-5424
▁kar	-5425
▁breat	-5426
▁franc	-5427
▁indeed	-5428
▁possono	-5429
ieg	-5430
بدو	-5431
erve	-5432
ierte	-5433
üt	-5434
icie	-5435
▁gust	-5436
igkeit	-5437
▁significa	-5438
▁calcul	-5439
▁ejem	-5440
▁فى	-5441
▁demon	-5442
atto	-5443
▁تحت	-5444
▁viene	-5445
▁چند	-5446
▁דרך	-5447
ña	-5448
nten	-5449
▁rów	-5450
niejs	-5451
عی	-5452
▁خب	-5453
▁جيد	-5454
iding	-5455
▁עי	-5456
▁showing	-5457
len	-5458
cción	-5459
▁نگاه	-5460
▁מדי	-5461
▁energie	-5462
▁گذ	-5463
▁saben	-5464
▁möchte	-5465
▁potrze	-5466
قه	-5467
▁חבר	-5468
▁vast	-5469
▁الإن	-5470
▁tatsächlich	-5471
▁חושב	-5472
▁نع	-5473
▁hey	-5474
▁ord	-5475
antly	-5476
▁birth	-5477
▁ble	-5478
▁onge	-5479
▁genau	-5480
▁جديد	-5481
▁brand	-5482
▁credo	-5483
cza	-5484
▁techn	-5485
▁basis	-5486
▁electr	-5487
kr	-5488
▁400	-5489
▁verdad	-5490
▁mars	-5491
▁ti	-5492
ffic	-5493
▁sky	-5494
▁nawet	-5495
▁دور	-5496
▁reci	-5497
ít	-5498
▁wys	-5499
▁zij	-5500
▁table	-5501
▁qualche	-5502
20	-5503
وة	-5504
▁شا	-5505
▁speed	-5506
inn	-5507
▁mort	-5508
▁doctor	-5509
▁giorno	-5510
▁پر	-5511
come	-5512
▁roku	-5513
▁takie	-5514
▁infect	-5515
▁hop	-5516
▁potete	-5517
like	-5518
▁arbeit	-5519
edia	-5520
▁gab	-5521
▁ine	-5522
▁medicine	-5523
pad	-5524
itch	-5525
▁חלק	-5526
▁screen	-5527
▁verg	-5528
▁african	-5529
کی	-5530
▁fos	-5531
▁quality	-5532
▁altern	-5533
▁اس	-5534
▁لما	-5535
▁cause	-5536
חק	-5537
ably	-5538
▁nodig	-5539
ומר	-5540
ונות	-5541
▁vent	-5542
▁כאשר	-5543
▁zelfs	-5544
▁concent	-5545
beeld	-5546
▁grazie	-5547
▁totally	-5548
وى	-5549
▁בט	-5550
imate	-5551
äh	-5552
▁האח	-5553
iction	-5554
▁staat	-5555
-1	-5556
quier	-5557
ستخدم	-5558
ground	-5559
▁domin	-5560
▁שת	-5561
▁אין	-5562
▁procent	-5563
sta	-5564
▁notice	-5565
owi	-5566
▁bede	-5567
▁niños	-5568
▁infrast	-5569
voor	-5570
▁jud	-5571
▁piens	-5572
زم	-5573
▁message	-5574
zed	-5575
▁insp	-5576
ałem	-5577
סף	-5578
בין	-5579
▁beis	-5580
▁onto	-5581
▁spect	-5582
▁قط	-5583
akes	-5584
▁ماذا	-5585
נק	-5586
דת	-5587
نة	-5588
▁aids	-5589
▁starts	-5590
▁richard	-5591
owy	-5592
▁רא	-5593
▁המי	-5594
light	-5595
▁stesso	-5596
▁altra	-5597
▁apart	-5598
▁אחר	-5599
▁jego	-5600
▁willen	-5601
▁introdu	-5602
raz	-5603
▁foss	-5604
pon	-5605
cl	-5606
▁eventually	-5607
▁geschichte	-5608
▁biggest	-5609
rei	-5610
lect	-5611
▁journey	-5612
حل	-5613
ymi	-5614
▁square	-5615
▁austr	-5616
▁allora	-5617
▁بص	-5618
ząd	-5619
طل	-5620
wać	-5621
▁likely	-5622
ette	-5623
▁fix	-5624
▁150	-5625
▁drie	-5626
▁drugs	-5627
▁أس	-5628
▁وهو	-5629
▁genes	-5630
▁dot	-5631
▁belie	-5632
▁circa	-5633
▁يمكنك	-5634
▁ella	-5635
▁walking	-5636
ej	-5637
▁artic	-5638
amin	-5639
▁jedn	-5640
▁throw	-5641
wik	-5642
elde	-5643
▁freed	-5644
▁secret	-5645
orge	-5646
owej	-5647
▁chc	-5648
▁وفي	-5649
▁examples	-5650
غير	-5651
▁1.	-5652
cher	-5653
▁tor	-5654
▁davon	-5655
▁mensch	-5656
عي	-5657
▁כש	-5658
▁مرة	-5659
▁studies	-5660
hand	-5661
ynam	-5662
▁אותה	-5663
وجد	-5664
▁אולי	-5665
▁extraordinary	-5666
▁plants	-5667
▁stress	-5668
▁iran	-5669
ستم	-5670
▁מכ	-5671
▁germ	-5672
▁تأ	-5673
▁abb	-5674
▁conos	-5675
ucht	-5676
▁dort	-5677
▁ربما	-5678
▁רואים	-5679
▁$	-5680
▁roll	-5681
▁świe	-5682
זור	-5683
▁frag	-5684
▁يمكننا	-5685
izione	-5686
▁belangrijk	-5687
achten	-5688
unately	-5689
ün	-5690
▁oppos	-5691
بات	-5692
ujemy	-5693
wię	-5694
▁check	-5695
veel	-5696
itter	-5697
▁plastic	-5698
▁activity	-5699
▁antes	-5700
▁micros	-5701
▁connected	-5702
▁genet	-5703
▁buildings	-5704
▁גי	-5705
wers	-5706
▁elektr	-5707
▁خط	-5708
▁pil	-5709
▁שאנו	-5710
▁stellen	-5711
▁teacher	-5712
▁تنها	-5713
▁möglich	-5714
▁بأ	-5715
كا	-5716
גלל	-5717
bare	-5718
▁wait	-5719
▁nelle	-5720
▁machines	-5721
▁sen	-5722
▁זהו	-5723
stein	-5724
▁realtà	-5725
▁zag	-5726
▁tres	-5727
▁מילי	-5728
▁beste	-5729
▁الأمر	-5730
دد	-5731
▁تون	-5732
▁میش	-5733
▁بالن	-5734
▁talks	-5735
▁results	-5736
zelfde	-5737
▁exciting	-5738
▁band	-5739
▁forest	-5740
▁president	-5741
▁mur	-5742
▁moje	-5743
▁pack	-5744
▁vul	-5745
ała	-5746
cont	-5747
صبح	-5748
▁drei	-5749
▁esempio	-5750
▁שנה	-5751
▁moved	-5752
▁familiar	-5753
▁أش	-5754
eras	-5755
izar	-5756
ניין	-5757
▁author	-5758
▁deliver	-5759
▁extremely	-5760
woon	-5761
▁lin	-5762
▁ready	-5763
▁حقا	-5764
▁stem	-5765
owania	-5766
▁asp	-5767
▁essentially	-5768
▁مه	-5769
בוד	-5770
▁أت	-5771
alen	-5772
lock	-5773
▁עוד	-5774
▁społe	-5775
▁poverty	-5776
▁año	-5777
▁pubbl	-5778
▁correct	-5779
ude	-5780
▁swe	-5781
▁named	-5782
▁eig	-5783
▁ries	-5784
halten	-5785
▁poder	-5786
▁mujer	-5787
▁sett	-5788
▁משת	-5789
▁carry	-5790
erc	-5791
▁guer	-5792
▁conoc	-5793
dom	-5794
▁recht	-5795
▁inclus	-5796
anta	-5797
▁داده	-5798
▁emerg	-5799
▁frank	-5800
▁مم	-5801
ended	-5802
entlich	-5803
▁conserv	-5804
▁rain	-5805
▁muchos	-5806
estr	-5807
▁والتي	-5808
▁compon	-5809
unk	-5810
בודה	-5811
▁letter	-5812
▁position	-5813
rel	-5814
▁oxy	-5815
▁ידי	-5816
▁lose	-5817
▁mine	-5818
▁source	-5819
סה	-5820
▁ä	-5821
▁oss	-5822
يرا	-5823
▁وق	-5824
▁שני	-5825
▁tier	-5826
رى	-5827
eken	-5828
aje	-5829
▁iedere	-5830
▁bisogno	-5831
قات	-5832
wood	-5833
▁باز	-5834
▁ness	-5835
ibility	-5836
▁commer	-5837
▁intr	-5838
▁dynam	-5839
▁movie	-5840
▁więks	-5841
▁לצ	-5842
orso	-5843
▁arriv	-5844
▁celebr	-5845
rage	-5846
▁mist	-5847
▁زم	-5848
▁controll	-5849
▁psycholog	-5850
▁seine	-5851
▁supposed	-5852
▁respon	-5853
يز	-5854
ذهب	-5855
bbero	-5856
▁paul	-5857
▁nic	-5858
▁چرا	-5859
▁harv	-5860
▁radi	-5861
▁بدون	-5862
▁licht	-5863
▁جا	-5864
arm	-5865
aur	-5866
idem	-5867
▁otros	-5868
▁favorite	-5869
▁הכי	-5870
▁מאד	-5871
▁jej	-5872
▁pak	-5873
▁training	-5874
▁transl	-5875
كس	-5876
▁rece	-5877
▁افراد	-5878
bu	-5879
نية	-5880
back	-5881
ując	-5882
▁بالت	-5883
▁urban	-5884
ball	-5885
werk	-5886
▁algunos	-5887
ومات	-5888
▁blij	-5889
▁zach	-5890
▁באופן	-5891
▁hatten	-5892
▁glass	-5893
גע	-5894
▁تعلم	-5895
▁tenía	-5896
▁higher	-5897
vere	-5898
▁cier	-5899
▁push	-5900
▁stata	-5901
▁dentro	-5902
▁necesit	-5903
▁version	-5904
رائ	-5905
idas	-5906
▁schl	-5907
ibr	-5908
oma	-5909
ورت	-5910
▁תודה	-5911
naj	-5912
▁kur	-5913
▁znac	-5914
▁المج	-5915
▁hadden	-5916
▁watching	-5917
▁المع	-5918
▁late	-5919
▁industrial	-5920
▁يك	-5921
▁individuals	-5922
ارج	-5923
▁trees	-5924
▁popular	-5925
▁cook	-5926
▁improve	-5927
▁ak	-5928
▁gracias	-5929
▁ks	-5930
▁stars	-5931
▁sad	-5932
▁begon	-5933
▁threat	-5934
▁wyk	-5935
ouden	-5936
▁merc	-5937
▁equip	-5938
▁remark	-5939
▁ann	-5940
▁kop	-5941
פשר	-5942
بدأ	-5943
▁geven	-5944
الة	-5945
▁meno	-5946
▁prevent	-5947
ضوع	-5948
▁1,	-5949
oria	-5950
eless	-5951
▁negli	-5952
zieć	-5953
▁وك	-5954
▁2000	-5955
▁grew	-5956
▁safe	-5957
▁largest	-5958
▁continue	-5959
يلة	-5960
▁brow	-5961
▁הייתי	-5962
▁بنابرا	-5963
שית	-5964
ولوج	-5965
نان	-5966
ينة	-5967
▁daz	-5968
▁verschill	-5969
▁کو	-5970
▁etc	-5971
▁iemand	-5972
▁hero	-5973
▁kwam	-5974
▁organization	-5975
▁enf	-5976
▁trick	-5977
▁nada	-5978
▁crazy	-5979
▁ayud	-5980
יים	-5981
▁بار	-5982
iforn	-5983
▁mamm	-5984
▁impossible	-5985
▁afghanistan	-5986
cias	-5987
▁somewhere	-5988
▁meest	-5989
ingu	-5990
▁gh	-5991
▁baj	-5992
▁zab	-5993
▁zeer	-5994
▁forse	-5995
▁somehow	-5996
ission	-5997
▁fantast	-5998
▁objects	-5999
hrt	-6000
▁أعتقد	-6001
eta	-6002
▁wp	-6003
▁داخل	-6004
▁kol	-6005
▁وكان	-6006
▁בגלל	-6007
▁appear	-6008
▁brains	-6009
תה	-6010
▁citiz	-6011
ئل	-6012
شی	-6013
▁kre	-6014
▁dere	-6015
▁niger	-6016
▁stwor	-6017
ai	-6018
▁sy	-6019
▁שכ	-6020
▁cart	-6021
כנולוג	-6022
▁plane	-6023
▁usually	-6024
▁gebruiken	-6025
קו	-6026
بح	-6027
▁luck	-6028
▁attra	-6029
▁bedeut	-6030
גר	-6031
▁نام	-6032
▁chic	-6033
▁meant	-6034
▁points	-6035
▁darüber	-6036
esh	-6037
▁ambi	-6038
▁princip	-6039
▁ran	-6040
▁últ	-6041
▁natür	-6042
▁همان	-6043
owanie	-6044
▁above	-6045
מד	-6046
▁mand	-6047
▁disapp	-6048
▁biology	-6049
▁journal	-6050
▁hers	-6051
▁تمام	-6052
▁board	-6053
▁forms	-6054
ليل	-6055
▁muchas	-6056
▁mentre	-6057
▁response	-6058
▁enjo	-6059
▁dinosa	-6060
الی	-6061
یری	-6062
▁cel	-6063
▁content	-6064
▁vraag	-6065
esi	-6066
قيام	-6067
▁hebt	-6068
▁waste	-6069
▁könnte	-6070
▁właśnie	-6071
▁kto	-6072
▁sig	-6073
▁verm	-6074
kund	-6075
ką	-6076
مس	-6077
▁ظ	-6078
▁kein	-6079
▁miał	-6080
▁products	-6081
łu	-6082
▁electricity	-6083
halb	-6084
▁website	-6085
▁demonstr	-6086
▁احت	-6087
▁دول	-6088
▁bacteria	-6089
▁größ	-6090
▁epidem	-6091
▁insect	-6092
▁memory	-6093
▁surger	-6094
ya	-6095
ald	-6096
chio	-6097
arten	-6098
▁komt	-6099
▁recog	-6100
▁nostri	-6101
▁ihn	-6102
▁کام	-6103
▁المست	-6104
נד	-6105
▁bess	-6106
pers	-6107
owych	-6108
eszcze	-6109
▁אפילו	-6110
▁allowed	-6111
▁سه	-6112
▁models	-6113
▁لكم	-6114
ctors	-6115
سبب	-6116
staw	-6117
▁אלו	-6118
▁eens	-6119
▁weiß	-6120
▁freedom	-6121
phone	-6122
▁stiamo	-6123
▁religion	-6124
▁ful	-6125
▁citt	-6126
▁accept	-6127
▁ustedes	-6128
▁neighbor	-6129
▁minute	-6130
▁including	-6131
▁conditions	-6132
▁ba	-6133
▁families	-6134
רצ	-6135
▁motor	-6136
▁اتفا	-6137
vas	-6138
▁crow	-6139
▁facebook	-6140
iles	-6141
▁larger	-6142
▁account	-6143
▁site	-6144
▁washing	-6145
äd	-6146
▁series	-6147
äs	-6148
▁lassen	-6149
ibile	-6150
organ	-6151
▁prod	-6152
▁והוא	-6153
▁fotograf	-6154
▁שק	-6155
esse	-6156
ركة	-6157
▁fill	-6158
▁letz	-6159
▁בב	-6160
▁praw	-6161
▁إنها	-6162
▁zullen	-6163
▁nuestros	-6164
▁philos	-6165
ניתן	-6166
كة	-6167
عية	-6168
▁medio	-6169
▁verste	-6170
ilità	-6171
▁sond	-6172
▁hacia	-6173
oi	-6174
aniu	-6175
▁cie	-6176
hm	-6177
▁עושים	-6178
▁faster	-6179
▁którzy	-6180
▁bambini	-6181
منا	-6182
▁همین	-6183
▁reading	-6184
▁whe	-6185
▁role	-6186
▁odpowied	-6187
▁mí	-6188
▁print	-6189
▁restaur	-6190
ogo	-6191
uno	-6192
▁לל	-6193
cono	-6194
imm	-6195
aster	-6196
▁عليه	-6197
▁مكان	-6198
▁observ	-6199
▁veränd	-6200
ham	-6201
▁מט	-6202
▁minds	-6203
▁funzion	-6204
▁perspective	-6205
▁taught	-6206
inct	-6207
veer	-6208
▁gef	-6209
▁ecos	-6210
▁vict	-6211
▁gehen	-6212
▁riv	-6213
▁الض	-6214
▁associ	-6215
▁respond	-6216
▁hö	-6217
lier	-6218
▁finding	-6219
▁تخ	-6220
▁goal	-6221
▁wife	-6222
نج	-6223
▁magic	-6224
▁return	-6225
رج	-6226
▁ziet	-6227
erte	-6228
ciamo	-6229
ength	-6230
▁shown	-6231
▁telef	-6232
▁corru	-6233
▁fuori	-6234
غي	-6235
▁بط	-6236
atory	-6237
▁sorts	-6238
▁quer	-6239
▁elkaar	-6240
فه	-6241
aving	-6242
▁empez	-6243
▁krijgen	-6244
▁relativ	-6245
board	-6246
▁train	-6247
▁algor	-6248
▁therefore	-6249
dr	-6250
ęż	-6251
essen	-6252
▁malaria	-6253
▁condu	-6254
▁architecture	-6255
▁alcuni	-6256
▁ejemplo	-6257
▁agricult	-6258
iety	-6259
▁ded	-6260
▁jon	-6261
▁samo	-6262
▁town	-6263
▁worse	-6264
▁wik	-6265
قتصاد	-6266
▁page	-6267
zzo	-6268
▁veh	-6269
▁altre	-6270
▁unfort	-6271
▁الحياة	-6272
▁org	-6273
▁gewoon	-6274
▁wollen	-6275
▁pregunt	-6276
▁traditional	-6277
▁בדי	-6278
vilupp	-6279
▁older	-6280
▁vanda	-6281
▁35	-6282
weise	-6283
▁unos	-6284
▁bunch	-6285
▁świecie	-6286
omas	-6287
▁cod	-6288
وعة	-6289
▁mr	-6290
صر	-6291
eler	-6292
kiem	-6293
▁الز	-6294
▁male	-6295
▁ended	-6296
▁bio	-6297
▁batt	-6298
▁sequ	-6299
▁decision	-6300
▁dog	-6301
▁mają	-6302
elden	-6303
▁werde	-6304
produ	-6305
ety	-6306
▁فهم	-6307
▁killed	-6308
▁mc	-6309
enda	-6310
▁nunca	-6311
aría	-6312
▁זמן	-6313
▁kunt	-6314
▁reden	-6315
ota	-6316
▁lí	-6317
▁اص	-6318
▁אלי	-6319
hrend	-6320
▁truly	-6321
▁svilupp	-6322
▁complicated	-6323
cen	-6324
▁erz	-6325
▁افت	-6326
▁צריך	-6327
▁ببین	-6328
ilities	-6329
شون	-6330
▁אחרי	-6331
▁qualcun	-6332
▁خا	-6333
מרי	-6334
▁جز	-6335
▁trou	-6336
▁voll	-6337
▁binnen	-6338
lej	-6339
▁prison	-6340
▁western	-6341
ały	-6342
الب	-6343
▁دن	-6344
▁يد	-6345
▁أنها	-6346
▁cultural	-6347
رفة	-6348
▁spot	-6349
▁indep	-6350
▁spaz	-6351
▁kunst	-6352
▁spirit	-6353
▁phenomen	-6354
▁wanne	-6355
óg	-6356
łas	-6357
woord	-6358
▁wanneer	-6359
▁llev	-6360
▁beispiel	-6361
▁surprising	-6362
▁جن	-6363
amer	-6364
▁jeszcze	-6365
rag	-6366
▁حل	-6367
▁siem	-6368
elo	-6369
▁nuovo	-6370
aci	-6371
opt	-6372
▁trem	-6373
▁swoje	-6374
▁successful	-6375
▁cloud	-6376
▁document	-6377
▁trib	-6378
▁odd	-6379
estra	-6380
ód	-6381
▁upon	-6382
▁إنه	-6383
▁niez	-6384
▁drink	-6385
فق	-6386
czę	-6387
▁thanks	-6388
راح	-6389
▁مجم	-6390
ounds	-6391
▁spra	-6392
▁broad	-6393
▁intent	-6394
▁treatment	-6395
irn	-6396
sze	-6397
▁alth	-6398
▁skills	-6399
▁mee	-6400
▁trade	-6401
▁violence	-6402
لو	-6403
لاء	-6404
▁engag	-6405
חיל	-6406
▁desar	-6407
▁military	-6408
هد	-6409
▁שאתם	-6410
▁mention	-6411
▁communities	-6412
aard	-6413
▁یاد	-6414
▁genetic	-6415
▁interpre	-6416
erw	-6417
▁مى	-6418
▁trze	-6419
▁applic	-6420
▁aspect	-6421
מונה	-6422
▁rat	-6423
ienie	-6424
▁concern	-6425
▁بودم	-6426
▁نشان	-6427
ícul	-6428
▁شيئ	-6429
ughter	-6430
▁meiner	-6431
▁throughout	-6432
▁cheap	-6433
▁funcion	-6434
ناء	-6435
▁إلي	-6436
▁ارت	-6437
▁vulner	-6438
▁wszystkie	-6439
▁cases	-6440
▁veces	-6441
▁afford	-6442
▁written	-6443
▁była	-6444
▁method	-6445
▁pieces	-6446
▁indian	-6447
▁miliard	-6448
وني	-6449
uzione	-6450
▁מכי	-6451
▁vinden	-6452
ria	-6453
גים	-6454
▁עוב	-6455
▁ihren	-6456
▁يح	-6457
avano	-6458
▁otras	-6459
▁smaller	-6460
lik	-6461
▁dw	-6462
▁estado	-6463
▁jednak	-6464
med	-6465
urr	-6466
nize	-6467
▁patterns	-6468
▁quot	-6469
▁humanity	-6470
acja	-6471
świ	-6472
wort	-6473
▁השי	-6474
eling	-6475
plant	-6476
▁address	-6477
▁استخ	-6478
▁penso	-6479
▁select	-6480
▁temu	-6481
▁himself	-6482
▁straight	-6483
▁habit	-6484
▁podría	-6485
▁independ	-6486
▁ongeveer	-6487
iate	-6488
▁دید	-6489
▁lebens	-6490
▁attravers	-6491
▁fantastic	-6492
▁cerv	-6493
▁prin	-6494
▁verk	-6495
ضح	-6496
▁نو	-6497
▁دانش	-6498
▁richt	-6499
▁während	-6500
▁הבי	-6501
▁שלכם	-6502
▁beauty	-6503
לח	-6504
רק	-6505
▁lapt	-6506
▁although	-6507
▁ciud	-6508
▁rise	-6509
▁الأول	-6510
▁enorme	-6511
▁standing	-6512
osh	-6513
▁twor	-6514
▁hablar	-6515
▁weight	-6516
▁wurden	-6517
▁tree	-6518
▁sic	-6519
▁nuevo	-6520
▁beings	-6521
▁service	-6522
▁45	-6523
▁rim	-6524
▁دهد	-6525
▁algu	-6526
▁soci	-6527
▁launch	-6528
▁۱	-6529
▁mano	-6530
ishing	-6531
▁price	-6532
enschap	-6533
▁camb	-6534
▁cold	-6535
▁gegen	-6536
nic	-6537
uta	-6538
ulate	-6539
▁elke	-6540
▁scha	-6541
▁جهان	-6542
▁בעצ	-6543
▁ontwik	-6544
▁concentr	-6545
עיון	-6546
▁ולא	-6547
▁jeder	-6548
▁بنابراین	-6549
nell	-6550
▁werken	-6551
▁נת	-6552
الية	-6553
▁بهتر	-6554
▁صحبت	-6555
▁alguien	-6556
رکت	-6557
atore	-6558
▁mart	-6559
▁russ	-6560
▁واحدة	-6561
▁choose	-6562
كبر	-6563
▁lui	-6564
▁sino	-6565
▁achter	-6566
ieme	-6567
▁emer	-6568
▁vorm	-6569
▁excited	-6570
وط	-6571
کس	-6572
für	-6573
▁خواهد	-6574
▁ee	-6575
▁أخ	-6576
inar	-6577
▁liv	-6578
▁embar	-6579
▁کردیم	-6580
▁policy	-6581
igo	-6582
▁يحدث	-6583
▁בעולם	-6584
▁healthy	-6585
bij	-6586
▁alive	-6587
▁tutaj	-6588
ifornia	-6589
▁siempre	-6590
isz	-6591
▁והם	-6592
▁الحقيقة	-6593
works	-6594
צב	-6595
▁וח	-6596
▁שבו	-6597
yle	-6598
▁patr	-6599
▁vero	-6600
▁tussen	-6601
▁private	-6602
ובן	-6603
▁earlier	-6604
▁recognize	-6605
▁مخ	-6606
ilmente	-6607
▁environmental	-6608
vit	-6609
jące	-6610
▁akt	-6611
▁למה	-6612
▁casi	-6613
انية	-6614
▁kept	-6615
nde	-6616
انات	-6617
▁allows	-6618
▁london	-6619
▁sicher	-6620
يء	-6621
isco	-6622
▁dop	-6623
▁درست	-6624
▁kijken	-6625
▁physics	-6626
ולים	-6627
▁tengo	-6628
▁glob	-6629
▁effort	-6630
▁primer	-6631
▁clearly	-6632
▁expensive	-6633
▁increasing	-6634
▁vom	-6635
▁دارم	-6636
ברי	-6637
▁wam	-6638
▁decisions	-6639
▁אפשר	-6640
ניה	-6641
ured	-6642
▁appl	-6643
iale	-6644
▁gele	-6645
▁california	-6646
czu	-6647
▁esos	-6648
▁greater	-6649
▁solutions	-6650
gev	-6651
hib	-6652
كرا	-6653
▁terra	-6654
▁دون	-6655
time	-6656
▁dazu	-6657
▁tecnología	-6658
ución	-6659
▁uses	-6660
▁الام	-6661
▁propos	-6662
در	-6663
▁حين	-6664
▁ثلاث	-6665
▁symbol	-6666
▁achieve	-6667
▁anywhere	-6668
ظم	-6669
▁تماما	-6670
cken	-6671
▁limit	-6672
▁increase	-6673
rowad	-6674
mar	-6675
▁כשה	-6676
▁חיים	-6677
يك	-6678
▁painting	-6679
▁שח	-6680
play	-6681
ורות	-6682
▁perd	-6683
▁aveva	-6684
▁famous	-6685
▁comfort	-6686
▁אותי	-6687
▁للم	-6688
▁których	-6689
cep	-6690
▁ולה	-6691
▁cogn	-6692
jet	-6693
حدة	-6694
▁sé	-6695
▁colleag	-6696
▁histori	-6697
▁wichtig	-6698
דיין	-6699
▁weit	-6700
iments	-6701
رن	-6702
▁kob	-6703
▁zob	-6704
▁rius	-6705
▁scop	-6706
▁babies	-6707
▁engineering	-6708
▁primo	-6709
uti	-6710
▁ahí	-6711
▁anti	-6712
▁חשוב	-6713
▁studio	-6714
▁אלא	-6715
▁לכל	-6716
▁intel	-6717
▁darwin	-6718
▁יוצ	-6719
▁intelligence	-6720
mon	-6721
ńs	-6722
bec	-6723
▁وهي	-6724
▁کوچ	-6725
▁strange	-6726
▁teaching	-6727
▁הדבר	-6728
bit	-6729
▁specif	-6730
thern	-6731
▁neurons	-6732
▁سنة	-6733
cular	-6734
iling	-6735
▁beet	-6736
▁critical	-6737
kry	-6738
▁giust	-6739
ווה	-6740
▁هایی	-6741
owane	-6742
▁weer	-6743
▁المح	-6744
▁americans	-6745
פש	-6746
▁lines	-6747
▁iedereen	-6748
ضر	-6749
wel	-6750
كلة	-6751
▁wit	-6752
▁eind	-6753
▁toda	-6754
▁parad	-6755
▁oto	-6756
▁visit	-6757
▁ol	-6758
▁haciendo	-6759
▁uw	-6760
▁naz	-6761
▁listening	-6762
oof	-6763
▁inner	-6764
▁mogelijk	-6765
apes	-6766
ils	-6767
▁פעם	-6768
▁اخت	-6769
▁arte	-6770
▁mówi	-6771
▁current	-6772
cią	-6773
▁suc	-6774
یدا	-6775
▁مط	-6776
▁מער	-6777
▁stanno	-6778
▁seconds	-6779
▁worry	-6780
▁jestem	-6781
▁original	-6782
الات	-6783
مایش	-6784
جد	-6785
▁acad	-6786
اقة	-6787
gono	-6788
▁zit	-6789
▁magn	-6790
▁accord	-6791
▁cuenta	-6792
▁remind	-6793
ardo	-6794
▁ذات	-6795
زة	-6796
شف	-6797
ester	-6798
▁dram	-6799
▁natürlich	-6800
▁מז	-6801
esis	-6802
▁برد	-6803
▁prawd	-6804
aties	-6805
▁cant	-6806
▁opin	-6807
▁nooit	-6808
▁wäre	-6809
کرد	-6810
▁انها	-6811
ترنت	-6812
▁wyd	-6813
▁پای	-6814
▁denke	-6815
ره	-6816
zum	-6817
کار	-6818
عادة	-6819
▁ther	-6820
▁email	-6821
▁volte	-6822
▁bardziej	-6823
▁مرا	-6824
▁ingen	-6825
▁miljo	-6826
▁rapid	-6827
▁צי	-6828
▁sed	-6829
▁wal	-6830
▁jemand	-6831
▁pensar	-6832
▁dobbiamo	-6833
alia	-6834
▁kos	-6835
▁resol	-6836
▁designer	-6837
ijf	-6838
لاف	-6839
iced	-6840
raft	-6841
▁tens	-6842
▁ليست	-6843
▁israel	-6844
▁provide	-6845
▁production	-6846
▁lower	-6847
ky	-6848
▁block	-6849
▁however	-6850
▁sondern	-6851
زل	-6852
▁sido	-6853
▁costs	-6854
▁عا	-6855
▁sla	-6856
▁avete	-6857
▁libro	-6858
▁massive	-6859
▁unserer	-6860
heim	-6861
▁במי	-6862
▁mogą	-6863
▁عبر	-6864
remmo	-6865
▁esas	-6866
▁none	-6867
▁زیادی	-6868
cj	-6869
ضاء	-6870
ساعد	-6871
▁aid	-6872
▁funktion	-6873
▁mex	-6874
▁بالا	-6875
▁performance	-6876
گونه	-6877
▁dio	-6878
▁אדם	-6879
ición	-6880
▁specific	-6881
جاد	-6882
▁آز	-6883
racht	-6884
▁agua	-6885
▁neue	-6886
ientos	-6887
▁rights	-6888
▁qualcuno	-6889
▁sogar	-6890
▁بودند	-6891
nam	-6892
▁virtual	-6893
kn	-6894
▁ملي	-6895
▁rule	-6896
▁أننا	-6897
▁expand	-6898
▁kommen	-6899
▁dej	-6900
▁dor	-6901
▁אינ	-6902
▁surgery	-6903
▁interessante	-6904
urch	-6905
פק	-6906
▁pel	-6907
▁rein	-6908
▁types	-6909
▁saving	-6910
ec	-6911
▁مؤ	-6912
▁jakie	-6913
▁store	-6914
▁zrobić	-6915
▁geleden	-6916
ques	-6917
gress	-6918
▁فيها	-6919
▁10,000	-6920
▁verhaal	-6921
حن	-6922
▁ug	-6923
▁weap	-6924
▁رائ	-6925
▁المنا	-6926
gew	-6927
rete	-6928
▁فيه	-6929
▁magg	-6930
מיד	-6931
band	-6932
ymore	-6933
▁aant	-6934
▁campa	-6935
▁comport	-6936
▁zwischen	-6937
zić	-6938
▁ماه	-6939
itude	-6940
▁zobac	-6941
▁dangerous	-6942
ciu	-6943
pra	-6944
▁داره	-6945
▁pokaz	-6946
▁various	-6947
▁impar	-6948
▁segund	-6949
▁99	-6950
▁בז	-6951
▁בעי	-6952
▁اذا	-6953
▁iraq	-6954
▁کاری	-6955
owa	-6956
▁fit	-6957
elling	-6958
▁gemacht	-6959
מנו	-6960
▁dance	-6961
▁możli	-6962
▁driving	-6963
ורת	-6964
قدر	-6965
▁منذ	-6966
orden	-6967
▁argument	-6968
▁dati	-6969
▁أفضل	-6970
▁madre	-6971
▁employ	-6972
▁molecul	-6973
▁أح	-6974
▁הנה	-6975
▁انگ	-6976
▁gradu	-6977
▁chodzi	-6978
▁creativity	-6979
idd	-6980
▁tiss	-6981
▁anymore	-6982
▁unfortunately	-6983
قول	-6984
מא	-6985
زد	-6986
leem	-6987
orie	-6988
pose	-6989
▁حتی	-6990
▁neuro	-6991
▁guerra	-6992
▁slight	-6993
▁probleem	-6994
▁آیا	-6995
▁values	-6996
▁charles	-6997
ارت	-6998
▁moder	-6999
▁slecht	-7000
▁kult	-7001
▁verschillende	-7002
kim	-7003
▁sue	-7004
▁copy	-7005
▁powin	-7006
▁conversation	-7007
سه	-7008
▁cry	-7009
▁desp	-7010
▁conference	-7011
▁להי	-7012
علومات	-7013
imately	-7014
▁becoming	-7015
él	-7016
▁fuel	-7017
▁wyst	-7018
▁הללו	-7019
▁infrastruct	-7020
اند	-7021
▁پی	-7022
aken	-7023
▁כבר	-7024
▁whose	-7025
▁cooper	-7026
▁گو	-7027
▁enjoy	-7028
▁لماذا	-7029
▁levels	-7030
▁algunas	-7031
gin	-7032
ends	-7033
▁glaube	-7034
aling	-7035
▁multi	-7036
▁andare	-7037
▁حا	-7038
▁بچه	-7039
▁denen	-7040
áp	-7041
غيرة	-7042
▁hät	-7043
▁רוצים	-7044
▁forget	-7045
שון	-7046
▁jug	-7047
stood	-7048
▁הגדול	-7049
▁بالنسبة	-7050
▁terrible	-7051
▁geno	-7052
▁beginnen	-7053
hol	-7054
▁tecnologia	-7055
tex	-7056
قدم	-7057
▁לך	-7058
ikan	-7059
▁acqua	-7060
▁czego	-7061
▁electron	-7062
▁wi	-7063
▁origin	-7064
عداد	-7065
▁שלה	-7066
▁vandaag	-7067
حاول	-7068
▁لنا	-7069
وص	-7070
▁tax	-7071
▁zonder	-7072
▁oud	-7073
ancia	-7074
▁task	-7075
▁direction	-7076
▁chcia	-7077
▁vamos	-7078
▁waż	-7079
▁forth	-7080
▁services	-7081
asse	-7082
▁vot	-7083
▁המש	-7084
chter	-7085
▁נכון	-7086
▁magaz	-7087
zer	-7088
▁nag	-7089
etten	-7090
▁onderzo	-7091
so	-7092
yect	-7093
▁allí	-7094
▁vehic	-7095
▁życie	-7096
▁income	-7097
▁quelle	-7098
▁resist	-7099
▁immediately	-7100
lijke	-7101
▁gold	-7102
▁gerade	-7103
▁eigenlijk	-7104
▁keer	-7105
▁surr	-7106
ancy	-7107
▁frage	-7108
▁wissenschaft	-7109
▁laws	-7110
شا	-7111
▁duż	-7112
▁potrzeb	-7113
▁waiting	-7114
eri	-7115
קרא	-7116
▁zod	-7117
▁عالم	-7118
hers	-7119
▁greatest	-7120
▁حيات	-7121
▁bodies	-7122
▁einstein	-7123
לית	-7124
▁fo	-7125
▁finden	-7126
▁politics	-7127
ابة	-7128
▁raise	-7129
▁życia	-7130
▁edific	-7131
▁einmal	-7132
achte	-7133
▁pian	-7134
▁encou	-7135
▁powiedział	-7136
pet	-7137
cons	-7138
▁flying	-7139
▁remarkable	-7140
▁ign	-7141
▁ohne	-7142
▁primera	-7143
▁washington	-7144
▁pię	-7145
prene	-7146
key	-7147
▁diet	-7148
▁oczy	-7149
▁środ	-7150
▁پیدا	-7151
▁sport	-7152
wiąz	-7153
▁bord	-7154
▁ludz	-7155
▁מספר	-7156
▁nueva	-7157
▁diss	-7158
▁geben	-7159
▁neuron	-7160
lin	-7161
yste	-7162
▁המח	-7163
▁שהיא	-7164
▁assum	-7165
▁mobile	-7166
▁przykład	-7167
وتر	-7168
▁يتم	-7169
▁decade	-7170
▁connection	-7171
dro	-7172
▁precis	-7173
▁bomb	-7174
▁fest	-7175
▁cualquier	-7176
▁אר	-7177
▁زمین	-7178
ysteem	-7179
▁ihrer	-7180
ánd	-7181
▁نیا	-7182
▁quiz	-7183
▁irgend	-7184
▁emotion	-7185
▁bast	-7186
▁range	-7187
ژی	-7188
▁מדו	-7189
▁خاص	-7190
iencia	-7191
▁incluso	-7192
over	-7193
▁boys	-7194
▁carr	-7195
▁hair	-7196
chod	-7197
▁näch	-7198
▁adapt	-7199
▁città	-7200
▁install	-7201
▁enormous	-7202
▁invented	-7203
▁عل	-7204
jaw	-7205
atically	-7206
▁grandes	-7207
log	-7208
iben	-7209
▁funny	-7210
▁slide	-7211
▁کردند	-7212
▁financial	-7213
مج	-7214
▁روش	-7215
▁ولا	-7216
▁عنوان	-7217
צו	-7218
▁paz	-7219
▁destro	-7220
▁تف	-7221
urre	-7222
▁george	-7223
▁temperature	-7224
uted	-7225
▁העי	-7226
▁sapete	-7227
▁wood	-7228
▁target	-7229
▁twitter	-7230
▁posit	-7231
30	-7232
▁following	-7233
▁institutions	-7234
يب	-7235
▁doctors	-7236
▁vro	-7237
▁gall	-7238
▁citizens	-7239
▁información	-7240
aly	-7241
▁gev	-7242
▁geweld	-7243
▁techni	-7244
▁diseases	-7245
ael	-7246
aden	-7247
▁لكي	-7248
gos	-7249
öt	-7250
צד	-7251
arbe	-7252
stre	-7253
▁ros	-7254
▁scu	-7255
▁altijd	-7256
▁nichts	-7257
▁effective	-7258
▁entreprene	-7259
راف	-7260
czas	-7261
▁shoot	-7262
▁creare	-7263
▁mountain	-7264
ums	-7265
▁tab	-7266
▁legs	-7267
▁random	-7268
owie	-7269
ained	-7270
▁demand	-7271
▁recogn	-7272
eso	-7273
▁punt	-7274
▁נראה	-7275
urg	-7276
רום	-7277
يدة	-7278
▁astron	-7279
▁הדברים	-7280
▁willing	-7281
fa	-7282
▁נפ	-7283
▁sembra	-7284
▁useful	-7285
وام	-7286
▁inizi	-7287
▁prepar	-7288
▁shared	-7289
▁speaking	-7290
ונה	-7291
▁במש	-7292
▁סוג	-7293
▁narr	-7294
▁jaren	-7295
▁sarebbe	-7296
قية	-7297
isen	-7298
▁طول	-7299
▁fold	-7300
▁شوند	-7301
▁cerebro	-7302
▁fib	-7303
▁nom	-7304
▁cust	-7305
wol	-7306
▁בג	-7307
reci	-7308
▁2008	-7309
▁capire	-7310
▁ü	-7311
▁wym	-7312
کان	-7313
▁bent	-7314
▁sorry	-7315
▁رأ	-7316
▁gig	-7317
▁nac	-7318
▁contact	-7319
agt	-7320
بود	-7321
يمة	-7322
▁تغی	-7323
▁nerv	-7324
▁علينا	-7325
▁networks	-7326
خوا	-7327
▁carto	-7328
▁floor	-7329
▁afrika	-7330
enschapp	-7331
מית	-7332
طان	-7333
▁ped	-7334
▁rond	-7335
▁shot	-7336
▁cominci	-7337
▁invis	-7338
▁ka	-7339
ided	-7340
▁mel	-7341
ho	-7342
▁zmien	-7343
▁condition	-7344
▁mix	-7345
▁قال	-7346
▁deel	-7347
▁sche	-7348
▁steeds	-7349
▁survive	-7350
▁bag	-7351
▁الحد	-7352
▁career	-7353
▁cervello	-7354
▁0	-7355
▁fosse	-7356
▁genom	-7357
▁diffic	-7358
▁television	-7359
care	-7360
▁gent	-7361
▁maak	-7362
▁להשת	-7363
nehmen	-7364
iff	-7365
▁يوم	-7366
▁espac	-7367
ווי	-7368
▁وس	-7369
▁rif	-7370
▁strugg	-7371
▁יי	-7372
antic	-7373
▁dafür	-7374
▁jesteśmy	-7375
▁gek	-7376
▁jaki	-7377
▁يقوم	-7378
דש	-7379
▁deber	-7380
reg	-7381
czyć	-7382
▁indic	-7383
▁emotional	-7384
eil	-7385
ises	-7386
شخاص	-7387
▁asia	-7388
▁hous	-7389
▁instr	-7390
▁ing	-7391
▁desert	-7392
▁רי	-7393
atro	-7394
kele	-7395
▁وضع	-7396
▁gang	-7397
▁mente	-7398
▁compar	-7399
aam	-7400
▁somm	-7401
▁równie	-7402
▁profound	-7403
▁ł	-7404
ellt	-7405
▁hole	-7406
▁weren	-7407
▁mission	-7408
▁societies	-7409
قب	-7410
פרי	-7411
▁bol	-7412
▁sir	-7413
▁grandi	-7414
▁ricord	-7415
▁prozent	-7416
▁instrument	-7417
▁سأ	-7418
keiten	-7419
▁serie	-7420
לד	-7421
▁proyect	-7422
▁experiments	-7423
ét	-7424
▁الأس	-7425
▁europa	-7426
set	-7427
▁milioni	-7428
ميم	-7429
▁kap	-7430
▁dobr	-7431
▁wygl	-7432
▁يش	-7433
oten	-7434
▁practice	-7435
▁lö	-7436
▁sup	-7437
▁כול	-7438
▁كذلك	-7439
illa	-7440
▁magnet	-7441
schen	-7442
▁wire	-7443
▁forces	-7444
▁pyt	-7445
▁kommt	-7446
▁فه	-7447
▁000	-7448
▁manuf	-7449
▁اخ	-7450
▁cerca	-7451
▁molte	-7452
اهد	-7453
▁sf	-7454
▁hip	-7455
▁mostly	-7456
▁niemand	-7457
▁tremend	-7458
▁universo	-7459
דור	-7460
▁cią	-7461
right	-7462
▁wielu	-7463
▁police	-7464
▁würden	-7465
وير	-7466
nymi	-7467
▁walked	-7468
fall	-7469
ront	-7470
▁gehirn	-7471
▁חז	-7472
▁soy	-7473
▁unique	-7474
▁ship	-7475
▁michael	-7476
▁wow	-7477
▁circu	-7478
▁philosoph	-7479
▁veramente	-7480
▁القيام	-7481
ativo	-7482
▁ostat	-7483
▁cambia	-7484
▁zeigen	-7485
▁potrebbe	-7486
כנס	-7487
راه	-7488
▁וש	-7489
almente	-7490
▁landsc	-7491
nes	-7492
▁bul	-7493
cked	-7494
▁pole	-7495
imensional	-7496
▁effects	-7497
▁understood	-7498
▁governments	-7499
▁منت	-7500
ál	-7501
▁ות	-7502
iant	-7503
▁tex	-7504
▁czym	-7505
▁miei	-7506
▁apply	-7507
▁loved	-7508
▁migli	-7509
▁ذه	-7510
bles	-7511
ؤلاء	-7512
▁ler	-7513
entras	-7514
▁moest	-7515
▁współ	-7516
▁myster	-7517
▁meeting	-7518
▁המס	-7519
▁يكن	-7520
▁دوست	-7521
▁mostr	-7522
▁genome	-7523
▁wasser	-7524
فته	-7525
cznie	-7526
zyscy	-7527
▁אחוז	-7528
▁honest	-7529
▁הנו	-7530
▁قام	-7531
▁descu	-7532
▁اونها	-7533
▁belief	-7534
▁diverse	-7535
▁completamente	-7536
▁طور	-7537
▁ובכן	-7538
▁دنیا	-7539
▁begrij	-7540
▁wszyscy	-7541
▁كرد	-7542
▁arab	-7543
▁ende	-7544
▁multip	-7545
▁wealth	-7546
▁consciousness	-7547
▁chair	-7548
▁grup	-7549
▁insieme	-7550
▁pud	-7551
▁בנו	-7552
▁manufact	-7553
▁תח	-7554
itto	-7555
▁الخاص	-7556
عمال	-7557
▁alto	-7558
▁widz	-7559
▁mostrar	-7560
ús	-7561
شد	-7562
▁flight	-7563
▁moon	-7564
▁acerca	-7565
▁decide	-7566
▁parlare	-7567
▁scan	-7568
▁vrij	-7569
ientes	-7570
▁vielen	-7571
▁hacerlo	-7572
▁partners	-7573
על	-7574
▁worst	-7575
aat	-7576
▁מו	-7577
tech	-7578
▁evolved	-7579
يه	-7580
han	-7581
ساء	-7582
▁snel	-7583
▁organis	-7584
▁individu	-7585
▁بده	-7586
▁fino	-7587
atz	-7588
eda	-7589
▁erw	-7590
▁znaj	-7591
▁aún	-7592
▁cab	-7593
نین	-7594
▁تس	-7595
▁apple	-7596
▁vedete	-7597
▁passiert	-7598
uerd	-7599
▁נמצ	-7600
atura	-7601
▁grado	-7602
▁helped	-7603
واء	-7604
▁יהיה	-7605
▁foundation	-7606
ذن	-7607
ؤال	-7608
▁וג	-7609
▁أد	-7610
▁יודע	-7611
يين	-7612
▁rh	-7613
ffee	-7614
▁usar	-7615
ierung	-7616
mp	-7617
isce	-7618
▁אחרים	-7619
ception	-7620
ande	-7621
▁jun	-7622
▁جمع	-7623
▁canc	-7624
▁rapp	-7625
▁prior	-7626
▁انسان	-7627
▁partner	-7628
yk	-7629
▁194	-7630
▁note	-7631
ending	-7632
▁below	-7633
▁infin	-7634
▁maggior	-7635
יו	-7636
انا	-7637
تها	-7638
▁corr	-7639
▁certo	-7640
▁¡	-7641
acza	-7642
▁siete	-7643
▁تغییر	-7644
▁verstehen	-7645
▁zat	-7646
anych	-7647
▁centro	-7648
▁artific	-7649
الك	-7650
itud	-7651
▁تول	-7652
▁والت	-7653
▁campaign	-7654
▁instance	-7655
▁حو	-7656
▁entr	-7657
▁challenges	-7658
▁hus	-7659
▁hang	-7660
▁interpret	-7661
ört	-7662
ברה	-7663
edor	-7664
kiej	-7665
▁complete	-7666
צע	-7667
ays	-7668
▁کسی	-7669
inary	-7670
ivi	-7671
ומות	-7672
▁spl	-7673
▁عدد	-7674
issen	-7675
▁core	-7676
▁nasa	-7677
▁ancient	-7678
▁reflect	-7679
جات	-7680
▁أول	-7681
▁twice	-7682
erentes	-7683
▁directly	-7684
▁designers	-7685
ביר	-7686
▁ار	-7687
▁già	-7688
▁לזה	-7689
▁leren	-7690
▁active	-7691
▁possibly	-7692
▁transpar	-7693
mitt	-7694
ienza	-7695
▁birds	-7696
▁społecz	-7697
erst	-7698
▁آمو	-7699
▁doet	-7700
▁advan	-7701
▁موضوع	-7702
תח	-7703
vamo	-7704
aries	-7705
▁budget	-7706
▁oxygen	-7707
ثل	-7708
ago	-7709
grad	-7710
▁lic	-7711
▁móz	-7712
▁zam	-7713
▁cand	-7714
▁causes	-7715
▁artists	-7716
بان	-7717
zial	-7718
geben	-7719
▁buiten	-7720
ług	-7721
▁prem	-7722
ín	-7723
▁ją	-7724
atur	-7725
▁تجرب	-7726
▁summer	-7727
wise	-7728
▁shar	-7729
▁torn	-7730
▁party	-7731
טיפ	-7732
▁drop	-7733
▁appar	-7734
כנולוגיה	-7735
▁لها	-7736
▁enter	-7737
▁sempl	-7738
▁professor	-7739
tedy	-7740
ivers	-7741
▁polic	-7742
▁inspired	-7743
▁verschieden	-7744
ارب	-7745
▁bee	-7746
ischer	-7747
▁wtedy	-7748
▁75	-7749
achen	-7750
eller	-7751
water	-7752
▁erste	-7753
▁james	-7754
زا	-7755
▁فقد	-7756
▁allen	-7757
▁פר	-7758
▁ברי	-7759
▁للأ	-7760
▁اندا	-7761
▁intelle	-7762
▁mientras	-7763
▁ry	-7764
arów	-7765
▁البح	-7766
▁ahead	-7767
▁coast	-7768
▁purpose	-7769
▁sustainable	-7770
utz	-7771
▁albo	-7772
▁grat	-7773
▁poet	-7774
tschaft	-7775
מוש	-7776
▁pig	-7777
▁sieht	-7778
ביב	-7779
▁עושה	-7780
▁daran	-7781
מין	-7782
▁كنا	-7783
▁jack	-7784
▁remo	-7785
▁rice	-7786
▁odkry	-7787
▁quale	-7788
▁spending	-7789
ieke	-7790
▁ráp	-7791
▁ایم	-7792
▁مغز	-7793
▁heat	-7794
▁والم	-7795
▁pensare	-7796
empt	-7797
▁race	-7798
lement	-7799
▁attract	-7800
▁immagin	-7801
רכ	-7802
▁rol	-7803
▁שלך	-7804
▁crowd	-7805
▁والذي	-7806
▁insegn	-7807
▁kennen	-7808
اية	-7809
▁محا	-7810
owego	-7811
▁lange	-7812
▁depart	-7813
تمع	-7814
▁lì	-7815
▁התח	-7816
▁quad	-7817
▁match	-7818
▁سنوات	-7819
▁biological	-7820
▁ogr	-7821
▁دائ	-7822
▁prototy	-7823
▁bib	-7824
▁heav	-7825
▁intu	-7826
▁nies	-7827
idente	-7828
▁initi	-7829
▁nuestras	-7830
תיים	-7831
حتاج	-7832
▁burn	-7833
▁inve	-7834
▁موجود	-7835
▁nostre	-7836
ians	-7837
▁millionen	-7838
▁py	-7839
used	-7840
▁nan	-7841
▁fanno	-7842
▁macch	-7843
▁behand	-7844
▁prefer	-7845
▁sector	-7846
now	-7847
here	-7848
▁bren	-7849
▁tour	-7850
▁بذلك	-7851
▁شكرا	-7852
aczego	-7853
▁reduce	-7854
אן	-7855
לב	-7856
dem	-7857
▁workers	-7858
gesch	-7859
▁rare	-7860
▁veloc	-7861
▁algorith	-7862
قى	-7863
▁بیم	-7864
▁oraz	-7865
▁innych	-7866
▁persoon	-7867
▁dlaczego	-7868
▁attraverso	-7869
bres	-7870
▁ruim	-7871
▁sharing	-7872
▁institution	-7873
▁دع	-7874
▁fren	-7875
▁aware	-7876
▁עדיין	-7877
ستخدام	-7878
▁manip	-7879
▁punkt	-7880
▁stessa	-7881
usz	-7882
▁سپ	-7883
orno	-7884
▁مشکل	-7885
▁pleas	-7886
hes	-7887
راض	-7888
aakt	-7889
▁mob	-7890
▁communication	-7891
▁علم	-7892
▁diferentes	-7893
▁corpor	-7894
▁zrozum	-7895
▁intelligent	-7896
▁decades	-7897
▁teen	-7898
▁verr	-7899
▁energía	-7900
abet	-7901
ativa	-7902
▁جدید	-7903
▁ممکن	-7904
▁הראשו	-7905
▁którym	-7906
▁energia	-7907
▁impress	-7908
anze	-7909
▁koń	-7910
▁recon	-7911
▁rough	-7912
aced	-7913
rare	-7914
▁שוב	-7915
▁لأنه	-7916
iliśmy	-7917
▁frame	-7918
▁secondo	-7919
רוב	-7920
icial	-7921
itori	-7922
▁nú	-7923
▁صد	-7924
▁loss	-7925
▁امرو	-7926
▁konnte	-7927
▁problemi	-7928
▁pis	-7929
▁vic	-7930
▁golf	-7931
▁harvard	-7932
▁published	-7933
▁complexity	-7934
▁popul	-7935
▁وإ	-7936
▁وح	-7937
▁incent	-7938
▁satell	-7939
צל	-7940
gang	-7941
osto	-7942
▁inj	-7943
▁vole	-7944
וכלו	-7945
▁אוה	-7946
▁meter	-7947
▁subst	-7948
▁الشخص	-7949
▁explore	-7950
isti	-7951
▁spin	-7952
▁ontde	-7953
▁hic	-7954
▁sick	-7955
▁piano	-7956
▁sociale	-7957
▁zb	-7958
▁fro	-7959
▁nutr	-7960
▁wikip	-7961
▁زمانی	-7962
▁האנשים	-7963
▁devices	-7964
osta	-7965
▁يقول	-7966
▁capacity	-7967
קש	-7968
طح	-7969
▁nik	-7970
▁چطور	-7971
▁tierra	-7972
▁yellow	-7973
▁theater	-7974
abei	-7975
▁synth	-7976
▁בדיוק	-7977
▁thomas	-7978
▁ين	-7979
▁ens	-7980
esehen	-7981
▁bought	-7982
▁focused	-7983
pap	-7984
▁למע	-7985
essed	-7986
▁bron	-7987
كنولوج	-7988
▁crear	-7989
▁supply	-7990
kw	-7991
▁leid	-7992
▁برنا	-7993
▁تقوم	-7994
▁beter	-7995
▁maakt	-7996
▁comenz	-7997
▁gleich	-7998
▁molecules	-7999
onom	-8000
pped	-8001
▁hid	-8002
▁pien	-8003
▁metaph	-8004
▁specie	-8005
سية	-8006
عمل	-8007
▁bell	-8008
▁التج	-8009
▁چگونه	-8010
▁expert	-8011
▁infrastructure	-8012
mas	-8013
▁شهر	-8014
▁datos	-8015
▁החיים	-8016
▁działa	-8017
outh	-8018
▁dying	-8019
rebbero	-8020
▁produced	-8021
ców	-8022
رای	-8023
aker	-8024
اق	-8025
وض	-8026
arz	-8027
cop	-8028
▁ني	-8029
berg	-8030
itos	-8031
▁ganze	-8032
▁nasze	-8033
▁bringing	-8034
ماء	-8035
▁أب	-8036
▁river	-8037
itation	-8038
▁dzięku	-8039
▁ersten	-8040
▁platform	-8041
▁slightly	-8042
halt	-8043
▁يعني	-8044
▁intens	-8045
▁equival	-8046
▁pressure	-8047
مكان	-8048
▁במה	-8049
▁stup	-8050
▁angel	-8051
▁degre	-8052
jos	-8053
▁steve	-8054
▁بك	-8055
▁لإ	-8056
فاوت	-8057
▁gard	-8058
▁طريق	-8059
▁reform	-8060
▁daughter	-8061
יתם	-8062
نين	-8063
▁horr	-8064
▁airpl	-8065
▁digit	-8066
▁puedo	-8067
▁tumor	-8068
▁patent	-8069
סק	-8070
▁منط	-8071
▁مثال	-8072
▁verso	-8073
▁vertellen	-8074
ceed	-8075
▁حدود	-8076
▁programs	-8077
▁bos	-8078
▁sagt	-8079
▁בשבי	-8080
▁میلی	-8081
lusion	-8082
▁sexual	-8083
arios	-8084
▁cresc	-8085
▁dabei	-8086
▁nehmen	-8087
▁شه	-8088
▁nim	-8089
▁palab	-8090
▁trouble	-8091
off	-8092
رية	-8093
▁iron	-8094
▁rout	-8095
▁probe	-8096
ulpt	-8097
zeug	-8098
▁anf	-8099
▁cro	-8100
▁hacen	-8101
▁fellow	-8102
باط	-8103
esen	-8104
zeit	-8105
▁600	-8106
▁kore	-8107
▁degrees	-8108
▁nations	-8109
▁neighborhood	-8110
omp	-8111
ysł	-8112
▁پا	-8113
fico	-8114
lude	-8115
▁lun	-8116
▁conv	-8117
▁swim	-8118
▁również	-8119
▁vrouwen	-8120
▁gru	-8121
▁nig	-8122
ession	-8123
▁donne	-8124
▁przyj	-8125
▁cambio	-8126
▁خوش	-8127
▁کشور	-8128
▁zmian	-8129
▁significant	-8130
isf	-8131
oto	-8132
▁شئ	-8133
▁lei	-8134
▁quar	-8135
▁große	-8136
▁depression	-8137
ktur	-8138
▁dai	-8139
apped	-8140
▁ליצור	-8141
دی	-8142
term	-8143
▁קצת	-8144
▁musl	-8145
ionale	-8146
▁occur	-8147
▁ecosystem	-8148
يدا	-8149
nung	-8150
wijl	-8151
▁מבי	-8152
iglia	-8153
▁therap	-8154
▁لك	-8155
istas	-8156
▁التح	-8157
▁quasi	-8158
▁letzten	-8159
kun	-8160
كذا	-8161
vant	-8162
▁fle	-8163
▁اب	-8164
▁etwa	-8165
▁disse	-8166
▁glück	-8167
▁przysz	-8168
▁problemas	-8169
▁dwa	-8170
▁2007	-8171
▁erst	-8172
▁zegt	-8173
▁istnie	-8174
غة	-8175
▁saf	-8176
▁מוד	-8177
rijven	-8178
▁1,000	-8179
پی	-8180
oko	-8181
▁ern	-8182
house	-8183
cipl	-8184
▁2010	-8185
▁senso	-8186
▁sorpr	-8187
▁dinero	-8188
▁الأرض	-8189
▁dzięki	-8190
inas	-8191
▁bub	-8192
olare	-8193
▁colon	-8194
▁eating	-8195
▁definit	-8196
▁könnten	-8197
▁آب	-8198
▁ומה	-8199
▁جام	-8200
gener	-8201
istry	-8202
▁العام	-8203
▁dollari	-8204
قبل	-8205
▁zon	-8206
▁agre	-8207
ological	-8208
▁terwijl	-8209
טו	-8210
etr	-8211
▁דול	-8212
▁besser	-8213
▁breast	-8214
▁streets	-8215
▁صحي	-8216
▁منظ	-8217
schein	-8218
▁عليها	-8219
▁played	-8220
▁creates	-8221
vés	-8222
▁untersch	-8223
nt	-8224
▁להפ	-8225
▁מיי	-8226
▁coin	-8227
ager	-8228
hrung	-8229
illion	-8230
▁legal	-8231
▁milion	-8232
▁hearing	-8233
▁fash	-8234
▁puzz	-8235
▁prize	-8236
▁surve	-8237
▁خواهم	-8238
▁corner	-8239
ographic	-8240
hä	-8241
▁alred	-8242
▁novel	-8243
▁extreme	-8244
asso	-8245
▁tys	-8246
▁יום	-8247
▁shop	-8248
▁balance	-8249
▁helping	-8250
▁differences	-8251
owo	-8252
stru	-8253
umin	-8254
▁jul	-8255
▁كبير	-8256
▁mujeres	-8257
ünd	-8258
ماغ	-8259
▁lack	-8260
▁ideal	-8261
▁הצי	-8262
▁interview	-8263
uld	-8264
▁avevo	-8265
▁closer	-8266
▁markets	-8267
▁scientist	-8268
▁harm	-8269
▁الأخ	-8270
▁22	-8271
▁chied	-8272
▁surge	-8273
▁także	-8274
▁חושבים	-8275
▁implic	-8276
▁ún	-8277
▁کنه	-8278
▁laptop	-8279
رح	-8280
bing	-8281
▁bep	-8282
▁وما	-8283
▁באות	-8284
▁الحي	-8285
▁finger	-8286
▁physic	-8287
god	-8288
plom	-8289
▁فوق	-8290
▁custom	-8291
▁gather	-8292
▁classroom	-8293
▁francisco	-8294
▁joy	-8295
▁غیر	-8296
▁daten	-8297
▁enferm	-8298
mee	-8299
▁hack	-8300
▁włas	-8301
▁catch	-8302
▁coffee	-8303
viamente	-8304
قاء	-8305
ולוג	-8306
▁cha	-8307
▁شاید	-8308
▁farlo	-8309
▁photos	-8310
▁מוצ	-8311
▁نفر	-8312
▁كبيرة	-8313
▁sollte	-8314
okr	-8315
▁dól	-8316
▁מקום	-8317
▁goede	-8318
▁disord	-8319
▁highly	-8320
▁minister	-8321
▁التص	-8322
▁اینه	-8323
puesto	-8324
▁kilka	-8325
▁vista	-8326
▁miljoen	-8327
▁23	-8328
ícil	-8329
▁tutta	-8330
▁alrededor	-8331
ech	-8332
زان	-8333
▁يم	-8334
iest	-8335
▁difícil	-8336
▁intellect	-8337
یشه	-8338
▁amp	-8339
▁ניתן	-8340
licher	-8341
▁هؤلاء	-8342
▁ancest	-8343
▁answers	-8344
▁atmosphere	-8345
idi	-8346
▁eks	-8347
gency	-8348
▁arts	-8349
▁facendo	-8350
▁accident	-8351
ają	-8352
izo	-8353
▁gun	-8354
▁bush	-8355
▁أريد	-8356
▁bridge	-8357
▁km	-8358
iere	-8359
▁nego	-8360
▁הזאת	-8361
▁alcune	-8362
▁المتحدة	-8363
▁naturale	-8364
▁vas	-8365
▁aantal	-8366
eme	-8367
▁رؤ	-8368
▁حرف	-8369
izzare	-8370
▁occup	-8371
rew	-8372
ורך	-8373
▁נה	-8374
ację	-8375
▁szy	-8376
▁zast	-8377
▁wilde	-8378
▁foreign	-8379
واع	-8380
▁host	-8381
▁osob	-8382
▁seemed	-8383
cles	-8384
ivos	-8385
uten	-8386
ening	-8387
▁lich	-8388
▁lung	-8389
▁احساس	-8390
▁اطلا	-8391
وء	-8392
פיק	-8393
teil	-8394
atter	-8395
under	-8396
▁seas	-8397
▁يوجد	-8398
▁frauen	-8399
أة	-8400
otic	-8401
ścią	-8402
▁مختلفة	-8403
▁nigeria	-8404
▁שבה	-8405
▁broken	-8406
anken	-8407
▁hart	-8408
▁hoop	-8409
▁kijk	-8410
▁دیگری	-8411
got	-8412
یند	-8413
▁atom	-8414
▁کوچک	-8415
▁ung	-8416
▁glam	-8417
▁encontrar	-8418
تان	-8419
▁ding	-8420
▁betek	-8421
▁ignor	-8422
▁acceler	-8423
▁dziękuję	-8424
uis	-8425
▁dum	-8426
▁مید	-8427
▁paid	-8428
▁הזמן	-8429
▁minder	-8430
▁puedes	-8431
▁stanie	-8432
▁switch	-8433
▁choices	-8434
هاية	-8435
▁nauk	-8436
▁vacc	-8437
▁tissue	-8438
▁valley	-8439
▁surround	-8440
גות	-8441
ليس	-8442
▁kör	-8443
▁nav	-8444
atives	-8445
lung	-8446
▁err	-8447
▁były	-8448
▁wide	-8449
▁quien	-8450
▁schre	-8451
▁adesso	-8452
▁fashion	-8453
یستم	-8454
▁admin	-8455
▁feels	-8456
▁welche	-8457
▁minuten	-8458
▁الأطفال	-8459
▁magazine	-8460
▁ziemlich	-8461
יר	-8462
▁repu	-8463
▁easily	-8464
ences	-8465
يارات	-8466
▁fragen	-8467
تی	-8468
جر	-8469
fte	-8470
▁jer	-8471
▁sigu	-8472
▁شيئا	-8473
▁aprend	-8474
▁notion	-8475
▁robert	-8476
▁studying	-8477
▁successo	-8478
▁רבה	-8479
liamo	-8480
▁dens	-8481
▁arbeiten	-8482
zyw	-8483
▁calls	-8484
▁schnell	-8485
ires	-8486
▁fer	-8487
▁beat	-8488
▁braz	-8489
▁erzä	-8490
igheid	-8491
▁aliment	-8492
▁wikipedia	-8493
kol	-8494
سات	-8495
▁בד	-8496
▁avuto	-8497
قوم	-8498
tube	-8499
atego	-8500
świad	-8501
▁escrib	-8502
▁status	-8503
▁symmet	-8504
▁window	-8505
▁sollten	-8506
▁commercial	-8507
acje	-8508
▁אשר	-8509
▁صورت	-8510
▁تعلمون	-8511
▁organizations	-8512
פו	-8513
aty	-8514
iby	-8515
▁accur	-8516
▁campo	-8517
▁powod	-8518
▁radical	-8519
▁communicate	-8520
لاب	-8521
▁دي	-8522
▁دقی	-8523
▁rozm	-8524
▁laborator	-8525
gust	-8526
▁فرا	-8527
▁lado	-8528
▁regular	-8529
▁religious	-8530
▁موقع	-8531
▁mouse	-8532
▁moments	-8533
kten	-8534
▁padre	-8535
▁nearly	-8536
▁nä	-8537
fähr	-8538
komen	-8539
▁بالم	-8540
▁categ	-8541
▁każdy	-8542
▁efficient	-8543
▁يبدو	-8544
▁misma	-8545
▁كانوا	-8546
▁ciudad	-8547
▁shares	-8548
▁pregunta	-8549
▁organisms	-8550
nię	-8551
▁حق	-8552
▁منها	-8553
▁photo	-8554
▁imagination	-8555
gry	-8556
ציה	-8557
ודות	-8558
▁cla	-8559
▁tent	-8560
▁לגבי	-8561
▁domanda	-8562
▁bef	-8563
aining	-8564
اح	-8565
xim	-8566
ظام	-8567
▁sì	-8568
based	-8569
▁będą	-8570
▁prep	-8571
▁meisten	-8572
▁institute	-8573
ząc	-8574
ذار	-8575
▁سم	-8576
▁frustr	-8577
▁background	-8578
▁definition	-8579
▁dial	-8580
▁aller	-8581
ivamente	-8582
▁members	-8583
glio	-8584
▁fully	-8585
▁dlatego	-8586
▁noticed	-8587
vor	-8588
▁sapp	-8589
▁scen	-8590
▁spaces	-8591
▁tremendous	-8592
شرة	-8593
▁اع	-8594
▁jump	-8595
▁سی	-8596
eros	-8597
▁youtube	-8598
يدي	-8599
▁colum	-8600
▁musimy	-8601
▁través	-8602
▁atl	-8603
▁auß	-8604
▁zaj	-8605
▁reve	-8606
▁بوده	-8607
▁nemen	-8608
▁bekommen	-8609
شم	-8610
נוי	-8611
▁درا	-8612
abile	-8613
▁kenn	-8614
▁sarà	-8615
▁خارج	-8616
▁zodat	-8617
▁בצורה	-8618
▁dispos	-8619
▁risult	-8620
▁wollte	-8621
▁british	-8622
▁familie	-8623
▁dé	-8624
aniem	-8625
ortun	-8626
ierten	-8627
▁شو	-8628
acie	-8629
▁vag	-8630
▁pron	-8631
▁giant	-8632
▁sprechen	-8633
atch	-8634
ivel	-8635
onym	-8636
▁dije	-8637
▁dood	-8638
▁plast	-8639
▁beetje	-8640
▁gotten	-8641
cel	-8642
▁hyp	-8643
▁agree	-8644
▁przem	-8645
▁lights	-8646
▁knowing	-8647
dimensional	-8648
▁colleagues	-8649
نه	-8650
▁موا	-8651
▁leads	-8652
▁meinen	-8653
▁progetto	-8654
mark	-8655
obra	-8656
▁embr	-8657
▁vuel	-8658
weg	-8659
wide	-8660
רונות	-8661
▁نظام	-8662
▁commit	-8663
▁missing	-8664
انو	-8665
▁همچ	-8666
▁hydro	-8667
▁vragen	-8668
▁planets	-8669
▁stopped	-8670
▁traffic	-8671
فظ	-8672
▁اعت	-8673
▁barr	-8674
▁raum	-8675
▁fuera	-8676
▁telesc	-8677
▁الطبيع	-8678
▁داستان	-8679
צות	-8680
يمكن	-8681
▁fert	-8682
astanza	-8683
▁despite	-8684
▁feedback	-8685
▁abbastanza	-8686
▁ultimately	-8687
print	-8688
▁بازی	-8689
▁shift	-8690
quences	-8691
ומי	-8692
▁haber	-8693
▁sculpt	-8694
▁versus	-8695
▁vriend	-8696
▁display	-8697
▁الطريقة	-8698
▁possibility	-8699
▁دل	-8700
bled	-8701
zien	-8702
ولو	-8703
▁کل	-8704
enzi	-8705
عليم	-8706
lywood	-8707
wiście	-8708
▁veget	-8709
▁meinem	-8710
▁natuurlijk	-8711
▁relationships	-8712
zw	-8713
lip	-8714
▁mann	-8715
▁każde	-8716
▁benefits	-8717
בול	-8718
action	-8719
▁brief	-8720
▁count	-8721
▁nigdy	-8722
▁smell	-8723
▁לחשוב	-8724
▁البشر	-8725
▁invece	-8726
▁brilliant	-8727
▁particles	-8728
دف	-8729
زيد	-8730
west	-8731
▁הייתה	-8732
▁darauf	-8733
iken	-8734
▁2005	-8735
▁alex	-8736
▁כיצד	-8737
▁הראשון	-8738
ذج	-8739
ומים	-8740
▁join	-8741
▁salv	-8742
▁batter	-8743
▁następ	-8744
شار	-8745
onds	-8746
فكير	-8747
amenti	-8748
▁held	-8749
▁prove	-8750
▁leader	-8751
tere	-8752
▁avo	-8753
▁sah	-8754
▁جای	-8755
▁brings	-8756
▁replic	-8757
▁بالفعل	-8758
cip	-8759
▁أنت	-8760
ossen	-8761
▁اولین	-8762
▁universal	-8763
▁rep	-8764
beren	-8765
▁הגי	-8766
▁podob	-8767
▁contem	-8768
char	-8769
▁hog	-8770
▁lek	-8771
▁dedic	-8772
▁expos	-8773
▁laatste	-8774
▁invisible	-8775
▁wszystkich	-8776
▁ساز	-8777
▁kans	-8778
בוה	-8779
▁myślę	-8780
باء	-8781
▁má	-8782
ocol	-8783
וקים	-8784
▁salud	-8785
▁ax	-8786
puter	-8787
▁sang	-8788
kelijk	-8789
▁هستیم	-8790
▁siebie	-8791
▁قب	-8792
ilidad	-8793
▁negative	-8794
▁benut	-8795
▁hyper	-8796
▁prend	-8797
▁turning	-8798
ompl	-8799
▁250	-8800
adora	-8801
▁בעצם	-8802
▁structures	-8803
▁responsibility	-8804
orgen	-8805
▁قادر	-8806
▁serve	-8807
▁cierto	-8808
▁illustr	-8809
ريب	-8810
▁27	-8811
▁trzy	-8812
▁hotel	-8813
▁estudi	-8814
▁gemaakt	-8815
▁mayoría	-8816
▁ambiente	-8817
mod	-8818
schijn	-8819
▁discovery	-8820
ius	-8821
▁mik	-8822
▁afra	-8823
▁diagn	-8824
▁comunic	-8825
▁pó	-8826
انون	-8827
▁numero	-8828
▁convert	-8829
▁diversity	-8830
▁differently	-8831
oft	-8832
▁deg	-8833
▁uso	-8834
▁objet	-8835
▁mé	-8836
▁cuer	-8837
▁בתוך	-8838
▁bread	-8839
▁polít	-8840
erencia	-8841
▁descubr	-8842
▁śm	-8843
▁مما	-8844
▁toch	-8845
▁schle	-8846
▁spazio	-8847
▁recover	-8848
▁informatie	-8849
bym	-8850
▁aiut	-8851
▁brown	-8852
▁סיפור	-8853
ienen	-8854
▁מפני	-8855
▁forever	-8856
טח	-8857
annt	-8858
▁alz	-8859
▁המת	-8860
▁dale	-8861
▁grab	-8862
▁zdję	-8863
▁כפי	-8864
▁świata	-8865
▁possibile	-8866
קרה	-8867
لیل	-8868
▁gras	-8869
▁moeil	-8870
bling	-8871
▁בערך	-8872
▁الجم	-8873
▁بسبب	-8874
,5	-8875
▁hä	-8876
meno	-8877
ulas	-8878
▁irr	-8879
▁اسم	-8880
▁أكبر	-8881
▁gebeurt	-8882
▁kleinen	-8883
▁addition	-8884
ierz	-8885
▁gay	-8886
▁حقی	-8887
▁باشه	-8888
▁قابل	-8889
▁analys	-8890
▁meglio	-8891
▁chor	-8892
▁tough	-8893
▁dólares	-8894
▁farmers	-8895
▁strength	-8896
uję	-8897
▁ip	-8898
omst	-8899
▁עומ	-8900
▁pozw	-8901
▁warm	-8902
▁האלו	-8903
jących	-8904
▁sotto	-8905
▁charge	-8906
ובה	-8907
onos	-8908
▁erre	-8909
▁niets	-8910
▁volgende	-8911
ضية	-8912
▁מכו	-8913
▁coraz	-8914
▁diseñ	-8915
▁afraid	-8916
chs	-8917
▁mój	-8918
akter	-8919
▁sper	-8920
apping	-8921
▁analog	-8922
▁creatures	-8923
פט	-8924
ادي	-8925
▁2.	-8926
▁atr	-8927
▁hell	-8928
▁pomy	-8929
▁trip	-8930
▁بدأت	-8931
▁lasci	-8932
▁attempt	-8933
imenti	-8934
umento	-8935
▁verbind	-8936
▁emoc	-8937
▁uomo	-8938
▁ایده	-8939
▁اطلاعات	-8940
▁artificial	-8941
iën	-8942
مون	-8943
▁مل	-8944
▁oko	-8945
▁1960	-8946
▁autor	-8947
orzyst	-8948
▁contra	-8949
▁supuesto	-8950
asz	-8951
▁تب	-8952
لايا	-8953
▁firm	-8954
▁sost	-8955
▁تعرف	-8956
▁insight	-8957
anes	-8958
ständ	-8959
▁نیاز	-8960
▁double	-8961
▁konden	-8962
▁brother	-8963
לום	-8964
▁אף	-8965
▁ללא	-8966
▁مرت	-8967
▁chann	-8968
▁speech	-8969
▁כת	-8970
volg	-8971
▁len	-8972
▁details	-8973
▁גר	-8974
▁egy	-8975
▁zad	-8976
▁biom	-8977
▁mechanism	-8978
▁کمک	-8979
▁lunch	-8980
▁potem	-8981
▁fairly	-8982
▁niente	-8983
▁begrijpen	-8984
onte	-8985
▁fün	-8986
▁pip	-8987
▁grass	-8988
▁marketing	-8989
▁experiences	-8990
▁opportunities	-8991
ił	-8992
עט	-8993
ędzy	-8994
▁vere	-8995
▁rodza	-8996
▁sopra	-8997
▁יכולה	-8998
▁newspap	-8999
▁bastante	-9000
▁previous	-9001
▁phenomenon	-9002
▁hung	-9003
▁فكرة	-9004
▁appreci	-9005
py	-9006
▁zes	-9007
▁באי	-9008
▁links	-9009
▁mouth	-9010
▁suced	-9011
▁اتفاق	-9012
uge	-9013
utto	-9014
▁flex	-9015
▁posso	-9016
▁werkt	-9017
scheinlich	-9018
▁eigentlich	-9019
▁لان	-9020
point	-9021
مریک	-9022
▁kit	-9023
▁zah	-9024
erden	-9025
kunft	-9026
▁okaz	-9027
▁orch	-9028
▁سیستم	-9029
▁importantly	-9030
▁يا	-9031
▁noise	-9032
▁اینها	-9033
▁leadership	-9034
▁obl	-9035
▁groe	-9036
▁לדבר	-9037
▁bound	-9038
▁imper	-9039
▁conven	-9040
▁توانید	-9041
▁describe	-9042
▁emotions	-9043
▁facciamo	-9044
▁bru	-9045
▁للغ	-9046
▁dare	-9047
▁vrouw	-9048
▁passed	-9049
ąda	-9050
inter	-9051
▁hoch	-9052
▁ning	-9053
▁events	-9054
▁między	-9055
▁landscape	-9056
▁بخش	-9057
kiego	-9058
sehen	-9059
▁inne	-9060
▁enkele	-9061
▁intervent	-9062
▁necessarily	-9063
וריה	-9064
▁paint	-9065
▁diplom	-9066
ובי	-9067
▁fá	-9068
etta	-9069
oston	-9070
▁female	-9071
▁fascinating	-9072
קד	-9073
▁نعم	-9074
▁logr	-9075
▁geluk	-9076
▁canada	-9077
▁elimin	-9078
▁matters	-9079
▁podczas	-9080
▁weniger	-9081
úbl	-9082
▁dim	-9083
▁toek	-9084
▁zitten	-9085
▁شک	-9086
▁gps	-9087
▁پرو	-9088
zlich	-9089
▁pote	-9090
▁جديدة	-9091
▁construct	-9092
▁veranderen	-9093
▁حدث	-9094
▁liqu	-9095
▁פחות	-9096
▁otten	-9097
▁البته	-9098
▁molecu	-9099
▁neuros	-9100
▁protein	-9101
▁influence	-9102
▁mathematics	-9103
mö	-9104
قر	-9105
▁؛	-9106
▁تط	-9107
▁gefü	-9108
▁repe	-9109
▁gebeur	-9110
▁leading	-9111
▁weapons	-9112
فهم	-9113
rupt	-9114
▁מוש	-9115
▁helps	-9116
▁betekent	-9117
נטר	-9118
▁jan	-9119
▁smo	-9120
iedad	-9121
▁simpl	-9122
▁spring	-9123
▁احتمال	-9124
laub	-9125
▁kat	-9126
▁tri	-9127
▁הרו	-9128
▁درصد	-9129
üh	-9130
▁نی	-9131
elly	-9132
▁luz	-9133
▁بما	-9134
▁seit	-9135
▁quatt	-9136
▁lesson	-9137
▁metaphor	-9138
▁civilization	-9139
zymy	-9140
▁pul	-9141
▁decl	-9142
▁ooit	-9143
▁crash	-9144
▁signal	-9145
▁elements	-9146
▁suffering	-9147
זר	-9148
ارس	-9149
aped	-9150
▁tedx	-9151
▁tick	-9152
▁zaczę	-9153
▁ganzen	-9154
خی	-9155
▁أج	-9156
aging	-9157
▁قدرت	-9158
▁justice	-9159
▁المعلومات	-9160
خاب	-9161
▁جزء	-9162
▁مقد	-9163
▁coal	-9164
▁deed	-9165
▁prime	-9166
▁rural	-9167
▁divert	-9168
▁espacio	-9169
▁fighting	-9170
▁az	-9171
▁בסי	-9172
▁faces	-9173
▁paradig	-9174
▁profession	-9175
וץ	-9176
נם	-9177
▁صف	-9178
▁لحظ	-9179
▁کمی	-9180
▁cert	-9181
▁lucky	-9182
▁siano	-9183
▁kilomet	-9184
واب	-9185
▁מסת	-9186
▁قلي	-9187
▁erken	-9188
▁respu	-9189
▁produkt	-9190
كية	-9191
▁hil	-9192
▁wheel	-9193
▁mexico	-9194
▁talent	-9195
▁dow	-9196
▁עשו	-9197
ofd	-9198
▁2009	-9199
▁diam	-9200
▁uważ	-9201
▁humor	-9202
▁french	-9203
▁zawsze	-9204
▁compart	-9205
▁superfic	-9206
ïn	-9207
▁dó	-9208
▁أص	-9209
ريبا	-9210
▁myth	-9211
ctions	-9212
▁usare	-9213
▁increí	-9214
▁prostu	-9215
▁related	-9216
של	-9217
قاط	-9218
unte	-9219
▁somos	-9220
▁empath	-9221
▁100,000	-9222
פל	-9223
rot	-9224
▁bás	-9225
▁شدن	-9226
▁conduct	-9227
▁figured	-9228
▁مب	-9229
iono	-9230
▁opl	-9231
▁mitt	-9232
▁אותנו	-9233
▁sb	-9234
▁obec	-9235
▁click	-9236
▁offer	-9237
▁quali	-9238
▁advant	-9239
▁husband	-9240
▁responsible	-9241
irs	-9242
اريخ	-9243
▁לנ	-9244
geven	-9245
▁lleg	-9246
▁השני	-9247
▁sache	-9248
▁billions	-9249
غل	-9250
حية	-9251
wiek	-9252
سائل	-9253
▁lief	-9254
ثال	-9255
▁ozn	-9256
▁pró	-9257
▁engage	-9258
▁unge	-9259
▁efect	-9260
▁videos	-9261
▁cambiar	-9262
▁consegu	-9263
▁counter	-9264
▁quattro	-9265
▁egg	-9266
▁lok	-9267
▁dobrze	-9268
▁termin	-9269
▁cél	-9270
▁luce	-9271
▁المص	-9272
▁nivel	-9273
▁pasado	-9274
▁آم	-9275
ztał	-9276
▁bil	-9277
▁scar	-9278
▁המוח	-9279
idents	-9280
▁iphone	-9281
▁otherwise	-9282
۰۰	-9283
ests	-9284
▁heiß	-9285
▁الأن	-9286
▁kolej	-9287
▁alguna	-9288
▁houden	-9289
▁matemat	-9290
▁sabemos	-9291
▁trovare	-9292
▁separate	-9293
ظهر	-9294
▁eing	-9295
▁semplic	-9296
▁according	-9297
▁competition	-9298
قائ	-9299
arde	-9300
▁najb	-9301
▁astero	-9302
▁boston	-9303
▁wisdom	-9304
▁toekomst	-9305
וות	-9306
▁طو	-9307
cking	-9308
▁prób	-9309
▁polio	-9310
▁fields	-9311
ification	-9312
▁inm	-9313
▁dese	-9314
▁يعمل	-9315
▁exhib	-9316
▁dinosaur	-9317
▁problemen	-9318
ned	-9319
▁pł	-9320
amię	-9321
▁دوب	-9322
asion	-9323
▁chimp	-9324
▁کاملا	-9325
cześnie	-9326
▁profes	-9327
▁توانیم	-9328
▁bringen	-9329
omos	-9330
uras	-9331
erung	-9332
▁vind	-9333
▁osserv	-9334
▁להשתמש	-9335
▁استخدام	-9336
▁childhood	-9337
emic	-9338
▁החי	-9339
▁usando	-9340
▁convent	-9341
ورا	-9342
▁ts	-9343
▁תק	-9344
ujące	-9345
▁eleg	-9346
▁schr	-9347
▁tail	-9348
▁proced	-9349
▁العديد	-9350
▁leaving	-9351
▁station	-9352
▁يأ	-9353
apse	-9354
▁dry	-9355
▁faith	-9356
▁posto	-9357
▁diseño	-9358
▁sosten	-9359
gł	-9360
▁۲	-9361
ציא	-9362
▁فل	-9363
▁produc	-9364
▁economics	-9365
עם	-9366
▁כעת	-9367
▁perce	-9368
▁simul	-9369
▁מישהו	-9370
▁interessant	-9371
zes	-9372
▁kraj	-9373
ändern	-9374
▁במקום	-9375
▁الآخر	-9376
▁países	-9377
▁profit	-9378
▁tę	-9379
▁ונ	-9380
▁wyobra	-9381
ennen	-9382
▁2004	-9383
▁grot	-9384
anas	-9385
ifying	-9386
▁walls	-9387
▁church	-9388
▁curios	-9389
▁grandm	-9390
▁większo	-9391
▁bedeutet	-9392
غم	-9393
ulous	-9394
usion	-9395
▁بگیر	-9396
▁هستم	-9397
▁minim	-9398
▁تستطيع	-9399
▁hopefully	-9400
▁32	-9401
▁chip	-9402
▁voed	-9403
▁מסוג	-9404
▁pakistan	-9405
▁simplemente	-9406
▁professional	-9407
odo	-9408
onal	-9409
▁emb	-9410
▁wed	-9411
▁abstr	-9412
▁pomoc	-9413
▁حقیقت	-9414
▁aument	-9415
▁großen	-9416
▁ricerca	-9417
gres	-9418
▁póź	-9419
▁תמיד	-9420
ography	-9421
▁debate	-9422
▁زن	-9423
▁purs	-9424
▁públ	-9425
▁którą	-9426
▁طريقة	-9427
▁parece	-9428
▁destroy	-9429
▁typical	-9430
▁identity	-9431
▁engineers	-9432
▁קור	-9433
▁pracy	-9434
▁destru	-9435
▁benefit	-9436
▁shouldn	-9437
schijnlijk	-9438
ray	-9439
ibo	-9440
ową	-9441
▁מל	-9442
▁تک	-9443
entie	-9444
▁bees	-9445
▁valu	-9446
▁difer	-9447
▁około	-9448
ابه	-9449
▁hate	-9450
▁soph	-9451
▁adults	-9452
▁ray	-9453
▁كار	-9454
▁نقوم	-9455
▁dalle	-9456
كنولوجيا	-9457
äter	-9458
▁kal	-9459
▁isol	-9460
▁konf	-9461
▁البع	-9462
▁causa	-9463
▁niekt	-9464
▁باشید	-9465
▁holding	-9466
▁sequence	-9467
▁sorprend	-9468
▁difficile	-9469
▁investment	-9470
ader	-9471
amen	-9472
▁pus	-9473
▁eran	-9474
▁człow	-9475
▁diferente	-9476
▁necessary	-9477
aged	-9478
▁מדה	-9479
czenie	-9480
▁להבין	-9481
▁tempor	-9482
▁buch	-9483
▁chcę	-9484
▁dónde	-9485
ژه	-9486
ختر	-9487
▁hill	-9488
▁begins	-9489
▁36	-9490
olds	-9491
ibles	-9492
▁جایی	-9493
▁czasu	-9494
▁genoeg	-9495
▁statistics	-9496
ám	-9497
מם	-9498
▁edge	-9499
▁הולך	-9500
▁zdrow	-9501
-2	-9502
chę	-9503
śla	-9504
▁לט	-9505
ettr	-9506
▁zar	-9507
ività	-9508
▁corpo	-9509
▁sappiamo	-9510
xic	-9511
zing	-9512
▁ihm	-9513
▁קשה	-9514
▁boom	-9515
▁grav	-9516
▁trud	-9517
▁دهند	-9518
▁gentlem	-9519
▁everyday	-9520
קיי	-9521
▁bow	-9522
▁1990	-9523
▁bits	-9524
▁verz	-9525
▁wand	-9526
▁emiss	-9527
▁easier	-9528
ye	-9529
onie	-9530
wijs	-9531
▁علا	-9532
▁وجد	-9533
▁دیگه	-9534
▁وهذه	-9535
▁jedes	-9536
▁الاست	-9537
▁raised	-9538
▁autonom	-9539
▁monitor	-9540
▁wahrscheinlich	-9541
atti	-9542
▁beach	-9543
▁musical	-9544
▁interface	-9545
طق	-9546
door	-9547
▁כזה	-9548
others	-9549
▁quelli	-9550
▁glauben	-9551
▁administr	-9552
▁dh	-9553
רגיה	-9554
▁fünf	-9555
▁creation	-9556
ąć	-9557
▁date	-9558
▁lever	-9559
▁quote	-9560
▁nessuno	-9561
▁privile	-9562
▁opposite	-9563
חס	-9564
▁قر	-9565
جتما	-9566
ciones	-9567
▁dacht	-9568
▁honor	-9569
▁trata	-9570
▁failure	-9571
▁ژ	-9572
izes	-9573
▁row	-9574
▁sull	-9575
▁הדרך	-9576
▁سيكون	-9577
▁körper	-9578
▁thinks	-9579
▁australia	-9580
▁agriculture	-9581
voel	-9582
▁ואם	-9583
▁gewe	-9584
▁nowe	-9585
▁falls	-9586
▁zasad	-9587
connect	-9588
▁colors	-9589
▁hombre	-9590
▁llegar	-9591
▁require	-9592
▁unseren	-9593
äft	-9594
▁aer	-9595
▁szyb	-9596
▁prest	-9597
▁tomar	-9598
▁varia	-9599
▁gesund	-9600
wir	-9601
هات	-9602
craft	-9603
▁elev	-9604
▁لديهم	-9605
▁master	-9606
▁chicago	-9607
▁england	-9608
▁volunte	-9609
ثة	-9610
acz	-9611
prof	-9612
ولايات	-9613
▁deeply	-9614
▁freund	-9615
▁lernen	-9616
▁società	-9617
bur	-9618
ckt	-9619
ومة	-9620
llen	-9621
▁سطح	-9622
▁نحو	-9623
▁inge	-9624
▁cultura	-9625
▁gesehen	-9626
▁molecule	-9627
▁bon	-9628
▁פני	-9629
▁میت	-9630
▁exch	-9631
▁vlie	-9632
▁ingred	-9633
▁której	-9634
▁tratta	-9635
edy	-9636
ذكر	-9637
ینه	-9638
awia	-9639
▁migr	-9640
▁pengu	-9641
▁hoeveel	-9642
osi	-9643
wad	-9644
▁recy	-9645
▁vijf	-9646
▁بصورة	-9647
▁dachte	-9648
▁ontwer	-9649
▁اندازه	-9650
▁entirely	-9651
פס	-9652
ema	-9653
لات	-9654
▁ihrem	-9655
▁cuatro	-9656
▁manten	-9657
ened	-9658
▁dys	-9659
לם	-9660
عى	-9661
یب	-9662
اله	-9663
▁شن	-9664
▁gap	-9665
▁האר	-9666
▁غذا	-9667
eared	-9668
▁במשך	-9669
▁normally	-9670
ניי	-9671
شاف	-9672
enty	-9673
▁wod	-9674
▁آنچه	-9675
▁moves	-9676
▁weird	-9677
▁slechts	-9678
ulp	-9679
▁اشت	-9680
▁طرف	-9681
▁plus	-9682
▁זוהי	-9683
▁egypt	-9684
▁ongel	-9685
▁factor	-9686
עו	-9687
cke	-9688
روه	-9689
یکی	-9690
▁2,000	-9691
▁conten	-9692
▁gruppo	-9693
▁landen	-9694
▁onderzoek	-9695
▁szt	-9696
▁أجل	-9697
▁horm	-9698
▁kick	-9699
▁huis	-9700
▁analy	-9701
▁מערכת	-9702
ñas	-9703
ומה	-9704
▁פת	-9705
arla	-9706
schl	-9707
▁ense	-9708
▁stuck	-9709
▁combin	-9710
▁انا	-9711
▁evil	-9712
▁تواند	-9713
▁capable	-9714
קס	-9715
▁اد	-9716
▁unf	-9717
وانات	-9718
▁chir	-9719
▁groep	-9720
▁continent	-9721
aggi	-9722
ding	-9723
pekt	-9724
▁afry	-9725
atures	-9726
▁boven	-9727
▁نستطيع	-9728
ov	-9729
ients	-9730
▁באמצ	-9731
▁uncle	-9732
▁slowly	-9733
▁vostro	-9734
zna	-9735
elet	-9736
▁gift	-9737
▁jong	-9738
▁هنوز	-9739
▁bright	-9740
▁piccolo	-9741
▁جان	-9742
aften	-9743
▁días	-9744
czeńst	-9745
▁antib	-9746
▁gedaan	-9747
▁engineer	-9748
▁wykorzyst	-9749
andon	-9750
▁agli	-9751
▁القد	-9752
▁pounds	-9753
▁diversi	-9754
▁brauchen	-9755
▁moeilijk	-9756
▁perfectly	-9757
تنا	-9758
▁fabric	-9759
▁planning	-9760
▁seriously	-9761
▁הבע	-9762
▁فرد	-9763
▁chap	-9764
▁نبود	-9765
▁cient	-9766
▁trained	-9767
▁astronom	-9768
▁principles	-9769
داشت	-9770
▁شکل	-9771
▁reag	-9772
▁harder	-9773
▁languages	-9774
lle	-9775
▁לר	-9776
icio	-9777
سانی	-9778
▁לדע	-9779
▁effetti	-9780
▁organic	-9781
▁disappear	-9782
فض	-9783
itet	-9784
▁מהם	-9785
▁dużo	-9786
▁دهیم	-9787
▁الشيء	-9788
▁semplice	-9789
נטי	-9790
bamos	-9791
łości	-9792
▁vibr	-9793
▁raggi	-9794
▁illness	-9795
▁proberen	-9796
▁عظ	-9797
▁בלי	-9798
ometer	-9799
▁باشند	-9800
▁worldwide	-9801
agli	-9802
czne	-9803
ליים	-9804
▁paese	-9805
▁ילדים	-9806
▁meters	-9807
▁compared	-9808
נן	-9809
▁rigu	-9810
▁قمنا	-9811
▁weise	-9812
▁degree	-9813
▁natura	-9814
▁experts	-9815
ppo	-9816
iker	-9817
▁ott	-9818
▁בהם	-9819
▁crack	-9820
▁dunque	-9821
▁entsche	-9822
▁distance	-9823
ینده	-9824
جع	-9825
▁toil	-9826
▁wear	-9827
▁wier	-9828
▁ونحن	-9829
▁medium	-9830
▁warming	-9831
تا	-9832
▁بالط	-9833
▁seite	-9834
▁caught	-9835
▁inevit	-9836
▁cuán	-9837
▁compare	-9838
▁versuchen	-9839
▁נע	-9840
▁נק	-9841
ריות	-9842
ركات	-9843
▁erv	-9844
▁للح	-9845
▁فعلا	-9846
▁razem	-9847
▁elettr	-9848
▁reward	-9849
▁believed	-9850
ragen	-9851
▁meat	-9852
▁perf	-9853
▁sería	-9854
▁właści	-9855
▁antwort	-9856
▁corruption	-9857
anos	-9858
▁sov	-9859
▁אור	-9860
gehen	-9861
▁empow	-9862
▁mosqu	-9863
▁proud	-9864
▁razón	-9865
▁stone	-9866
▁cientí	-9867
▁kracht	-9868
▁٬	-9869
▁eb	-9870
inder	-9871
▁خاطر	-9872
▁ندار	-9873
▁paesi	-9874
▁steps	-9875
▁finished	-9876
גה	-9877
קת	-9878
▁بو	-9879
▁tall	-9880
▁danke	-9881
▁حوالي	-9882
▁دولار	-9883
▁toward	-9884
▁tweede	-9885
uel	-9886
▁cad	-9887
▁nein	-9888
▁estim	-9889
▁kenya	-9890
▁مانند	-9891
ologist	-9892
▁hidden	-9893
▁materia	-9894
▁waarschijnlijk	-9895
▁مدرس	-9896
▁کتاب	-9897
▁scuola	-9898
▁dezelfde	-9899
▁multiple	-9900
occ	-9901
ואו	-9902
ونا	-9903
▁mús	-9904
▁כשא	-9905
▁آنجا	-9906
▁السل	-9907
▁aarde	-9908
▁desire	-9909
▁dreams	-9910
▁proyecto	-9911
▁ort	-9912
▁إذن	-9913
▁argu	-9914
▁zone	-9915
▁afric	-9916
▁alter	-9917
▁round	-9918
▁studied	-9919
▁zukunft	-9920
arr	-9921
▁flat	-9922
▁lift	-9923
▁pure	-9924
▁الجن	-9925
▁fourth	-9926
▁opened	-9927
▁ruimte	-9928
▁discipl	-9929
▁globale	-9930
▁independent	-9931
شه	-9932
jar	-9933
▁26	-9934
arci	-9935
owym	-9936
פרים	-9937
▁neu	-9938
▁بسي	-9939
▁لهم	-9940
▁lect	-9941
▁sept	-9942
▁heads	-9943
▁ordinary	-9944
▁whenever	-9945
▁cognitive	-9946
كار	-9947
▁رق	-9948
oking	-9949
▁compos	-9950
▁آزمایش	-9951
▁necesitamos	-9952
▁ית	-9953
wiet	-9954
▁shr	-9955
emaal	-9956
▁peak	-9957
▁crime	-9958
▁primero	-9959
lak	-9960
ards	-9961
▁אומ	-9962
▁ויש	-9963
▁hizo	-9964
▁בסדר	-9965
▁solid	-9966
▁factory	-9967
▁insects	-9968
▁livello	-9969
▁consumption	-9970
▁q	-9971
unto	-9972
▁ker	-9973
▁أما	-9974
▁حصل	-9975
avamo	-9976
▁dich	-9977
▁وهنا	-9978
▁دارید	-9979
▁article	-9980
▁pojaw	-9981
▁surprise	-9982
גד	-9983
▁jim	-9984
uerdo	-9985
▁alta	-9986
▁roof	-9987
▁سلول	-9988
esterd	-9989
▁exerc	-9990
▁gobier	-9991
▁vengono	-9992
גש	-9993
iot	-9994
load	-9995
pair	-9996
▁öff	-9997
orrow	-9998
▁scoper	-9999
▁sister	-10000
▁survival	-10001
▁tomorrow	-10002
▁principle	-10003
igr	-10004
واس	-10005
▁65	-10006
▁ور	-10007
bere	-10008
ترین	-10009
▁dato	-10010
▁ziel	-10011
▁metal	-10012
▁zeigt	-10013
▁diagnos	-10014
▁highest	-10015
gru	-10016
▁edu	-10017
▁ore	-10018
▁منه	-10019
▁staan	-10020
▁zaczy	-10021
▁brazil	-10022
▁interesante	-10023
בית	-10024
▁جعل	-10025
▁כולם	-10026
▁مليون	-10027
▁للغاية	-10028
▁managed	-10029
▁przypad	-10030
▁العل	-10031
▁والأ	-10032
chodzi	-10033
onders	-10034
▁giusto	-10035
▁الطاقة	-10036
esterday	-10037
▁prendere	-10038
▁yesterday	-10039
▁ring	-10040
▁דולר	-10041
▁damage	-10042
▁مجموعة	-10043
▁followed	-10044
▁galaxies	-10045
▁constantly	-10046
ופה	-10047
یجه	-10048
cket	-10049
iges	-10050
▁argue	-10051
▁geeft	-10052
▁restaurant	-10053
ופי	-10054
talk	-10055
▁למצ	-10056
inander	-10057
▁bepaal	-10058
▁estaban	-10059
zęd	-10060
▁sob	-10061
▁חדש	-10062
▁פרו	-10063
atica	-10064
▁flor	-10065
▁לאחר	-10066
▁horiz	-10067
▁resto	-10068
▁verder	-10069
▁winter	-10070
▁weather	-10071
▁alternative	-10072
och	-10073
▁menge	-10074
▁sentido	-10075
ałam	-10076
ierd	-10077
▁fan	-10078
▁bran	-10079
▁cast	-10080
▁بهذا	-10081
▁circle	-10082
▁appropr	-10083
▁planeta	-10084
▁probabilmente	-10085
can	-10086
פון	-10087
תיד	-10088
▁כה	-10089
rijf	-10090
▁میگ	-10091
▁نسب	-10092
▁hoofd	-10093
▁hinter	-10094
▁orient	-10095
▁european	-10096
▁ontwikkel	-10097
▁universum	-10098
ijkt	-10099
▁במו	-10100
▁rend	-10101
▁interf	-10102
▁motion	-10103
izzazione	-10104
▁unterschied	-10105
dzy	-10106
igli	-10107
בלים	-10108
▁hur	-10109
▁leer	-10110
▁cuerpo	-10111
▁unless	-10112
▁contract	-10113
חור	-10114
frica	-10115
▁szczę	-10116
▁כמובן	-10117
▁gingen	-10118
▁nauczy	-10119
▁enfermed	-10120
هتما	-10121
▁בלתי	-10122
czenia	-10123
▁الهند	-10124
iciente	-10125
▁pequeño	-10126
añ	-10127
▁حي	-10128
▁szko	-10129
▁cycle	-10130
▁miglio	-10131
▁ارتباط	-10132
▁trasform	-10133
▁bla	-10134
▁pół	-10135
▁הלא	-10136
▁encu	-10137
▁vaak	-10138
▁wave	-10139
▁آمریک	-10140
▁failed	-10141
▁strutt	-10142
▁tienes	-10143
▁voices	-10144
▁equivalent	-10145
▁wirtschaft	-10146
▁قص	-10147
hrer	-10148
pert	-10149
estic	-10150
▁adol	-10151
▁fresh	-10152
▁grupo	-10153
▁concerned	-10154
▁oczywiście	-10155
oh	-10156
▁rak	-10157
▁señ	-10158
▁tort	-10159
▁closed	-10160
▁galaxy	-10161
▁unglaub	-10162
▁vediamo	-10163
▁רח	-10164
iali	-10165
ciare	-10166
▁empt	-10167
▁poter	-10168
▁trochę	-10169
▁دوباره	-10170
▁desarroll	-10171
▁נח	-10172
▁תע	-10173
▁שאי	-10174
ibili	-10175
▁گروه	-10176
▁indem	-10177
▁peter	-10178
▁demokr	-10179
▁interno	-10180
▁pubblico	-10181
یمی	-10182
ggio	-10183
▁בדרך	-10184
▁nadie	-10185
▁zeker	-10186
▁gebruikt	-10187
▁collective	-10188
gaan	-10189
▁jeff	-10190
▁mezzo	-10191
▁chciał	-10192
▁operating	-10193
ياه	-10194
▁vin	-10195
▁معم	-10196
▁names	-10197
▁dinner	-10198
▁fossil	-10199
▁molecular	-10200
izen	-10201
uses	-10202
▁pir	-10203
▁piace	-10204
▁battle	-10205
▁waarop	-10206
▁director	-10207
▁advantage	-10208
کتر	-10209
▁gross	-10210
▁gezond	-10211
צוב	-10212
pass	-10213
▁azi	-10214
▁dip	-10215
▁هوا	-10216
▁lady	-10217
▁wars	-10218
▁pages	-10219
▁prakt	-10220
▁rzecz	-10221
rof	-10222
▁95	-10223
ijna	-10224
▁oft	-10225
illed	-10226
▁boat	-10227
▁ksią	-10228
▁medi	-10229
▁wenig	-10230
▁remote	-10231
aga	-10232
eper	-10233
▁tat	-10234
▁חשב	-10235
▁کود	-10236
▁salt	-10237
▁expon	-10238
▁cartoon	-10239
נתי	-10240
▁ham	-10241
▁lungo	-10242
▁explos	-10243
▁increasingly	-10244
azz	-10245
يفة	-10246
remo	-10247
▁המק	-10248
▁أخذ	-10249
richt	-10250
▁cinque	-10251
▁exists	-10252
▁limited	-10253
▁helemaal	-10254
▁currently	-10255
לך	-10256
▁ktoś	-10257
▁והיא	-10258
uments	-10259
▁מיליון	-10260
umen	-10261
▁soc	-10262
▁للا	-10263
▁dimensions	-10264
óm	-10265
רגע	-10266
گان	-10267
▁كث	-10268
▁beim	-10269
▁letters	-10270
▁resource	-10271
▁soldiers	-10272
gro	-10273
ريقيا	-10274
▁zrob	-10275
▁دلیل	-10276
▁kompl	-10277
cere	-10278
▁whom	-10279
▁avoid	-10280
▁praten	-10281
▁comunità	-10282
▁الولايات	-10283
cos	-10284
ابت	-10285
▁فن	-10286
halen	-10287
▁antic	-10288
▁empres	-10289
▁entender	-10290
▁electrical	-10291
▁hi	-10292
▁arms	-10293
▁parent	-10294
▁entertain	-10295
▁mentioned	-10296
▁fif	-10297
▁בית	-10298
▁הקט	-10299
▁bear	-10300
▁دادن	-10301
▁oznacza	-10302
راحی	-10303
adomo	-10304
▁لهذا	-10305
▁grown	-10306
▁mówią	-10307
▁researchers	-10308
▁جل	-10309
▁הופ	-10310
▁deve	-10311
▁manif	-10312
schr	-10313
▁تبد	-10314
▁cort	-10315
▁subs	-10316
▁wpły	-10317
▁hacemos	-10318
▁posible	-10319
▁majority	-10320
iam	-10321
▁وان	-10322
▁creë	-10323
▁בזמן	-10324
▁levens	-10325
▁stupid	-10326
▁ואנחנו	-10327
مند	-10328
▁أقل	-10329
▁سمت	-10330
wości	-10331
▁kurz	-10332
▁اجتما	-10333
▁succeed	-10334
▁edificio	-10335
▁גור	-10336
▁گیر	-10337
▁eins	-10338
▁מאשר	-10339
▁manch	-10340
▁przep	-10341
▁semplicemente	-10342
tek	-10343
حات	-10344
ließ	-10345
zone	-10346
▁gam	-10347
▁آور	-10348
▁2006	-10349
▁לקחת	-10350
▁vemos	-10351
▁comment	-10352
▁ragazzi	-10353
ót	-10354
pes	-10355
הלי	-10356
ینی	-10357
▁מוכ	-10358
▁امروز	-10359
▁explic	-10360
▁interaction	-10361
▁laboratorio	-10362
▁סט	-10363
onych	-10364
▁obama	-10365
▁uniti	-10366
ילו	-10367
uries	-10368
▁bijna	-10369
▁airplane	-10370
ברת	-10371
مية	-10372
wart	-10373
▁sui	-10374
▁לעצ	-10375
ersch	-10376
▁mies	-10377
▁nord	-10378
▁seat	-10379
▁grade	-10380
▁reduc	-10381
▁dzieje	-10382
▁przeci	-10383
▁command	-10384
▁hetzelfde	-10385
▁generations	-10386
ós	-10387
jard	-10388
kach	-10389
▁לכך	-10390
known	-10391
▁catt	-10392
▁neut	-10393
▁delen	-10394
▁shoes	-10395
▁signals	-10396
▁spectrum	-10397
hab	-10398
abol	-10399
iors	-10400
▁erkl	-10401
▁النا	-10402
▁humano	-10403
▁perman	-10404
كو	-10405
▁rab	-10406
▁chim	-10407
▁maps	-10408
▁چهار	-10409
▁obser	-10410
▁circum	-10411
▁department	-10412
▁probablemente	-10413
▁ii	-10414
▁سخ	-10415
cond	-10416
ernt	-10417
▁bajo	-10418
▁cure	-10419
▁frau	-10420
▁تصور	-10421
izzato	-10422
▁assem	-10423
▁equal	-10424
▁sulle	-10425
▁temat	-10426
▁advert	-10427
▁cerebr	-10428
▁paying	-10429
▁spesso	-10430
▁tir	-10431
▁أمر	-10432
eremos	-10433
هاز	-10434
يار	-10435
ערכת	-10436
▁ucc	-10437
▁מגי	-10438
▁קבו	-10439
appen	-10440
▁echte	-10441
▁vorrei	-10442
▁waarin	-10443
סטי	-10444
▁دائما	-10445
▁avevano	-10446
▁designing	-10447
قف	-10448
▁יצ	-10449
▁מכל	-10450
▁مال	-10451
מונות	-10452
▁rodz	-10453
▁quién	-10454
▁attach	-10455
▁kosten	-10456
▁extract	-10457
▁northern	-10458
ئات	-10459
mero	-10460
▁estu	-10461
▁nuova	-10462
▁ويمكن	-10463
▁gevoel	-10464
▁sommige	-10465
▁migliore	-10466
▁intellectual	-10467
gas	-10468
▁בן	-10469
life	-10470
iscono	-10471
▁settim	-10472
▁estados	-10473
▁businesses	-10474
via	-10475
cend	-10476
▁cow	-10477
▁bedo	-10478
▁pand	-10479
▁לומר	-10480
▁المر	-10481
▁توجه	-10482
▁regul	-10483
▁seiner	-10484
▁später	-10485
▁soil	-10486
▁أنهم	-10487
▁najle	-10488
▁szcze	-10489
▁nutzen	-10490
▁britain	-10491
▁especial	-10492
▁transition	-10493
rz	-10494
▁fi	-10495
inner	-10496
▁apar	-10497
▁hong	-10498
▁stuk	-10499
▁traged	-10500
▁brengen	-10501
voud	-10502
משים	-10503
place	-10504
▁bone	-10505
▁rede	-10506
▁معظم	-10507
▁angst	-10508
▁שונים	-10509
▁wearing	-10510
▁described	-10511
כב	-10512
▁مض	-10513
▁pin	-10514
▁hasn	-10515
▁vostra	-10516
▁humanos	-10517
▁później	-10518
▁constant	-10519
▁essential	-10520
أك	-10521
cal	-10522
ród	-10523
▁תר	-10524
▁نقط	-10525
▁keinen	-10526
▁بطريقة	-10527
▁superficie	-10528
▁195	-10529
▁השת	-10530
▁پول	-10531
riage	-10532
▁entde	-10533
▁heavy	-10534
▁לאנשים	-10535
▁انتخاب	-10536
esa	-10537
jen	-10538
eline	-10539
▁osią	-10540
▁עליו	-10541
source	-10542
▁negot	-10543
▁verde	-10544
▁breath	-10545
▁imagin	-10546
▁phones	-10547
▁drawing	-10548
يني	-10549
erves	-10550
▁load	-10551
▁explan	-10552
▁oceans	-10553
oor	-10554
שבו	-10555
جازه	-10556
▁آمد	-10557
▁2001	-10558
▁miljard	-10559
▁consequences	-10560
راع	-10561
▁dun	-10562
▁lit	-10563
▁oct	-10564
▁illeg	-10565
▁riusc	-10566
ío	-10567
וכל	-10568
▁הפר	-10569
▁بدا	-10570
▁hätte	-10571
▁fueron	-10572
▁eigenen	-10573
cas	-10574
سون	-10575
ugen	-10576
▁וכך	-10577
▁تصو	-10578
▁fell	-10579
▁kant	-10580
▁líne	-10581
▁słow	-10582
▁ترین	-10583
▁eerst	-10584
▁treated	-10585
▁amerikan	-10586
▁strategy	-10587
گز	-10588
onia	-10589
واصل	-10590
erder	-10591
▁קורה	-10592
▁dział	-10593
▁shapes	-10594
▁witness	-10595
▁absolute	-10596
▁مف	-10597
▁تلا	-10598
▁erfa	-10599
▁שהיה	-10600
▁گفتم	-10601
▁estab	-10602
▁ایجاد	-10603
▁library	-10604
▁llamado	-10605
▁menselijke	-10606
kle	-10607
orr	-10608
peł	-10609
▁تل	-10610
▁عمر	-10611
ommen	-10612
▁vele	-10613
▁quiet	-10614
▁malatt	-10615
▁snow	-10616
▁vend	-10617
▁לתוך	-10618
▁scene	-10619
אלה	-10620
▁فا	-10621
olen	-10622
owis	-10623
ויים	-10624
▁שהי	-10625
iędzy	-10626
▁2003	-10627
▁sala	-10628
▁حرکت	-10629
▁piutt	-10630
▁leaves	-10631
▁democratic	-10632
▁عب	-10633
vole	-10634
▁صحيح	-10635
▁comin	-10636
▁hypoth	-10637
▁quería	-10638
▁piuttosto	-10639
רבה	-10640
ونی	-10641
chron	-10642
▁1980	-10643
▁میشه	-10644
▁daily	-10645
▁eleph	-10646
▁sympt	-10647
▁trend	-10648
▁wygląda	-10649
iency	-10650
kunde	-10651
pping	-10652
▁adam	-10653
▁grid	-10654
▁mieć	-10655
▁user	-10656
▁האנו	-10657
▁homes	-10658
▁mothers	-10659
▁management	-10660
▁أل	-10661
▁losing	-10662
▁rappres	-10663
▁kilometers	-10664
ąc	-10665
amow	-10666
▁lou	-10667
▁tap	-10668
▁برو	-10669
▁معا	-10670
änder	-10671
▁absor	-10672
▁algún	-10673
▁أشياء	-10674
idelijk	-10675
▁trials	-10676
▁يستطيع	-10677
bby	-10678
ris	-10679
זרת	-10680
ربة	-10681
▁اگه	-10682
arnos	-10683
▁vess	-10684
▁caused	-10685
▁mutter	-10686
▁suppose	-10687
▁studenten	-10688
pun	-10689
iede	-10690
▁rig	-10691
▁מידע	-10692
▁توسط	-10693
▁لديك	-10694
▁sites	-10695
▁todav	-10696
▁employe	-10697
کز	-10698
opod	-10699
▁niño	-10700
▁מדוע	-10701
▁gesagt	-10702
▁gezien	-10703
▁برنامه	-10704
▁למי	-10705
usual	-10706
▁dzis	-10707
▁holes	-10708
▁למצוא	-10709
▁número	-10710
▁escuela	-10711
▁stanford	-10712
גיש	-10713
▁מצי	-10714
quiera	-10715
▁ثلاثة	-10716
▁garden	-10717
▁planeten	-10718
וחד	-10719
▁מזה	-10720
▁נוס	-10721
▁تغي	-10722
▁susp	-10723
▁وأنا	-10724
▁stock	-10725
▁meeste	-10726
emu	-10727
ستر	-10728
▁בזה	-10729
▁بیر	-10730
▁besl	-10731
▁gute	-10732
▁גבוה	-10733
▁القط	-10734
▁متفاوت	-10735
▁archite	-10736
▁bewegen	-10737
▁todavía	-10738
▁הראשונה	-10739
یدن	-10740
▁ram	-10741
icità	-10742
▁cyber	-10743
▁input	-10744
▁republ	-10745
▁systeem	-10746
▁distribution	-10747
▁خودم	-10748
▁היינו	-10749
▁miglia	-10750
▁suggests	-10751
آن	-10752
جب	-10753
▁بحث	-10754
▁وجه	-10755
heden	-10756
▁anth	-10757
▁coca	-10758
▁erde	-10759
▁obst	-10760
▁schön	-10761
▁تولید	-10762
▁naszych	-10763
▁ovviamente	-10764
stoff	-10765
▁coral	-10766
▁vehicle	-10767
▁property	-10768
gon	-10769
ئلة	-10770
enten	-10771
▁wyda	-10772
▁רבים	-10773
▁layer	-10774
▁saber	-10775
▁الصورة	-10776
כלו	-10777
عام	-10778
zeni	-10779
▁بدن	-10780
▁feder	-10781
▁liquid	-10782
▁tedtalk	-10783
mun	-10784
aret	-10785
▁jas	-10786
▁قمت	-10787
▁cosm	-10788
▁surf	-10789
▁tests	-10790
▁آموزش	-10791
▁martin	-10792
▁tenden	-10793
▁testing	-10794
▁tijdens	-10795
▁worried	-10796
▁disaster	-10797
acle	-10798
adic	-10799
▁nak	-10800
▁nee	-10801
▁שום	-10802
▁وأن	-10803
▁گرد	-10804
▁hans	-10805
▁מחדש	-10806
▁awful	-10807
▁carol	-10808
▁doświad	-10809
▁chemistry	-10810
▁דר	-10811
fish	-10812
▁méd	-10813
▁ארו	-10814
▁opera	-10815
▁przyp	-10816
▁risol	-10817
▁بتوان	-10818
▁gesell	-10819
▁מכיוון	-10820
rus	-10821
zek	-10822
وقع	-10823
yczne	-10824
▁außer	-10825
▁comer	-10826
▁lifet	-10827
▁mucha	-10828
▁conver	-10829
adamente	-10830
▁entrepreneurs	-10831
شق	-10832
alu	-10833
▁كت	-10834
inig	-10835
isse	-10836
▁enseñ	-10837
▁בשביל	-10838
▁virgin	-10839
▁dynamic	-10840
gra	-10841
▁ליי	-10842
▁poem	-10843
▁kwest	-10844
lei	-10845
ależ	-10846
▁trag	-10847
▁augen	-10848
▁error	-10849
▁laugh	-10850
▁markt	-10851
▁mniej	-10852
▁począ	-10853
▁assist	-10854
▁killing	-10855
▁prawdzi	-10856
▁loop	-10857
▁folks	-10858
▁28	-10859
▁عرض	-10860
▁lamp	-10861
עיונות	-10862
▁poner	-10863
▁geomet	-10864
▁roughly	-10865
▁pleasure	-10866
▁مرب	-10867
▁ampl	-10868
▁jede	-10869
▁ogget	-10870
▁صغيرة	-10871
▁utiliz	-10872
▁curious	-10873
▁setting	-10874
▁schaffen	-10875
סון	-10876
▁لد	-10877
▁شدم	-10878
▁محد	-10879
ijnen	-10880
▁klim	-10881
▁spie	-10882
▁هنالك	-10883
▁áfrica	-10884
▁oportun	-10885
▁reprodu	-10886
▁operation	-10887
▁september	-10888
▁مسا	-10889
▁lata	-10890
▁לקבל	-10891
▁المخ	-10892
▁اجازه	-10893
▁النوع	-10894
▁parall	-10895
▁parole	-10896
▁emerging	-10897
▁launched	-10898
▁mortality	-10899
▁programma	-10900
▁respuesta	-10901
טין	-10902
▁شان	-10903
▁hoog	-10904
▁buena	-10905
▁appena	-10906
▁conect	-10907
▁muscle	-10908
▁stream	-10909
▁married	-10910
▁powiedzieć	-10911
fin	-10912
zać	-10913
▁אב	-10914
ring	-10915
▁שתי	-10916
▁geze	-10917
▁נוכל	-10918
▁שאתה	-10919
▁بالأ	-10920
▁largo	-10921
▁studi	-10922
▁compañ	-10923
▁finish	-10924
▁opening	-10925
▁costruire	-10926
ested	-10927
▁كيفية	-10928
▁movies	-10929
▁especie	-10930
▁whereas	-10931
cja	-10932
ses	-10933
resp	-10934
heids	-10935
▁kost	-10936
▁المس	-10937
▁krank	-10938
▁umani	-10939
▁הרעיון	-10940
voorbeeld	-10941
▁associated	-10942
▁enige	-10943
▁kreat	-10944
▁nervous	-10945
▁construction	-10946
kaz	-10947
יהם	-10948
▁120	-10949
▁گرفته	-10950
▁profund	-10951
mm	-10952
▁sug	-10953
▁clar	-10954
▁plot	-10955
owałem	-10956
▁3,000	-10957
▁کننده	-10958
▁giorni	-10959
stellung	-10960
▁cambiare	-10961
▁feelings	-10962
kk	-10963
▁ange	-10964
pected	-10965
▁accad	-10966
▁beeld	-10967
▁pamię	-10968
▁pross	-10969
▁steel	-10970
▁proceso	-10971
▁specifically	-10972
حه	-10973
eron	-10974
▁chw	-10975
▁ren	-10976
▁licz	-10977
▁ואתם	-10978
▁grant	-10979
▁الحصول	-10980
▁grootste	-10981
cut	-10982
ودة	-10983
▁fäh	-10984
▁ماش	-10985
▁cibo	-10986
▁mogę	-10987
▁span	-10988
▁يفعل	-10989
anging	-10990
▁invited	-10991
▁sentence	-10992
▁bijvoorbeeld	-10993
alla	-10994
gers	-10995
▁حقي	-10996
▁سری	-10997
▁blow	-10998
▁puts	-10999
mat	-11000
מון	-11001
رام	-11002
ünst	-11003
▁vre	-11004
▁מוח	-11005
▁uite	-11006
▁الكب	-11007
▁strada	-11008
▁angeles	-11009
▁covered	-11010
▁dolarów	-11011
▁keeping	-11012
▁pierwszy	-11013
▁construir	-11014
▁grandmother	-11015
omi	-11016
ואי	-11017
ناه	-11018
▁אה	-11019
▁ona	-11020
▁osc	-11021
▁tuv	-11022
▁traum	-11023
▁نتیجه	-11024
▁satisf	-11025
▁cultures	-11026
טות	-11027
حيط	-11028
روف	-11029
▁תא	-11030
▁700	-11031
▁ross	-11032
▁خانه	-11033
▁films	-11034
▁lijkt	-11035
▁cortex	-11036
▁contain	-11037
kop	-11038
بحث	-11039
▁يسم	-11040
gment	-11041
▁budd	-11042
▁وعند	-11043
▁الجديد	-11044
▁przedstaw	-11045
▁technical	-11046
▁fís	-11047
▁män	-11048
rieben	-11049
▁mountains	-11050
▁bog	-11051
▁veil	-11052
▁بلکه	-11053
▁zaczą	-11054
▁troppo	-11055
▁amerika	-11056
▁ciencia	-11057
▁instrum	-11058
▁שג	-11059
olar	-11060
wind	-11061
▁sąd	-11062
▁להע	-11063
unter	-11064
▁1950	-11065
▁ersch	-11066
▁prowad	-11067
▁immagine	-11068
▁chemicals	-11069
▁surprised	-11070
bb	-11071
▁lawy	-11072
▁coordin	-11073
▁brothers	-11074
▁thoughts	-11075
وسط	-11076
edig	-11077
▁הדי	-11078
▁جنگ	-11079
owany	-11080
▁بودن	-11081
▁centr	-11082
▁miesz	-11083
▁musik	-11084
▁tratt	-11085
▁organs	-11086
▁lichaam	-11087
▁succede	-11088
▁الأشخاص	-11089
▁advanced	-11090
▁analysis	-11091
▁ungefähr	-11092
▁mł	-11093
▁يست	-11094
▁أنني	-11095
▁عليك	-11096
▁cloth	-11097
▁stret	-11098
wid	-11099
viol	-11100
▁تست	-11101
▁ants	-11102
▁army	-11103
▁dziś	-11104
▁manh	-11105
▁شبیه	-11106
▁incor	-11107
▁perci	-11108
▁cellule	-11109
▁pianeta	-11110
▁begonnen	-11111
▁clinical	-11112
▁congress	-11113
هاب	-11114
▁olt	-11115
▁שמת	-11116
▁taki	-11117
▁میده	-11118
▁smile	-11119
▁آینده	-11120
▁financi	-11121
dru	-11122
ریق	-11123
▁لح	-11124
zust	-11125
▁dod	-11126
▁וכל	-11127
▁rates	-11128
▁داشتم	-11129
▁bouwen	-11130
zus	-11131
מור	-11132
usst	-11133
▁oor	-11134
▁החל	-11135
▁آدم	-11136
▁pray	-11137
▁polity	-11138
وري	-11139
▁برگ	-11140
lying	-11141
▁marg	-11142
▁moja	-11143
▁wiecie	-11144
▁podstaw	-11145
▁macchina	-11146
רתי	-11147
iana	-11148
uale	-11149
▁משמ	-11150
▁quei	-11151
▁suoi	-11152
▁הספר	-11153
▁shall	-11154
▁imagen	-11155
▁trzeba	-11156
▁japanese	-11157
طا	-11158
cast	-11159
▁تحد	-11160
▁acht	-11161
▁suit	-11162
acters	-11163
▁nello	-11164
▁richtig	-11165
▁schauen	-11166
▁większość	-11167
▁characters	-11168
nić	-11169
elte	-11170
oken	-11171
▁پرس	-11172
▁neem	-11173
▁shif	-11174
▁دختر	-11175
▁niesamow	-11176
▁equipment	-11177
▁funktioniert	-11178
▁آل	-11179
utie	-11180
▁bay	-11181
▁dok	-11182
▁hai	-11183
▁impr	-11184
▁وبعد	-11185
▁empty	-11186
▁maint	-11187
▁navig	-11188
▁poten	-11189
▁define	-11190
▁הסיפור	-11191
▁dealing	-11192
etz	-11193
trz	-11194
ואה	-11195
ודל	-11196
▁ku	-11197
▁gat	-11198
▁męż	-11199
▁כמעט	-11200
▁مجرد	-11201
▁alber	-11202
▁znale	-11203
▁stessi	-11204
▁lessons	-11205
▁sources	-11206
زال	-11207
هام	-11208
wają	-11209
יינו	-11210
▁سخت	-11211
▁extr	-11212
▁ingl	-11213
▁adopt	-11214
▁amery	-11215
▁dolph	-11216
▁fondo	-11217
▁ponad	-11218
▁vulnerable	-11219
ترة	-11220
occup	-11221
▁allo	-11222
▁amig	-11223
▁giov	-11224
▁silk	-11225
▁الخط	-11226
▁drugie	-11227
▁geloof	-11228
▁capacità	-11229
▁emissions	-11230
▁evolutionary	-11231
▁haus	-11232
▁לחלו	-11233
▁occhi	-11234
▁clever	-11235
▁filled	-11236
▁bambino	-11237
▁epidemic	-11238
wr	-11239
ולות	-11240
acing	-11241
▁wiem	-11242
▁bevor	-11243
▁podía	-11244
▁mundial	-11245
▁origami	-11246
▁sophistic	-11247
uu	-11248
▁ali	-11249
▁ere	-11250
▁מלא	-11251
▁guid	-11252
▁hadn	-11253
▁weak	-11254
▁بعضی	-11255
▁تحدث	-11256
▁البعض	-11257
▁الحديث	-11258
קל	-11259
cyj	-11260
udo	-11261
وكب	-11262
kins	-11263
onen	-11264
▁ego	-11265
▁vote	-11266
▁erinn	-11267
▁practical	-11268
aran	-11269
▁lies	-11270
▁تعداد	-11271
▁marine	-11272
▁células	-11273
▁viruses	-11274
zas	-11275
גיד	-11276
▁suf	-11277
▁cens	-11278
▁الكل	-11279
▁dello	-11280
▁oltre	-11281
▁ببینید	-11282
▁chicken	-11283
▁miliardi	-11284
▁producing	-11285
ران	-11286
علق	-11287
▁inn	-11288
▁بگو	-11289
aanse	-11290
ician	-11291
ograp	-11292
▁flies	-11293
▁igual	-11294
▁sugar	-11295
▁users	-11296
▁helpen	-11297
دن	-11298
cić	-11299
iczne	-11300
nieuw	-11301
▁dots	-11302
▁5,000	-11303
▁chron	-11304
▁estad	-11305
▁saved	-11306
▁manage	-11307
▁poster	-11308
▁string	-11309
▁battery	-11310
▁informazioni	-11311
▁rw	-11312
▁מוז	-11313
▁suic	-11314
▁wach	-11315
▁wohl	-11316
▁horse	-11317
▁abstract	-11318
▁generate	-11319
▁experienced	-11320
رخ	-11321
▁kno	-11322
▁בשי	-11323
▁giro	-11324
▁genug	-11325
▁belong	-11326
▁correl	-11327
▁pequeña	-11328
▁dinosaurs	-11329
▁נא	-11330
▁dios	-11331
▁rozum	-11332
öl	-11333
sum	-11334
▁verant	-11335
cé	-11336
سن	-11337
▁وف	-11338
▁ידע	-11339
aufen	-11340
▁crim	-11341
▁ride	-11342
▁ascol	-11343
▁texas	-11344
▁toler	-11345
▁جميعا	-11346
▁iniziato	-11347
▁finalmente	-11348
rob	-11349
aliz	-11350
▁לשי	-11351
▁ملا	-11352
elfen	-11353
omini	-11354
▁مادر	-11355
▁gates	-11356
▁possa	-11357
▁לעולם	-11358
▁creature	-11359
▁existence	-11360
iw	-11361
ológ	-11362
osen	-11363
▁stadt	-11364
▁باشیم	-11365
ardziej	-11366
▁konnten	-11367
▁considered	-11368
▁najbardziej	-11369
▁wetenschapp	-11370
itz	-11371
عبة	-11372
▁חוק	-11373
ienti	-11374
▁ford	-11375
▁matt	-11376
▁باور	-11377
▁ساده	-11378
▁erfol	-11379
▁essen	-11380
▁بیرون	-11381
▁techniques	-11382
▁wetenschap	-11383
▁effectively	-11384
סוף	-11385
onde	-11386
▁ספר	-11387
▁מספיק	-11388
▁dispon	-11389
▁papier	-11390
▁frequen	-11391
▁pytanie	-11392
▁scoperto	-11393
▁פה	-11394
▁שש	-11395
מנות	-11396
ونها	-11397
▁kim	-11398
▁cinco	-11399
▁announ	-11400
▁safety	-11401
▁strang	-11402
▁manhatt	-11403
▁importance	-11404
جال	-11405
▁מנס	-11406
▁قسم	-11407
itals	-11408
▁junt	-11409
▁facts	-11410
▁ghana	-11411
▁schul	-11412
▁stamp	-11413
▁sweet	-11414
▁inizio	-11415
▁المثال	-11416
▁struggle	-11417
وح	-11418
ytu	-11419
יין	-11420
باه	-11421
روب	-11422
▁former	-11423
▁iz	-11424
essi	-11425
▁התי	-11426
▁קוד	-11427
▁kons	-11428
▁اكثر	-11429
▁بناء	-11430
▁chain	-11431
▁fácil	-11432
▁avanti	-11433
▁pensato	-11434
welt	-11435
innen	-11436
▁gree	-11437
▁słys	-11438
▁لديه	-11439
▁pensate	-11440
▁guardate	-11441
▁processes	-11442
▁perception	-11443
بعض	-11444
▁إي	-11445
▁potr	-11446
▁ziek	-11447
▁lingu	-11448
▁reput	-11449
▁ridic	-11450
▁circumst	-11451
▁implement	-11452
▁microsoft	-11453
▁organized	-11454
▁فأ	-11455
▁نس	-11456
▁eld	-11457
eding	-11458
neath	-11459
▁igno	-11460
isches	-11461
▁beweg	-11462
▁przest	-11463
ologists	-11464
▁risposta	-11465
▁protection	-11466
▁underneath	-11467
▁connections	-11468
ará	-11469
▁מור	-11470
ivere	-11471
▁możecie	-11472
emd	-11473
spr	-11474
łoż	-11475
قال	-11476
▁rę	-11477
▁zwier	-11478
▁unters	-11479
▁الأخرى	-11480
▁valuable	-11481
▁possibilities	-11482
pan	-11483
לוב	-11484
▁אד	-11485
olit	-11486
▁oni	-11487
▁יצי	-11488
▁kier	-11489
▁unex	-11490
izioni	-11491
▁facing	-11492
▁ladies	-11493
▁mostra	-11494
▁probleme	-11495
spe	-11496
یدم	-11497
ścia	-11498
▁تكن	-11499
▁segur	-11500
▁wiemy	-11501
▁player	-11502
▁arrived	-11503
▁spielen	-11504
wej	-11505
ראו	-11506
ioso	-11507
tail	-11508
▁تسم	-11509
iform	-11510
▁mant	-11511
▁obes	-11512
stream	-11513
▁gdyby	-11514
▁uganda	-11515
▁players	-11516
شة	-11517
omm	-11518
inos	-11519
ufen	-11520
▁كام	-11521
▁میک	-11522
▁pregn	-11523
▁ideeën	-11524
▁zoveel	-11525
▁miejsce	-11526
▁relevant	-11527
dp	-11528
ضی	-11529
ركز	-11530
ostr	-11531
▁pog	-11532
▁vec	-11533
▁cambr	-11534
▁donna	-11535
▁ervan	-11536
▁fewer	-11537
▁goals	-11538
▁schwier	-11539
▁confront	-11540
▁exchange	-11541
ריק	-11542
▁فعال	-11543
▁marav	-11544
▁ogrom	-11545
▁قليلا	-11546
▁golden	-11547
▁تقريبا	-11548
atamente	-11549
ást	-11550
▁וגם	-11551
▁cały	-11552
▁בעלי	-11553
▁تعمل	-11554
▁autos	-11555
▁گذشته	-11556
▁pollen	-11557
▁metabol	-11558
isl	-11559
▁lon	-11560
▁מהי	-11561
▁نور	-11562
▁alph	-11563
▁graf	-11564
finden	-11565
▁wynik	-11566
▁الدول	-11567
▁encoun	-11568
▁skelet	-11569
▁الخاصة	-11570
▁variety	-11571
hin	-11572
łych	-11573
נטרנט	-11574
▁1970	-11575
▁smith	-11576
▁stare	-11577
▁segundo	-11578
▁voedsel	-11579
▁vogliamo	-11580
rzeć	-11581
▁heißt	-11582
▁nobel	-11583
▁czasie	-11584
▁cutting	-11585
▁eenvoud	-11586
▁telefon	-11587
▁consumer	-11588
▁esperienza	-11589
▁comfortable	-11590
▁mathematical	-11591
ודו	-11592
میم	-11593
acci	-11594
oven	-11595
stof	-11596
heits	-11597
▁المب	-11598
▁denkt	-11599
▁miglior	-11600
▁cantidad	-11601
▁identify	-11602
מט	-11603
لد	-11604
wia	-11605
arte	-11606
▁نما	-11607
▁شرکت	-11608
▁نوعا	-11609
▁neuen	-11610
▁بإمكان	-11611
▁gravity	-11612
خرج	-11613
راب	-11614
▁תי	-11615
▁ferm	-11616
▁subt	-11617
▁نعرف	-11618
▁ziemi	-11619
▁helfen	-11620
▁pienso	-11621
▁stimul	-11622
▁lugares	-11623
żs	-11624
عث	-11625
irt	-11626
íst	-11627
ocup	-11628
▁żad	-11629
▁مرح	-11630
▁qued	-11631
▁rene	-11632
▁המדי	-11633
▁السي	-11634
▁haiti	-11635
▁حقيقة	-11636
▁partes	-11637
▁uomini	-11638
▁affected	-11639
▁desarrol	-11640
▁erzählen	-11641
▁computing	-11642
▁introduce	-11643
▁ll	-11644
▁nul	-11645
▁لكل	-11646
affen	-11647
▁pozi	-11648
▁aspir	-11649
aca	-11650
یزی	-11651
iett	-11652
▁طبی	-11653
▁للإ	-11654
▁trop	-11655
▁aging	-11656
▁dzieck	-11657
▁explains	-11658
utes	-11659
▁سپس	-11660
progr	-11661
▁amazon	-11662
▁الدماغ	-11663
▁expected	-11664
▁trabajar	-11665
▁newspaper	-11666
▁percentage	-11667
iro	-11668
iber	-11669
▁191	-11670
▁קטן	-11671
▁שמע	-11672
▁sole	-11673
▁التع	-11674
▁المؤ	-11675
▁ideen	-11676
▁nächsten	-11677
▁relatively	-11678
rea	-11679
igde	-11680
موذج	-11681
▁סרט	-11682
▁שכל	-11683
▁ends	-11684
▁leps	-11685
▁soul	-11686
▁سوال	-11687
▁achie	-11688
▁frequ	-11689
▁higgs	-11690
areness	-11691
ationen	-11692
▁potere	-11693
▁خواهند	-11694
▁میتوان	-11695
▁consist	-11696
▁reaction	-11697
▁convinced	-11698
chem	-11699
▁המע	-11700
▁שנו	-11701
▁شنا	-11702
▁bibli	-11703
▁march	-11704
▁meses	-11705
▁union	-11706
▁związ	-11707
▁bottle	-11708
▁driver	-11709
bru	-11710
▁85	-11711
plex	-11712
ijden	-11713
istra	-11714
▁gain	-11715
cimiento	-11716
گو	-11717
upt	-11718
illo	-11719
טיקה	-11720
▁800	-11721
▁peł	-11722
هتمام	-11723
▁clip	-11724
▁domu	-11725
▁eben	-11726
▁fate	-11727
▁ultra	-11728
▁aspett	-11729
▁houses	-11730
▁transm	-11731
▁lifetime	-11732
▁naturally	-11733
▁transformation	-11734
cję	-11735
ulf	-11736
ële	-11737
▁فی	-11738
imeter	-11739
▁میتون	-11740
▁bł	-11741
הליך	-11742
▁cán	-11743
▁jij	-11744
▁לוק	-11745
▁teams	-11746
▁unusual	-11747
ارك	-11748
▁שפ	-11749
erta	-11750
umul	-11751
▁fakt	-11752
▁سبيل	-11753
▁يعرف	-11754
▁chaos	-11755
▁książ	-11756
▁widać	-11757
▁خواهیم	-11758
▁eastern	-11759
▁rzeczyw	-11760
▁windows	-11761
▁convince	-11762
▁graduate	-11763
▁manhattan	-11764
גו	-11765
רב	-11766
▁תנו	-11767
▁أرب	-11768
akers	-11769
▁każd	-11770
▁máqu	-11771
▁pink	-11772
▁juego	-11773
▁refer	-11774
▁takich	-11775
▁ultimi	-11776
▁carefully	-11777
▁לאי	-11778
▁stap	-11779
friend	-11780
▁atten	-11781
▁liebe	-11782
▁منظور	-11783
ionales	-11784
▁palest	-11785
▁picked	-11786
▁wireless	-11787
▁nou	-11788
▁הפי	-11789
▁پنج	-11790
abili	-11791
▁boek	-11792
▁soms	-11793
▁schiz	-11794
▁cáncer	-11795
▁lavorare	-11796
جز	-11797
tore	-11798
▁הני	-11799
▁hurt	-11800
▁sztu	-11801
▁التن	-11802
▁chocol	-11803
▁mannen	-11804
▁typically	-11805
▁expression	-11806
امی	-11807
łość	-11808
▁muzy	-11809
▁langs	-11810
▁silic	-11811
▁spoke	-11812
▁stood	-11813
▁לבנות	-11814
▁poziom	-11815
▁visible	-11816
elijkheid	-11817
▁represents	-11818
bly	-11819
atar	-11820
czen	-11821
down	-11822
gefü	-11823
▁doe	-11824
▁تکن	-11825
itted	-11826
sters	-11827
▁espl	-11828
▁estr	-11829
▁korea	-11830
▁improv	-11831
iba	-11832
áct	-11833
שור	-11834
bors	-11835
ריקה	-11836
▁uur	-11837
▁viet	-11838
▁congo	-11839
▁quizá	-11840
▁vroeg	-11841
▁volgens	-11842
▁invention	-11843
ey	-11844
ריה	-11845
iada	-11846
▁fui	-11847
▁jam	-11848
▁לתת	-11849
ismus	-11850
▁bare	-11851
geving	-11852
▁chart	-11853
▁לגמרי	-11854
▁calling	-11855
▁marriage	-11856
▁רצ	-11857
▁چی	-11858
▁שאם	-11859
▁وكل	-11860
zieli	-11861
▁تفعل	-11862
gevens	-11863
▁polar	-11864
▁scopr	-11865
▁forgot	-11866
▁unlike	-11867
▁الماضي	-11868
▁primary	-11869
▁technik	-11870
▁preoccup	-11871
aco	-11872
żyć	-11873
طلق	-11874
▁אופ	-11875
▁نرى	-11876
▁meis	-11877
▁טובה	-11878
▁اونا	-11879
▁credit	-11880
▁trillion	-11881
▁satellite	-11882
▁inher	-11883
▁teeth	-11884
▁همیشه	-11885
▁pomysł	-11886
gle	-11887
بية	-11888
isme	-11889
just	-11890
▁adm	-11891
▁انر	-11892
▁graag	-11893
▁النظر	-11894
▁części	-11895
▁deeper	-11896
▁desper	-11897
▁fortun	-11898
▁którego	-11899
▁periodo	-11900
▁exercise	-11901
▁hydrogen	-11902
▁queremos	-11903
▁البيانات	-11904
▁generally	-11905
hö	-11906
agn	-11907
▁רוב	-11908
▁خور	-11909
▁pill	-11910
itarian	-11911
ización	-11912
▁advent	-11913
▁environments	-11914
byt	-11915
ieu	-11916
اكل	-11917
aled	-11918
foot	-11919
▁brut	-11920
▁pięk	-11921
▁نفعل	-11922
▁nieuws	-11923
▁spelen	-11924
śle	-11925
ابات	-11926
▁cav	-11927
arono	-11928
▁goods	-11929
▁hombres	-11930
▁unserem	-11931
▁mistakes	-11932
▁hospitals	-11933
atos	-11934
▁חוד	-11935
▁לכן	-11936
owali	-11937
▁honey	-11938
▁jedno	-11939
▁komór	-11940
▁الأولى	-11941
▁bisschen	-11942
▁requires	-11943
▁efficiency	-11944
▁experiencia	-11945
atten	-11946
▁hice	-11947
▁وارد	-11948
▁oxford	-11949
▁laboratory	-11950
▁mej	-11951
واسطة	-11952
▁dogs	-11953
▁klas	-11954
▁pace	-11955
▁shel	-11956
▁stro	-11957
▁petro	-11958
▁fantas	-11959
▁inspiration	-11960
nę	-11961
aks	-11962
صنع	-11963
▁aten	-11964
cience	-11965
▁voord	-11966
▁świet	-11967
▁aunque	-11968
▁buying	-11969
▁diabet	-11970
▁circuit	-11971
▁pacific	-11972
▁definitely	-11973
▁situations	-11974
شي	-11975
غلب	-11976
anse	-11977
▁uds	-11978
ieran	-11979
ático	-11980
▁صورة	-11981
▁לשנות	-11982
▁جهانی	-11983
▁mężczy	-11984
▁pensando	-11985
▁sviluppo	-11986
▁naturaleza	-11987
tes	-11988
ספר	-11989
وقف	-11990
מיים	-11991
▁mall	-11992
▁wine	-11993
▁أقول	-11994
▁herum	-11995
▁begann	-11996
▁wcześnie	-11997
▁entscheid	-11998
▁radiation	-11999
▁حی	-12000
acto	-12001
▁הארץ	-12002
▁podej	-12003
▁theme	-12004
▁warto	-12005
▁السيا	-12006
▁alzheim	-12007
▁capture	-12008
▁passionate	-12009
ijs	-12010
גיל	-12011
ادل	-12012
▁اكت	-12013
genes	-12014
▁reef	-12015
▁root	-12016
▁conto	-12017
▁ellas	-12018
▁بینید	-12019
▁ritual	-12020
▁behaviors	-12021
▁ek	-12022
▁کا	-12023
izia	-12024
▁אית	-12025
▁سرا	-12026
▁mesi	-12027
▁dalej	-12028
▁gewor	-12029
▁welke	-12030
▁تبدیل	-12031
▁bubble	-12032
▁einzel	-12033
▁genere	-12034
▁height	-12035
▁promise	-12036
▁überall	-12037
▁diagnost	-12038
▁received	-12039
▁يف	-12040
legen	-12041
▁hits	-12042
▁sola	-12043
▁كتاب	-12044
▁همچنین	-12045
▁include	-12046
طلاق	-12047
▁ההת	-12048
▁أين	-12049
otech	-12050
▁hind	-12051
▁nuev	-12052
▁تقول	-12053
▁blijven	-12054
▁profond	-12055
▁watched	-12056
ארד	-12057
▁ję	-12058
ziek	-12059
▁بکن	-12060
esten	-12061
▁aston	-12062
▁بگذار	-12063
▁الفكرة	-12064
▁uiteind	-12065
iat	-12066
nel	-12067
نبال	-12068
▁بسا	-12069
▁كثير	-12070
▁assign	-12071
▁channel	-12072
arvi	-12073
▁عکس	-12074
lands	-12075
▁אותן	-12076
▁عاما	-12077
▁waves	-12078
▁כאילו	-12079
▁עבודה	-12080
▁intelig	-12081
▁sending	-12082
▁healthcare	-12083
▁photographs	-12084
▁זק	-12085
▁اث	-12086
▁geg	-12087
konom	-12088
▁المحيط	-12089
▁centers	-12090
▁ontwikk	-12091
▁משתמשים	-12092
▁properties	-12093
box	-12094
aste	-12095
zieh	-12096
▁hub	-12097
icted	-12098
iders	-12099
▁flie	-12100
▁kree	-12101
▁połą	-12102
▁tons	-12103
▁forced	-12104
▁seinen	-12105
▁maravill	-12106
▁psychology	-12107
غب	-12108
żej	-12109
ביבה	-12110
▁woj	-12111
▁zan	-12112
ietro	-12113
▁asks	-12114
▁جالب	-12115
▁costa	-12116
▁gioco	-12117
▁liked	-12118
▁secre	-12119
▁impuls	-12120
▁cameras	-12121
▁środowis	-12122
ded	-12123
nah	-12124
هور	-12125
▁mum	-12126
▁שהת	-12127
▁pasa	-12128
▁دهید	-12129
▁زیرا	-12130
▁moeder	-12131
▁poetry	-12132
▁hollywood	-12133
isa	-12134
▁בל	-12135
فهوم	-12136
▁runs	-12137
▁darum	-12138
▁sight	-12139
▁mirror	-12140
▁بواسطة	-12141
▁quantum	-12142
▁controvers	-12143
▁המט	-12144
▁رشد	-12145
▁hoff	-12146
▁tema	-12147
▁muslim	-12148
▁najwię	-12149
▁applied	-12150
▁istnieje	-12151
▁palabras	-12152
▁innovative	-12153
▁introduced	-12154
erà	-12155
▁לז	-12156
fekt	-12157
فاعل	-12158
▁avv	-12159
▁ley	-12160
▁moim	-12161
▁miner	-12162
▁pilot	-12163
▁كثيرا	-12164
▁preocup	-12165
▁horrible	-12166
▁processo	-12167
▁components	-12168
jed	-12169
usa	-12170
kind	-12171
▁broke	-12172
▁paris	-12173
▁blocks	-12174
▁critic	-12175
▁miejsc	-12176
▁germany	-12177
▁personally	-12178
ös	-12179
cje	-12180
عين	-12181
acia	-12182
gende	-12183
▁euch	-12184
▁sott	-12185
▁כדור	-12186
▁nadzie	-12187
▁stabil	-12188
▁najleps	-12189
.5	-12190
▁języ	-12191
gangen	-12192
▁atoms	-12193
▁storm	-12194
▁telep	-12195
▁jednym	-12196
▁survey	-12197
▁unidos	-12198
▁release	-12199
▁באמצעות	-12200
▁antwoord	-12201
▁historii	-12202
▁official	-12203
iso	-12204
ktor	-12205
ńczy	-12206
▁mäd	-12207
icing	-12208
▁dnia	-12209
▁עלינו	-12210
owaliśmy	-12211
امة	-12212
▁ذا	-12213
hold	-12214
omin	-12215
▁eeuw	-12216
▁unit	-12217
▁אתכם	-12218
profit	-12219
▁jedną	-12220
▁encuent	-12221
▁manchmal	-12222
▁proteins	-12223
▁rational	-12224
▁contempor	-12225
▁employees	-12226
▁وی	-12227
acyj	-12228
iasi	-12229
▁מעט	-12230
▁rode	-12231
▁باعث	-12232
illing	-12233
▁bauen	-12234
▁kreeg	-12235
▁quals	-12236
▁sapere	-12237
igkeiten	-12238
▁scienza	-12239
▁wspania	-12240
▁chimpanze	-12241
▁collaboration	-12242
azo	-12243
ville	-12244
▁nied	-12245
▁tecn	-12246
▁vive	-12247
▁ساعت	-12248
▁umano	-12249
اط	-12250
aby	-12251
▁יח	-12252
izza	-12253
ברות	-12254
▁dłu	-12255
▁שונה	-12256
iarden	-12257
▁court	-12258
▁storie	-12259
▁opinion	-12260
▁raccont	-12261
▁rapidly	-12262
▁cambridge	-12263
▁movements	-12264
zają	-12265
רונה	-12266
▁ras	-12267
▁כוח	-12268
▁נות	-12269
▁flag	-12270
▁psic	-12271
vangen	-12272
▁arten	-12273
▁senses	-12274
روس	-12275
ency	-12276
▁فرو	-12277
▁שלוש	-12278
werken	-12279
▁memor	-12280
▁vital	-12281
▁مجموع	-12282
bringen	-12283
▁sequen	-12284
▁corresp	-12285
▁designs	-12286
▁kitchen	-12287
▁sü	-12288
zech	-12289
ارية	-12290
▁kry	-12291
▁tale	-12292
▁مثلا	-12293
▁namen	-12294
▁leuten	-12295
▁אומרים	-12296
▁anticip	-12297
▁birthday	-12298
▁qualsiasi	-12299
▁possibilità	-12300
igd	-12301
arle	-12302
ליות	-12303
▁será	-12304
▁umie	-12305
▁التق	-12306
▁بهذه	-12307
▁candid	-12308
▁famiglia	-12309
▁location	-12310
גן	-12311
یط	-12312
hle	-12313
front	-12314
▁zajm	-12315
▁ciągu	-12316
▁sides	-12317
▁vidas	-12318
▁piccola	-12319
▁چیزهایی	-12320
▁southern	-12321
▁sophisticated	-12322
▁gore	-12323
▁heen	-12324
▁בואו	-12325
▁الأح	-12326
bracht	-12327
▁obten	-12328
▁rivol	-12329
▁upper	-12330
▁المال	-12331
▁السؤال	-12332
▁encoura	-12333
▁minutos	-12334
▁victims	-12335
▁studenti	-12336
▁חס	-12337
▁טי	-12338
▁يو	-12339
enses	-12340
▁gast	-12341
▁shad	-12342
▁دلار	-12343
▁soldi	-12344
▁solved	-12345
▁woorden	-12346
▁funziona	-12347
▁zichzelf	-12348
yo	-12349
ięcy	-12350
▁mim	-12351
▁rez	-12352
▁dign	-12353
▁proz	-12354
▁الأع	-12355
▁potraf	-12356
▁الجميع	-12357
▁replace	-12358
▁hersenen	-12359
▁educational	-12360
▁transportation	-12361
fol	-12362
▁ابت	-12363
odzie	-12364
▁unas	-12365
▁parti	-12366
▁schwer	-12367
▁muestra	-12368
▁cercando	-12369
▁diabetes	-12370
▁pierwsze	-12371
▁politicians	-12372
cido	-12373
fera	-12374
piej	-12375
▁השו	-12376
▁فكر	-12377
▁مسئ	-12378
entic	-12379
▁gere	-12380
▁mógł	-12381
▁shut	-12382
▁האדם	-12383
▁فيما	-12384
▁carne	-12385
▁agenda	-12386
▁midden	-12387
▁modello	-12388
▁prosper	-12389
ila	-12390
ran	-12391
نتج	-12392
نظر	-12393
▁bf	-12394
▁בחי	-12395
▁blau	-12396
▁الوح	-12397
▁مواد	-12398
▁voort	-12399
▁pollution	-12400
בט	-12401
bage	-12402
▁מול	-12403
▁bada	-12404
▁cuál	-12405
▁enth	-12406
▁nest	-12407
▁osób	-12408
▁fotos	-12409
▁الكون	-12410
▁funciona	-12411
▁voorbeeld	-12412
▁ź	-12413
جار	-12414
▁میان	-12415
hnlich	-12416
▁mogli	-12417
▁nieuw	-12418
▁popol	-12419
▁مشكلة	-12420
▁estruct	-12421
▁precies	-12422
هن	-12423
▁ואת	-12424
▁بكل	-12425
▁club	-12426
▁larg	-12427
▁mile	-12428
▁claro	-12429
▁delic	-12430
▁wspól	-12431
▁طراحی	-12432
▁camino	-12433
▁میلیون	-12434
▁selling	-12435
▁zobaczyć	-12436
▁desarrollo	-12437
וה	-12438
iec	-12439
راق	-12440
▁kü	-12441
▁łą	-12442
▁خص	-12443
iona	-12444
כלים	-12445
▁kup	-12446
▁lan	-12447
ولوژی	-12448
▁sape	-12449
heiten	-12450
▁resil	-12451
▁wieku	-12452
▁להגיע	-12453
▁regard	-12454
▁sentir	-12455
▁importa	-12456
כלה	-12457
hund	-12458
▁המא	-12459
▁الشب	-12460
▁admit	-12461
▁laser	-12462
▁الحقي	-12463
▁option	-12464
▁avrebbe	-12465
▁behavioral	-12466
▁básicamente	-12467
kami	-12468
▁فال	-12469
▁1000	-12470
▁pobl	-12471
▁تريد	-12472
▁statt	-12473
▁alzheimer	-12474
irm	-12475
atom	-12476
jemy	-12477
כולת	-12478
▁głów	-12479
▁false	-12480
▁skill	-12481
▁titan	-12482
ikaanse	-12483
▁existe	-12484
▁noemen	-12485
صال	-12486
▁رؤية	-12487
▁daarom	-12488
▁musica	-12489
▁znajdu	-12490
▁cercare	-12491
▁gobierno	-12492
ns	-12493
▁بق	-12494
esth	-12495
▁oly	-12496
inson	-12497
▁eric	-12498
▁tanz	-12499
▁כאלה	-12500
▁تاری	-12501
▁kultur	-12502
▁diverso	-12503
▁technological	-12504
ih	-12505
énd	-12506
▁fä	-12507
▁frü	-12508
▁ואי	-12509
▁לפע	-12510
▁فان	-12511
ומרים	-12512
▁dane	-12513
▁habr	-12514
▁mush	-12515
▁zona	-12516
▁sharks	-12517
▁chromos	-12518
▁industria	-12519
▁totalmente	-12520
رسی	-12521
عنا	-12522
كال	-12523
▁فك	-12524
ären	-12525
▁قدم	-12526
▁עובד	-12527
▁claim	-12528
▁risks	-12529
▁creato	-12530
▁siguiente	-12531
▁dut	-12532
▁هكذا	-12533
▁يريد	-12534
▁nacht	-12535
▁stava	-12536
▁driven	-12537
▁animali	-12538
▁progett	-12539
▁therapy	-12540
▁animales	-12541
▁carrying	-12542
▁interior	-12543
خي	-12544
wend	-12545
▁nem	-12546
▁zin	-12547
▁יחד	-12548
▁وصل	-12549
▁گوش	-12550
▁debe	-12551
▁gren	-12552
▁أصبح	-12553
opodob	-12554
▁quiere	-12555
▁النظام	-12556
▁empathy	-12557
▁ragione	-12558
▁election	-12559
▁milliarden	-12560
▁transplant	-12561
ویی	-12562
▁phr	-12563
▁شكل	-12564
▁قاد	-12565
▁ארבע	-12566
▁السب	-12567
ements	-12568
▁vagina	-12569
▁películ	-12570
▁immagini	-12571
דבר	-12572
akty	-12573
▁קרי	-12574
▁سخن	-12575
▁نصف	-12576
eremo	-12577
icios	-12578
▁eten	-12579
▁tony	-12580
estyle	-12581
terior	-12582
▁abbia	-12583
▁merav	-12584
▁muziek	-12585
▁recept	-12586
▁embargo	-12587
▁familia	-12588
▁vaccine	-12589
▁particolare	-12590
kre	-12591
▁نج	-12592
cios	-12593
cker	-12594
▁daw	-12595
▁ترت	-12596
▁دنی	-12597
▁gehe	-12598
▁homo	-12599
▁מתוך	-12600
▁تبدو	-12601
▁fragment	-12602
▁principio	-12603
jr	-12604
ilo	-12605
▁aż	-12606
ibly	-12607
äche	-12608
▁هدف	-12609
▁گذا	-12610
▁impl	-12611
▁zaken	-12612
▁forsch	-12613
▁philip	-12614
icks	-12615
reas	-12616
▁bob	-12617
▁מנת	-12618
immer	-12619
▁pant	-12620
▁sees	-12621
▁taste	-12622
▁wegen	-12623
▁comida	-12624
▁niezwy	-12625
▁comprom	-12626
▁großart	-12627
זם	-12628
ריך	-12629
واز	-12630
▁rev	-12631
abled	-12632
▁adem	-12633
▁wert	-12634
ension	-12635
▁kijkt	-12636
▁reven	-12637
▁tendr	-12638
▁howard	-12639
▁بالطبع	-12640
▁implant	-12641
▁ultimate	-12642
▁encourage	-12643
ogli	-12644
▁ucz	-12645
▁ولم	-12646
esign	-12647
scale	-12648
▁nasz	-12649
▁paio	-12650
▁علاق	-12651
system	-12652
▁devast	-12653
▁formas	-12654
▁planeet	-12655
▁reverse	-12656
▁gegevens	-12657
żli	-12658
פתח	-12659
▁בנ	-12660
▁ته	-12661
gele	-12662
stra	-12663
voll	-12664
▁gdp	-12665
lines	-12666
▁allá	-12667
▁dict	-12668
▁מתחי	-12669
▁curve	-12670
▁shame	-12671
▁انرژی	-12672
▁بیماری	-12673
▁feature	-12674
▁violent	-12675
▁awareness	-12676
▁journalist	-12677
rog	-12678
לנו	-12679
▁יע	-12680
cole	-12681
itte	-12682
صبحت	-12683
▁ate	-12684
▁کلا	-12685
▁wake	-12686
▁السا	-12687
▁شدند	-12688
▁linked	-12689
▁música	-12690
▁seinem	-12691
▁strand	-12692
▁التفكير	-12693
ekt	-12694
▁zau	-12695
▁exec	-12696
▁clase	-12697
▁nuove	-12698
▁ważne	-12699
▁وعندما	-12700
▁depends	-12701
▁mistake	-12702
▁instruct	-12703
▁komputer	-12704
▁wondering	-12705
▁circumstances	-12706
كب	-12707
aną	-12708
▁55	-12709
▁wus	-12710
▁הבא	-12711
▁عشر	-12712
▁attr	-12713
▁nome	-12714
▁אחרת	-12715
vision	-12716
▁femin	-12717
▁wicht	-12718
▁dieren	-12719
▁courage	-12720
▁maanden	-12721
▁silicon	-12722
▁hardware	-12723
sey	-12724
▁tib	-12725
▁زیر	-12726
▁خوبی	-12727
▁pensé	-12728
▁renew	-12729
▁برابر	-12730
▁member	-12731
اث	-12732
zia	-12733
ropy	-12734
wich	-12735
כונה	-12736
▁lee	-12737
▁agen	-12738
▁נשים	-12739
struct	-12740
▁notes	-12741
▁sechs	-12742
▁ماشین	-12743
▁neighbors	-12744
▁exploration	-12745
róż	-12746
بین	-12747
مار	-12748
وها	-12749
nitt	-12750
▁całe	-12751
▁nove	-12752
▁pool	-12753
▁والد	-12754
▁belle	-12755
▁phase	-12756
▁schule	-12757
▁الخلايا	-12758
حق	-12759
zens	-12760
ריים	-12761
▁דוג	-12762
▁להש	-12763
▁מהמ	-12764
▁كال	-12765
▁infl	-12766
▁obra	-12767
▁أنفس	-12768
▁breve	-12769
▁zetten	-12770
▁znaleź	-12771
▁vietnam	-12772
▁explanation	-12773
▁roy	-12774
▁כסף	-12775
▁دهم	-12776
▁عنه	-12777
▁clock	-12778
▁dobre	-12779
▁porta	-12780
▁באותו	-12781
▁الريا	-12782
▁تغيير	-12783
▁często	-12784
▁proven	-12785
▁penguins	-12786
טת	-12787
ępu	-12788
ایت	-12789
inta	-12790
▁امت	-12791
gence	-12792
▁devo	-12793
▁infer	-12794
▁liegt	-12795
▁nennen	-12796
▁szczeg	-12797
▁העבודה	-12798
▁geweest	-12799
▁educación	-12800
▁algorithms	-12801
▁discussion	-12802
▁manufacturing	-12803
óre	-12804
▁emo	-12805
▁أرد	-12806
▁biod	-12807
▁jung	-12808
▁kamp	-12809
▁vroe	-12810
▁מתכו	-12811
ologie	-12812
ondere	-12813
▁forza	-12814
▁robić	-12815
▁motivo	-12816
▁يمكنكم	-12817
▁anderes	-12818
▁bewusst	-12819
▁uiteindelijk	-12820
וסר	-12821
اتي	-12822
arme	-12823
▁vit	-12824
▁לפי	-12825
▁תוך	-12826
accia	-12827
alled	-12828
▁byłem	-12829
▁قانون	-12830
▁kobiet	-12831
▁respir	-12832
▁sagten	-12833
▁script	-12834
▁teleph	-12835
▁العاده	-12836
▁disgust	-12837
▁hablando	-12838
▁relative	-12839
▁increased	-12840
▁cambiamento	-12841
agę	-12842
iop	-12843
ויי	-12844
▁ling	-12845
▁ogen	-12846
▁betre	-12847
▁quell	-12848
▁staff	-12849
▁stere	-12850
▁تجربه	-12851
▁نحتاج	-12852
▁burning	-12853
▁kontrol	-12854
▁aprender	-12855
▁zrozumie	-12856
▁geschichten	-12857
gd	-12858
ße	-12859
wną	-12860
קור	-12861
▁ath	-12862
▁خودش	-12863
▁added	-12864
▁noche	-12865
▁wired	-12866
▁normale	-12867
▁conservation	-12868
▁gesellschaft	-12869
uce	-12870
רוע	-12871
فاع	-12872
مله	-12873
ieht	-12874
zahl	-12875
▁alb	-12876
▁obt	-12877
leben	-12878
▁klar	-12879
▁rząd	-12880
▁בטוח	-12881
▁diver	-12882
▁bedrijf	-12883
zm	-12884
▁tą	-12885
bild	-12886
▁alc	-12887
▁wyb	-12888
▁אפש	-12889
▁מדע	-12890
بيوتر	-12891
▁خانو	-12892
▁review	-12893
▁steven	-12894
▁activities	-12895
gno	-12896
هنگ	-12897
ورك	-12898
▁jum	-12899
▁unc	-12900
▁מהר	-12901
▁anst	-12902
▁bicy	-12903
▁tief	-12904
▁gesam	-12905
▁verke	-12906
▁بیشتری	-12907
▁protest	-12908
▁accurate	-12909
▁chiamato	-12910
▁prepared	-12911
▁historias	-12912
یف	-12913
arzy	-12914
ilen	-12915
ollar	-12916
▁cord	-12917
▁cards	-12918
▁horas	-12919
▁hunger	-12920
▁minuti	-12921
▁passato	-12922
▁interests	-12923
▁entwickelt	-12924
▁destruction	-12925
ajo	-12926
hlt	-12927
chos	-12928
▁והת	-12929
▁מים	-12930
▁سعی	-12931
▁icon	-12932
▁penn	-12933
▁الدا	-12934
▁السر	-12935
▁بدلا	-12936
▁brein	-12937
▁dokład	-12938
▁filter	-12939
▁krijgt	-12940
▁mädchen	-12941
▁seconda	-12942
▁רב	-12943
▁fen	-12944
▁קיי	-12945
▁תוכ	-12946
▁دوم	-12947
▁نیز	-12948
uster	-12949
▁sied	-12950
▁סביב	-12951
▁مجال	-12952
▁vuole	-12953
▁wykon	-12954
▁دنبال	-12955
▁متوجه	-12956
▁volume	-12957
▁controlled	-12958
▁meaningful	-12959
aupt	-12960
being	-12961
ficos	-12962
▁jedy	-12963
▁ruch	-12964
▁tast	-12965
▁محیط	-12966
▁نريد	-12967
▁בעזרת	-12968
▁שיכול	-12969
▁مدرسه	-12970
▁przesz	-12971
▁להראות	-12972
▁erkennen	-12973
▁geworden	-12974
▁gustaría	-12975
▁indietro	-12976
▁medicina	-12977
aza	-12978
ומת	-12979
طلب	-12980
rass	-12981
▁معد	-12982
▁2011	-12983
▁houd	-12984
▁feite	-12985
▁obraz	-12986
▁spieg	-12987
▁לעבוד	-12988
▁rocket	-12989
▁wunder	-12990
▁zmienia	-12991
▁bü	-12992
czes	-12993
نتاج	-12994
ücken	-12995
▁cath	-12996
▁kopf	-12997
▁sacr	-12998
▁anten	-12999
▁evalu	-13000
▁inject	-13001
▁combine	-13002
▁powinni	-13003
▁duidelijk	-13004
פא	-13005
lang	-13006
فكار	-13007
همية	-13008
▁toy	-13009
ggere	-13010
▁mary	-13011
▁refr	-13012
▁capit	-13013
▁diret	-13014
▁luogo	-13015
▁gehört	-13016
▁factors	-13017
▁الإنسان	-13018
▁internal	-13019
▁comunidad	-13020
izm	-13021
ליה	-13022
وبة	-13023
▁להח	-13024
▁قلب	-13025
▁هنگ	-13026
▁marc	-13027
▁reun	-13028
▁מבחי	-13029
▁plans	-13030
▁تصمیم	-13031
▁mismos	-13032
▁collapse	-13033
▁gentlemen	-13034
äu	-13035
odu	-13036
olt	-13037
whel	-13038
▁kir	-13039
▁صدا	-13040
build	-13041
▁تحقی	-13042
▁derek	-13043
▁línea	-13044
▁amigos	-13045
▁خواهید	-13046
▁defined	-13047
▁quarter	-13048
▁różnych	-13049
▁zaczyna	-13050
▁المشكلة	-13051
يي	-13052
thr	-13053
iliz	-13054
▁پشت	-13055
▁bono	-13056
▁lake	-13057
▁היחי	-13058
▁minor	-13059
▁zorgen	-13060
▁overwhel	-13061
▁transfer	-13062
جي	-13063
ופו	-13064
ابق	-13065
▁طب	-13066
▁ترى	-13067
▁سیا	-13068
▁جنوب	-13069
▁lucht	-13070
▁پروژه	-13071
iedenis	-13072
▁gebouw	-13073
▁regener	-13074
▁scratch	-13075
▁sentito	-13076
▁recorded	-13077
▁sociedad	-13078
▁ancestors	-13079
yth	-13080
جان	-13081
alne	-13082
▁champ	-13083
▁olymp	-13084
▁orbit	-13085
▁persu	-13086
ramient	-13087
▁falling	-13088
▁quieren	-13089
▁combination	-13090
▁شع	-13091
aven	-13092
what	-13093
▁درک	-13094
alten	-13095
▁cabe	-13096
▁تلاش	-13097
▁منهم	-13098
▁keeps	-13099
▁topic	-13100
▁naszej	-13101
▁اقتصاد	-13102
▁singing	-13103
▁interesse	-13104
ęb	-13105
▁آش	-13106
נסות	-13107
▁بلا	-13108
▁cock	-13109
▁mini	-13110
▁ultr	-13111
▁בבית	-13112
▁أعرف	-13113
▁hören	-13114
▁واقعی	-13115
icznych	-13116
▁משמעות	-13117
▁abandon	-13118
▁intorno	-13119
اع	-13120
lag	-13121
וצה	-13122
משי	-13123
▁lös	-13124
▁tyle	-13125
umenti	-13126
▁dagen	-13127
▁enkel	-13128
▁hijos	-13129
▁recyc	-13130
▁אמרתי	-13131
▁drives	-13132
▁maakte	-13133
▁namens	-13134
▁funding	-13135
80	-13136
ضة	-13137
ähr	-13138
▁ופ	-13139
▁تيد	-13140
▁bull	-13141
▁hide	-13142
▁zoom	-13143
making	-13144
▁beide	-13145
kolwiek	-13146
▁بسیاری	-13147
▁afterno	-13148
▁amounts	-13149
וגי	-13150
ieni	-13151
agers	-13152
▁pied	-13153
▁stehen	-13154
▁cooking	-13155
▁piccoli	-13156
▁publiek	-13157
▁occurred	-13158
▁encounter	-13159
▁collection	-13160
▁herramient	-13161
▁fundamentally	-13162
أل	-13163
ترك	-13164
anth	-13165
keys	-13166
▁lov	-13167
▁bios	-13168
czucie	-13169
▁mózgu	-13170
▁rozwiąz	-13171
▁besonders	-13172
مم	-13173
סיה	-13174
▁هند	-13175
▁ello	-13176
▁leuk	-13177
▁الحك	-13178
▁نفسه	-13179
▁strip	-13180
▁سرطان	-13181
▁pulled	-13182
▁existen	-13183
▁trovato	-13184
▁geweldig	-13185
cope	-13186
▁הרי	-13187
▁gebä	-13188
▁nikt	-13189
▁próx	-13190
▁tank	-13191
▁دریا	-13192
▁زبان	-13193
▁هزار	-13194
▁globe	-13195
▁لديها	-13196
▁cancro	-13197
▁remain	-13198
▁spider	-13199
▁deshalb	-13200
▁soorten	-13201
▁paradigm	-13202
ביא	-13203
▁là	-13204
נטים	-13205
▁cio	-13206
▁oké	-13207
▁gelu	-13208
▁split	-13209
▁worlds	-13210
▁consult	-13211
▁defense	-13212
▁mercato	-13213
▁opnieuw	-13214
▁podrían	-13215
▁surgeon	-13216
▁infected	-13217
▁mondiale	-13218
▁informationen	-13219
ír	-13220
نون	-13221
ويل	-13222
armi	-13223
itas	-13224
uper	-13225
well	-13226
▁מבו	-13227
▁שמי	-13228
▁gosp	-13229
▁josh	-13230
▁tsun	-13231
▁zami	-13232
▁الجز	-13233
▁ought	-13234
▁signs	-13235
▁formed	-13236
▁indien	-13237
▁outcome	-13238
▁sunlight	-13239
▁właściwie	-13240
▁kb	-13241
ched	-13242
elas	-13243
rost	-13244
▁بسر	-13245
▁کلی	-13246
▁2002	-13247
▁kong	-13248
▁stel	-13249
▁gusta	-13250
▁reale	-13251
▁stell	-13252
rachten	-13253
▁rápido	-13254
▁storyt	-13255
▁geboren	-13256
▁religions	-13257
▁spiritual	-13258
▁literature	-13259
wis	-13260
בנה	-13261
خته	-13262
▁mama	-13263
▁teor	-13264
ternal	-13265
▁scott	-13266
▁גדולה	-13267
▁שאנשים	-13268
▁framework	-13269
▁أث	-13270
▁گی	-13271
▁wah	-13272
▁שמו	-13273
▁بیا	-13274
iture	-13275
▁escr	-13276
▁razy	-13277
▁toll	-13278
▁vort	-13279
▁costo	-13280
▁moore	-13281
▁flowers	-13282
▁glamour	-13283
▁mettere	-13284
▁manifest	-13285
▁verändern	-13286
▁participate	-13287
▁پد	-13288
lagen	-13289
reven	-13290
▁gray	-13291
▁يجعل	-13292
▁אוקיי	-13293
▁العلم	-13294
▁نهاية	-13295
▁negoti	-13296
▁records	-13297
▁dramatic	-13298
▁נש	-13299
enso	-13300
▁rum	-13301
עילות	-13302
▁lage	-13303
▁modi	-13304
▁stun	-13305
▁tape	-13306
▁vond	-13307
▁kamen	-13308
▁deaths	-13309
▁genius	-13310
▁zeiden	-13311
▁treating	-13312
▁authority	-13313
▁cominciato	-13314
si	-13315
گفت	-13316
cola	-13317
roph	-13318
stel	-13319
▁קרו	-13320
▁بند	-13321
▁puoi	-13322
▁כיום	-13323
isters	-13324
▁roads	-13325
▁toxic	-13326
▁وبالت	-13327
▁nuevas	-13328
▁simplic	-13329
▁technique	-13330
zar	-13331
זרה	-13332
ياس	-13333
mber	-13334
خصوص	-13335
▁niej	-13336
▁tack	-13337
▁ترون	-13338
nienia	-13339
▁crick	-13340
▁opowi	-13341
▁שנקרא	-13342
▁propag	-13343
▁largely	-13344
▁verhalen	-13345
דן	-13346
fft	-13347
▁תש	-13348
▁آف	-13349
ירות	-13350
يران	-13351
schap	-13352
טיפול	-13353
▁permet	-13354
▁seguir	-13355
▁mechanical	-13356
حظة	-13357
صاب	-13358
یدی	-13359
▁kro	-13360
enken	-13361
views	-13362
▁część	-13363
▁testa	-13364
▁اعتقد	-13365
▁عملية	-13366
▁operate	-13367
▁diventare	-13368
▁embarrass	-13369
▁economists	-13370
▁presentation	-13371
alo	-13372
▁هز	-13373
erto	-13374
▁صنع	-13375
▁عدة	-13376
▁cres	-13377
▁geval	-13378
▁نداشت	-13379
▁recurs	-13380
▁المكان	-13381
▁closely	-13382
▁najwięks	-13383
▁economist	-13384
▁هی	-13385
▁خبر	-13386
nisse	-13387
▁dorm	-13388
▁gulf	-13389
▁jose	-13390
▁netz	-13391
▁assol	-13392
▁masch	-13393
▁quadr	-13394
▁patiën	-13395
▁sample	-13396
▁tratar	-13397
▁habitat	-13398
▁appropriate	-13399
ברו	-13400
טית	-13401
رده	-13402
فضل	-13403
▁pá	-13404
▁حض	-13405
enni	-13406
▁reh	-13407
▁eggs	-13408
▁głow	-13409
▁małe	-13410
▁oben	-13411
▁sets	-13412
▁السن	-13413
▁czyli	-13414
▁embed	-13415
▁infant	-13416
▁każdego	-13417
▁mushroom	-13418
▁rispetto	-13419
▁التكنولوجيا	-13420
כך	-13421
קרו	-13422
رسة	-13423
ille	-13424
▁reb	-13425
alian	-13426
▁aufg	-13427
▁glad	-13428
▁używ	-13429
▁تقری	-13430
▁wider	-13431
▁dropped	-13432
▁atención	-13433
▁infinite	-13434
▁vehicles	-13435
▁trabajando	-13436
▁unexpected	-13437
היו	-13438
▁يخ	-13439
▁cot	-13440
▁imá	-13441
▁قلت	-13442
▁zbyt	-13443
▁membr	-13444
▁length	-13445
▁newton	-13446
▁począt	-13447
ographer	-13448
▁finance	-13449
▁architects	-13450
▁electronic	-13451
▁cd	-13452
▁zde	-13453
▁متش	-13454
ieniu	-13455
▁sint	-13456
▁حياة	-13457
▁napis	-13458
▁regel	-13459
▁hoping	-13460
▁perciò	-13461
▁neurolog	-13462
▁geographic	-13463
▁philosophy	-13464
قيق	-13465
icia	-13466
▁نزد	-13467
▁aggi	-13468
▁bike	-13469
▁irre	-13470
▁sale	-13471
▁מאות	-13472
▁درون	-13473
▁roots	-13474
▁shell	-13475
▁تصویر	-13476
▁gender	-13477
▁reached	-13478
▁الصغيرة	-13479
▁gebeuren	-13480
▁wondered	-13481
▁increíble	-13482
▁traveling	-13483
▁physically	-13484
usi	-13485
واج	-13486
▁فت	-13487
zept	-13488
▁appr	-13489
▁mogl	-13490
▁pair	-13491
▁distur	-13492
▁últimos	-13493
▁somewhat	-13494
▁33	-13495
▁فض	-13496
agna	-13497
greg	-13498
▁haw	-13499
▁לפת	-13500
▁שמש	-13501
▁stos	-13502
▁uczy	-13503
▁ontmo	-13504
▁shark	-13505
▁catast	-13506
▁demasi	-13507
▁bereits	-13508
▁copyright	-13509
▁erreichen	-13510
▁applications	-13511
uck	-13512
حاء	-13513
jący	-13514
▁ההי	-13515
▁ניס	-13516
▁auss	-13517
▁duur	-13518
▁ears	-13519
▁trig	-13520
▁determin	-13521
▁لب	-13522
▁لش	-13523
▁توس	-13524
▁estás	-13525
▁liver	-13526
▁whist	-13527
▁الامر	-13528
▁debería	-13529
▁público	-13530
▁imágenes	-13531
ikt	-13532
▁يس	-13533
▁שמא	-13534
▁לדעת	-13535
▁doubt	-13536
▁jedna	-13537
▁میکنم	-13538
▁halten	-13539
▁afternoon	-13540
▁incredibile	-13541
zzi	-13542
عنی	-13543
لاح	-13544
▁dy	-13545
▁آر	-13546
▁raw	-13547
▁إست	-13548
▁احد	-13549
▁ينب	-13550
▁sytu	-13551
▁zbud	-13552
▁جيدة	-13553
▁bronx	-13554
▁datab	-13555
▁künst	-13556
▁الأمور	-13557
▁benutzen	-13558
▁instinct	-13559
▁struttura	-13560
▁differenza	-13561
▁potentially	-13562
حص	-13563
bas	-13564
זון	-13565
كتب	-13566
وجب	-13567
amma	-13568
ingt	-13569
izin	-13570
remos	-13571
zeich	-13572
▁جوان	-13573
▁passen	-13574
▁decline	-13575
▁parallel	-13576
▁wcześniej	-13577
▁productive	-13578
▁أر	-13579
▁زي	-13580
▁نخ	-13581
pher	-13582
wohl	-13583
dollar	-13584
▁henry	-13585
▁الصين	-13586
▁vertra	-13587
▁הולכים	-13588
▁parking	-13589
▁tonight	-13590
▁protected	-13591
▁selection	-13592
▁diferencia	-13593
ady	-13594
שימה	-13595
▁sty	-13596
▁byli	-13597
▁fake	-13598
▁ipod	-13599
▁jane	-13600
▁thin	-13601
▁بحيث	-13602
▁طبيع	-13603
▁antar	-13604
▁brian	-13605
▁cuest	-13606
▁ללמוד	-13607
hundert	-13608
▁beiden	-13609
▁boring	-13610
▁equipo	-13611
▁modelo	-13612
▁russia	-13613
▁salute	-13614
▁contrast	-13615
▁memories	-13616
▁migliaia	-13617
زند	-13618
▁بس	-13619
▁وش	-13620
iable	-13621
ساسية	-13622
ettere	-13623
▁maxim	-13624
▁acting	-13625
▁overal	-13626
▁permit	-13627
▁poprze	-13628
▁teilen	-13629
▁vooral	-13630
▁clothes	-13631
▁remains	-13632
connected	-13633
▁subjects	-13634
▁footprint	-13635
נע	-13636
izio	-13637
illas	-13638
▁feit	-13639
▁joke	-13640
▁milk	-13641
▁decre	-13642
▁grate	-13643
▁morte	-13644
▁verte	-13645
▁prawda	-13646
▁occasion	-13647
aki	-13648
zcz	-13649
ظمة	-13650
▁rb	-13651
wczy	-13652
aming	-13653
▁adop	-13654
▁limb	-13655
▁ללכת	-13656
▁deden	-13657
▁הבעיה	-13658
▁andrew	-13659
▁gospod	-13660
▁stelle	-13661
▁theore	-13662
▁governo	-13663
cano	-13664
سيقى	-13665
ينات	-13666
▁והי	-13667
▁מתי	-13668
▁بان	-13669
ching	-13670
▁wort	-13671
סטוריה	-13672
▁lengu	-13673
▁dovuto	-13674
▁obecnie	-13675
▁publicz	-13676
▁messages	-13677
▁functions	-13678
▁challenging	-13679
▁מעל	-13680
▁janu	-13681
▁plek	-13682
▁القص	-13683
adoras	-13684
▁alien	-13685
▁matem	-13686
▁مقابل	-13687
▁każdym	-13688
▁musste	-13689
▁parado	-13690
▁chiesto	-13691
▁frankly	-13692
▁wherever	-13693
▁entertainment	-13694
bai	-13695
óry	-13696
مسة	-13697
nger	-13698
part	-13699
▁זוכ	-13700
▁ages	-13701
▁gott	-13702
▁guar	-13703
▁brook	-13704
▁desaf	-13705
▁llama	-13706
▁ascolt	-13707
▁monkey	-13708
▁florida	-13709
▁younger	-13710
▁existing	-13711
▁instruments	-13712
▁verschiedene	-13713
iev	-13714
فية	-13715
▁קר	-13716
iore	-13717
▁שבע	-13718
▁שהמ	-13719
▁پیچ	-13720
▁geïn	-13721
▁powie	-13722
▁german	-13723
▁hätten	-13724
▁federal	-13725
▁pensamos	-13726
orto	-13727
ählt	-13728
טיבי	-13729
סתכל	-13730
▁مبا	-13731
atico	-13732
iveau	-13733
▁głos	-13734
▁خوان	-13735
▁dirig	-13736
▁plate	-13737
▁reson	-13738
▁השנים	-13739
▁faccio	-13740
▁ostatn	-13741
▁rechts	-13742
▁sozial	-13743
▁energii	-13744
▁engaged	-13745
▁disposit	-13746
▁features	-13747
▁released	-13748
בא	-13749
▁cic	-13750
▁odw	-13751
jeron	-13752
▁apro	-13753
▁mózg	-13754
▁till	-13755
father	-13756
▁chocolate	-13757
هل	-13758
łym	-13759
بور	-13760
ucin	-13761
▁اید	-13762
▁fals	-13763
▁hulp	-13764
▁آورد	-13765
▁avanz	-13766
▁końcu	-13767
▁lista	-13768
▁dialog	-13769
▁económ	-13770
▁humana	-13771
▁dancing	-13772
▁diagram	-13773
▁fondament	-13774
▁podríamos	-13775
▁mt	-13776
▁כנ	-13777
hour	-13778
שינו	-13779
▁صنا	-13780
▁entf	-13781
▁depth	-13782
▁figli	-13783
▁numer	-13784
▁بينما	-13785
▁جامعه	-13786
▁fisher	-13787
▁machte	-13788
▁sprzed	-13789
▁affront	-13790
▁manipul	-13791
▁microbes	-13792
▁qualunque	-13793
ترل	-13794
kcji	-13795
orse	-13796
▁bele	-13797
▁وذلك	-13798
▁rooms	-13799
▁وهناك	-13800
▁portra	-13801
cription	-13802
▁conferen	-13803
▁manieren	-13804
▁identific	-13805
▁greenhouse	-13806
ulo	-13807
▁حالة	-13808
▁شركة	-13809
▁ayuda	-13810
▁descr	-13811
▁exped	-13812
▁państ	-13813
▁spont	-13814
▁القرن	-13815
▁ساخته	-13816
▁bakter	-13817
▁creëren	-13818
rad	-13819
تين	-13820
ilit	-13821
שיתי	-13822
▁سنت	-13823
▁مدى	-13824
ieten	-13825
▁imit	-13826
▁lets	-13827
▁piac	-13828
▁pref	-13829
▁رائع	-13830
▁sanit	-13831
▁advice	-13832
▁llamada	-13833
▁tracking	-13834
▁resistance	-13835
▁investigación	-13836
قص	-13837
año	-13838
▁قل	-13839
ikes	-13840
▁athe	-13841
▁busy	-13842
▁leon	-13843
▁یعنی	-13844
▁boxes	-13845
▁uitge	-13846
▁expans	-13847
▁slides	-13848
▁mejores	-13849
▁combined	-13850
▁digitale	-13851
▁transformed	-13852
▁شی	-13853
llig	-13854
otti	-13855
ובות	-13856
▁تمر	-13857
▁قصة	-13858
▁oude	-13859
inction	-13860
▁vivere	-13861
▁chirurg	-13862
▁rzeczywisto	-13863
▁geschiedenis	-13864
ئی	-13865
har	-13866
גרים	-13867
▁furn	-13868
▁noem	-13869
▁label	-13870
▁writer	-13871
▁dachten	-13872
▁الإنترنت	-13873
▁standards	-13874
▁jeż	-13875
▁לסי	-13876
ownik	-13877
▁clay	-13878
▁mate	-13879
▁العم	-13880
▁کمتر	-13881
▁dicen	-13882
▁pharm	-13883
▁الصور	-13884
▁dostęp	-13885
▁gelukk	-13886
▁الطريق	-13887
▁stronger	-13888
▁المستقبل	-13889
▁component	-13890
חן	-13891
نف	-13892
200	-13893
ike	-13894
iner	-13895
orde	-13896
▁عدم	-13897
onald	-13898
ureau	-13899
▁heet	-13900
▁actions	-13901
▁conclus	-13902
▁centuries	-13903
▁reference	-13904
ím	-13905
ersi	-13906
ופים	-13907
▁ink	-13908
▁rio	-13909
▁bath	-13910
▁sinn	-13911
▁בעיה	-13912
▁נמצא	-13913
▁cento	-13914
▁تقریبا	-13915
▁monkeys	-13916
▁przekon	-13917
▁determine	-13918
▁conclusion	-13919
▁entrepreneur	-13920
xide	-13921
▁océ	-13922
▁התע	-13923
▁להר	-13924
▁מרו	-13925
▁بنفس	-13926
▁جواب	-13927
istics	-13928
▁darin	-13929
▁esatt	-13930
▁pyram	-13931
▁steht	-13932
niejsze	-13933
▁embrace	-13934
▁concrete	-13935
▁measured	-13936
▁pequeños	-13937
▁prawdopodob	-13938
▁technologii	-13939
yd	-13940
לון	-13941
▁ib	-13942
▁רג	-13943
woluc	-13944
▁jail	-13945
▁całym	-13946
▁ernst	-13947
▁الشمس	-13948
▁preced	-13949
▁fingers	-13950
▁komplex	-13951
▁unknown	-13952
▁احتمالا	-13953
▁confidence	-13954
▁rappresent	-13955
öff	-13956
▁أنك	-13957
▁حما	-13958
▁cave	-13959
▁konk	-13960
▁rent	-13961
▁seed	-13962
issimo	-13963
▁cents	-13964
▁lying	-13965
▁bilder	-13966
▁saturn	-13967
▁teoria	-13968
▁estudiantes	-13969
eto	-13970
isi	-13971
ایش	-13972
طية	-13973
▁lux	-13974
▁ذهن	-13975
▁nose	-13976
▁wcią	-13977
▁المل	-13978
▁intim	-13979
▁טובים	-13980
▁handle	-13981
▁pozost	-13982
▁rozwij	-13983
▁sposob	-13984
▁verbre	-13985
aneously	-13986
▁accompl	-13987
▁earthqu	-13988
▁empezar	-13989
▁implications	-13990
ابد	-13991
▁پذ	-13992
▁پاس	-13993
▁amor	-13994
▁rush	-13995
▁להצי	-13996
▁derde	-13997
▁siglo	-13998
▁wpływ	-13999
▁پایین	-14000
▁legisl	-14001
▁medida	-14002
▁rwanda	-14003
▁vanuit	-14004
▁מיליארד	-14005
▁villages	-14006
▁explained	-14007
▁esattamente	-14008
עיל	-14009
onic	-14010
▁jac	-14011
▁łat	-14012
▁بهم	-14013
▁życiu	-14014
▁مقدار	-14015
cciones	-14016
▁arriba	-14017
▁clouds	-14018
▁contar	-14019
▁regions	-14020
▁tsunami	-14021
▁milionów	-14022
▁continued	-14023
▁kilometer	-14024
اتی	-14025
agon	-14026
וצאה	-14027
▁והמ	-14028
▁معت	-14029
▁lecz	-14030
▁rose	-14031
▁زنان	-14032
▁alsof	-14033
▁amici	-14034
▁stack	-14035
▁robotic	-14036
▁comunque	-14037
▁contamin	-14038
▁illusion	-14039
▁exactamente	-14040
דל	-14041
▁عد	-14042
rich	-14043
▁jes	-14044
▁בכך	-14045
▁خطر	-14046
licht	-14047
▁benj	-14048
▁opow	-14049
▁climb	-14050
▁السبب	-14051
▁classic	-14052
▁council	-14053
▁extinct	-14054
▁housing	-14055
▁stephen	-14056
▁economia	-14057
▁29	-14058
▁יל	-14059
ints	-14060
kant	-14061
گیری	-14062
▁הלי	-14063
▁מהא	-14064
▁resc	-14065
▁sage	-14066
▁sobą	-14067
▁فیلم	-14068
▁להפוך	-14069
▁sensor	-14070
▁szybko	-14071
▁badania	-14072
▁estudio	-14073
▁intense	-14074
▁islands	-14075
▁widzicie	-14076
▁telescope	-14077
גת	-14078
ודי	-14079
ורק	-14080
owana	-14081
▁nick	-14082
▁کنار	-14083
▁empie	-14084
▁gerne	-14085
▁grain	-14086
▁immun	-14087
▁insul	-14088
▁output	-14089
▁options	-14090
▁overall	-14091
▁solving	-14092
▁concepts	-14093
▁grateful	-14094
▁required	-14095
▁superior	-14096
isy	-14097
ريكا	-14098
▁beob	-14099
▁thum	-14100
▁ينبغي	-14101
▁gruppe	-14102
▁wystar	-14103
▁airport	-14104
▁fishing	-14105
▁presente	-14106
شاء	-14107
hler	-14108
▁ooh	-14109
▁wyt	-14110
▁chce	-14111
▁cree	-14112
▁fern	-14113
▁apare	-14114
▁buona	-14115
▁veter	-14116
▁virtu	-14117
▁acuerdo	-14118
▁figures	-14119
▁التعليم	-14120
cam	-14121
óch	-14122
immt	-14123
plan	-14124
▁sze	-14125
▁ומת	-14126
▁audio	-14127
▁dilem	-14128
▁grond	-14129
▁nazyw	-14130
▁rozpo	-14131
▁songs	-14132
▁spost	-14133
▁veren	-14134
▁versu	-14135
▁درمان	-14136
▁chiama	-14137
▁clinic	-14138
▁fright	-14139
▁gefühl	-14140
▁sphere	-14141
▁أستطيع	-14142
▁einzige	-14143
▁evening	-14144
▁resulta	-14145
▁تکنولوژی	-14146
▁terrorism	-14147
קן	-14148
בתי	-14149
▁רע	-14150
▁wiz	-14151
usias	-14152
▁kern	-14153
▁tant	-14154
▁לספר	-14155
▁נכנס	-14156
erebbe	-14157
▁cable	-14158
glichen	-14159
▁escuch	-14160
▁verspre	-14161
هي	-14162
ייד	-14163
sein	-14164
▁ani	-14165
itors	-14166
▁2050	-14167
▁acts	-14168
▁arqu	-14169
▁fizy	-14170
▁tube	-14171
▁éste	-14172
▁ادام	-14173
ibyśmy	-14174
▁actor	-14175
▁bemer	-14176
▁pasar	-14177
▁pueda	-14178
▁thick	-14179
▁انگیز	-14180
▁anonym	-14181
▁naszym	-14182
▁wydaje	-14183
▁illegal	-14184
▁poprzez	-14185
▁swimming	-14186
▁dimension	-14187
llt	-14188
מתי	-14189
aire	-14190
▁והא	-14191
▁קרה	-14192
▁منكم	-14193
▁گونه	-14194
acular	-14195
▁dwóch	-14196
▁rhyth	-14197
▁style	-14198
▁vertr	-14199
▁puzzle	-14200
▁relate	-14201
▁concert	-14202
▁المجتمع	-14203
▁baseball	-14204
erem	-14205
כולם	-14206
▁350	-14207
▁מנה	-14208
▁שיה	-14209
accio	-14210
ależy	-14211
iałem	-14212
▁ober	-14213
▁seks	-14214
▁لحظه	-14215
▁jedem	-14216
▁kraju	-14217
▁therm	-14218
▁الرئي	-14219
▁eerder	-14220
▁eradic	-14221
▁wszech	-14222
▁último	-14223
▁الأمري	-14224
▁توانند	-14225
▁aggress	-14226
▁wiadomo	-14227
▁economía	-14228
▁presence	-14229
▁biodivers	-14230
▁prototype	-14231
▁attenzione	-14232
allo	-14233
מנים	-14234
▁wes	-14235
▁bond	-14236
▁doel	-14237
▁talib	-14238
▁bedoel	-14239
▁facial	-14240
▁bestaat	-14241
▁mystery	-14242
▁stworzyć	-14243
▁processing	-14244
سد	-14245
▁37	-14246
agne	-14247
acion	-14248
rogen	-14249
▁catal	-14250
▁oxyto	-14251
▁przes	-14252
▁כולנו	-14253
▁severe	-14254
▁stands	-14255
▁consequ	-14256
▁خانواده	-14257
▁straordin	-14258
ייקט	-14259
▁במח	-14260
aceut	-14261
esome	-14262
▁abra	-14263
▁seis	-14264
▁summ	-14265
▁الكم	-14266
▁وبال	-14267
▁title	-14268
▁שלושה	-14269
▁ادامه	-14270
▁الماء	-14271
▁dicono	-14272
▁volevo	-14273
▁לחלוטין	-14274
▁imparare	-14275
▁unglaublich	-14276
▁unternehmen	-14277
▁naturalmente	-14278
ries	-14279
علام	-14280
▁gor	-14281
▁mapp	-14282
▁sean	-14283
▁شگفت	-14284
▁wings	-14285
▁مستوى	-14286
▁microbi	-14287
▁unclear	-14288
▁underwater	-14289
-19	-14290
emi	-14291
imet	-14292
wość	-14293
רצות	-14294
▁כלל	-14295
▁توی	-14296
▁صرف	-14297
پیوتر	-14298
▁loud	-14299
▁ساله	-14300
▁השאלה	-14301
iciones	-14302
▁50,000	-14303
▁divide	-14304
▁excell	-14305
▁frente	-14306
▁rivers	-14307
▁toilet	-14308
▁oportunidad	-14309
جن	-14310
iaj	-14311
▁فق	-14312
רופה	-14313
▁bau	-14314
▁beb	-14315
▁klin	-14316
▁prue	-14317
▁pupp	-14318
▁fract	-14319
▁mojej	-14320
▁preso	-14321
▁افتاد	-14322
▁pocket	-14323
▁remove	-14324
▁neither	-14325
▁crescita	-14326
קשר	-14327
ينا	-14328
unku	-14329
▁dust	-14330
▁vivo	-14331
▁לדוג	-14332
▁bones	-14333
▁dress	-14334
▁usual	-14335
▁valor	-14336
▁میکنه	-14337
▁deploy	-14338
▁dispar	-14339
▁impres	-14340
▁tenían	-14341
▁mercado	-14342
ואר	-14343
ابی	-14344
▁שצ	-14345
ivas	-14346
oust	-14347
جهزة	-14348
▁iba	-14349
▁ilo	-14350
▁tér	-14351
▁utr	-14352
▁تقل	-14353
▁aire	-14354
▁desk	-14355
▁بالإ	-14356
▁بیمار	-14357
▁causing	-14358
▁lifestyle	-14359
▁appreciate	-14360
نها	-14361
▁ade	-14362
▁איש	-14363
▁מני	-14364
▁بحا	-14365
opher	-14366
▁flip	-14367
▁musi	-14368
▁עצמי	-14369
▁معنا	-14370
▁מדהים	-14371
▁ayudar	-14372
▁france	-14373
▁promot	-14374
▁careful	-14375
▁recording	-14376
▁interactive	-14377
vv	-14378
uso	-14379
óst	-14380
▁خي	-14381
▁sms	-14382
▁aper	-14383
▁axis	-14384
▁abajo	-14385
▁dozen	-14386
▁posib	-14387
▁przej	-14388
▁soviet	-14389
▁tricks	-14390
▁الممكن	-14391
imientos	-14392
▁reinvent	-14393
▁romantic	-14394
▁meravigli	-14395
▁narrative	-14396
▁möglichkeit	-14397
oce	-14398
▁מכם	-14399
▁مخت	-14400
child	-14401
comes	-14402
▁aand	-14403
▁retr	-14404
▁taal	-14405
▁taus	-14406
▁abund	-14407
▁truck	-14408
quality	-14409
▁kształ	-14410
▁proport	-14411
▁dovremmo	-14412
▁measuring	-14413
▁statement	-14414
כני	-14415
وست	-14416
▁وظ	-14417
kańs	-14418
▁cia	-14419
▁jue	-14420
▁mcd	-14421
▁dish	-14422
▁راست	-14423
▁común	-14424
▁ethiop	-14425
▁papers	-14426
▁braucht	-14427
▁curiosity	-14428
▁disorders	-14429
שם	-14430
kan	-14431
ופר	-14432
לול	-14433
امت	-14434
loed	-14435
oint	-14436
▁10-	-14437
▁jew	-14438
▁spel	-14439
▁uitd	-14440
▁zatem	-14441
▁besten	-14442
▁degrad	-14443
▁sucede	-14444
▁stunden	-14445
abilities	-14446
▁migliori	-14447
▁onderwijs	-14448
▁conventional	-14449
▁sustainability	-14450
athan	-14451
▁aria	-14452
▁רבות	-14453
nością	-14454
▁bombs	-14455
▁eruit	-14456
▁queen	-14457
▁capita	-14458
▁estrem	-14459
▁latest	-14460
▁pronto	-14461
▁zastan	-14462
▁equally	-14463
▁hicimos	-14464
▁vertical	-14465
▁providing	-14466
▁astonishing	-14467
▁distributed	-14468
fi	-14469
awi	-14470
عدة	-14471
▁cup	-14472
▁צעי	-14473
punkt	-14474
▁נעשה	-14475
▁קודם	-14476
▁موسی	-14477
▁نکرد	-14478
▁krebs	-14479
▁massa	-14480
▁שינוי	-14481
▁repair	-14482
▁secolo	-14483
▁المزيد	-14484
▁awesome	-14485
▁johnson	-14486
▁miejsca	-14487
▁będziemy	-14488
▁disorder	-14489
▁transmit	-14490
▁innerhalb	-14491
acc	-14492
ensa	-14493
irse	-14494
orous	-14495
▁لازم	-14496
▁aplic	-14497
▁atrás	-14498
▁evolve	-14499
▁להתחיל	-14500
▁domande	-14501
▁أفريقيا	-14502
▁football	-14503
▁verstand	-14504
▁społeczeńst	-14505
dze	-14506
▁וד	-14507
igur	-14508
imon	-14509
سبوع	-14510
▁ske	-14511
▁duiz	-14512
▁dwie	-14513
▁perc	-14514
▁wash	-14515
▁chose	-14516
▁20,000	-14517
▁recono	-14518
▁attacks	-14519
▁dzisiaj	-14520
▁theorie	-14521
▁authentic	-14522
▁preguntas	-14523
רוק	-14524
▁אג	-14525
▁بپ	-14526
apor	-14527
عاية	-14528
▁klu	-14529
▁مدت	-14530
mlich	-14531
zicht	-14532
▁soff	-14533
▁wist	-14534
▁אמרו	-14535
▁route	-14536
▁score	-14537
▁חושבת	-14538
▁کنترل	-14539
▁oploss	-14540
▁inspire	-14541
▁medizin	-14542
▁vessels	-14543
▁dovrebbe	-14544
▁verloren	-14545
▁sensitive	-14546
▁jahrhundert	-14547
▁dni	-14548
▁nit	-14549
▁opp	-14550
▁جال	-14551
▁مار	-14552
▁cina	-14553
▁ולכן	-14554
▁نكون	-14555
▁genoc	-14556
▁خواست	-14557
gestellt	-14558
▁treffen	-14559
נוך	-14560
znie	-14561
▁joe	-14562
▁moo	-14563
▁پسر	-14564
▁paso	-14565
▁bangl	-14566
▁والآن	-14567
▁orange	-14568
▁آمریکا	-14569
▁بهترین	-14570
▁bestimm	-14571
▁اجتماعی	-14572
▁attività	-14573
▁equation	-14574
▁کامپیوتر	-14575
▁controllo	-14576
▁irgendwie	-14577
zel	-14578
זים	-14579
thal	-14580
ساسا	-14581
▁déc	-14582
kommt	-14583
▁metà	-14584
▁ergeb	-14585
▁repor	-14586
▁بكثير	-14587
▁ستكون	-14588
▁scared	-14589
▁staten	-14590
▁identical	-14591
▁opportunità	-14592
▁interestingly	-14593
כר	-14594
עד	-14595
ذب	-14596
hai	-14597
كات	-14598
ودی	-14599
ässt	-14600
▁קול	-14601
▁corn	-14602
▁sabe	-14603
▁scel	-14604
▁sopr	-14605
▁conce	-14606
▁dopam	-14607
▁esist	-14608
▁firma	-14609
▁القاد	-14610
▁ندارد	-14611
▁entsch	-14612
▁siendo	-14613
▁algorithm	-14614
▁exploring	-14615
זל	-14616
hnt	-14617
äre	-14618
▁vö	-14619
▁شر	-14620
midd	-14621
ליון	-14622
iking	-14623
▁hook	-14624
▁nets	-14625
▁bible	-14626
▁bizar	-14627
▁vivir	-14628
▁שונות	-14629
▁button	-14630
▁czegoś	-14631
▁lincol	-14632
▁prices	-14633
▁render	-14634
▁guardare	-14635
▁potremmo	-14636
▁simplicity	-14637
▁ub	-14638
▁קל	-14639
geme	-14640
wand	-14641
endet	-14642
▁ojos	-14643
▁rete	-14644
▁النو	-14645
▁امید	-14646
▁دادم	-14647
▁نسبت	-14648
▁kevin	-14649
▁logic	-14650
▁scher	-14651
▁assume	-14652
▁obesity	-14653
▁وبالتالي	-14654
rà	-14655
فاء	-14656
▁sca	-14657
ników	-14658
▁plug	-14659
▁carta	-14660
▁equil	-14661
▁fried	-14662
▁myśli	-14663
▁charity	-14664
▁collected	-14665
▁laboratori	-14666
oco	-14667
בלתי	-14668
▁نگه	-14669
ziale	-14670
▁digo	-14671
▁الأما	-14672
▁llevar	-14673
▁studie	-14674
▁מעניין	-14675
▁breathe	-14676
▁classes	-14677
▁instant	-14678
▁scritto	-14679
▁paintings	-14680
lyn	-14681
ndr	-14682
▁kä	-14683
▁usc	-14684
▁wzi	-14685
▁בתי	-14686
▁تقد	-14687
uther	-14688
▁dług	-14689
▁mail	-14690
▁faced	-14691
▁horen	-14692
▁różne	-14693
▁stało	-14694
▁المرض	-14695
▁gemein	-14696
▁whales	-14697
לומר	-14698
▁fed	-14699
▁ogn	-14700
annte	-14701
arter	-14702
culos	-14703
▁luft	-14704
▁ansch	-14705
▁latin	-14706
▁spotk	-14707
▁heroes	-14708
ialmente	-14709
▁economie	-14710
▁obsessed	-14711
▁republic	-14712
בק	-14713
aja	-14714
mel	-14715
פוס	-14716
جاب	-14717
وائ	-14718
▁הו	-14719
▁gon	-14720
änger	-14721
▁führ	-14722
▁tipi	-14723
▁עצמו	-14724
▁shake	-14725
▁stron	-14726
▁vormen	-14727
▁silence	-14728
▁theoret	-14729
ariamente	-14730
▁interven	-14731
▁increment	-14732
בוע	-14733
انم	-14734
تهم	-14735
▁dź	-14736
▁ár	-14737
שובה	-14738
▁משו	-14739
▁قاب	-14740
acles	-14741
▁bese	-14742
▁flew	-14743
▁gand	-14744
▁vede	-14745
▁חדשה	-14746
▁بعدی	-14747
acción	-14748
▁revel	-14749
▁daniel	-14750
▁prawie	-14751
▁suffer	-14752
▁מקבלים	-14753
ließlich	-14754
▁happier	-14755
▁riguard	-14756
▁magnetic	-14757
▁sandwich	-14758
▁connecting	-14759
فی	-14760
jas	-14761
pox	-14762
شري	-14763
▁خد	-14764
itti	-14765
▁meg	-14766
▁tus	-14767
▁محل	-14768
▁استط	-14769
▁الأد	-14770
▁justo	-14771
▁woord	-14772
▁feeding	-14773
▁outcomes	-14774
▁printing	-14775
▁partnership	-14776
ئن	-14777
שיג	-14778
ثیر	-14779
▁oj	-14780
▁نک	-14781
pery	-14782
▁dil	-14783
▁تعل	-14784
וצאות	-14785
▁diep	-14786
▁flug	-14787
▁bezig	-14788
▁blogs	-14789
▁trova	-14790
▁نمایش	-14791
▁הילדים	-14792
▁domestic	-14793
▁importanti	-14794
▁popolazione	-14795
ctic	-14796
▁ile	-14797
▁jazz	-14798
▁palm	-14799
▁zwyk	-14800
▁רעיון	-14801
▁owners	-14802
▁umwelt	-14803
▁fiction	-14804
▁performing	-14805
zeń	-14806
emia	-14807
غيير	-14808
▁ارزش	-14809
▁haupt	-14810
▁plays	-14811
▁verst	-14812
ruzione	-14813
▁attrib	-14814
▁sachen	-14815
▁kobiety	-14816
▁luister	-14817
▁academic	-14818
▁struktur	-14819
▁banglades	-14820
▁celebrate	-14821
▁christmas	-14822
▁ضد	-14823
▁عق	-14824
häng	-14825
wach	-14826
▁fox	-14827
▁بهش	-14828
▁رود	-14829
▁cash	-14830
▁لهذه	-14831
▁chief	-14832
▁parla	-14833
▁conosc	-14834
▁murder	-14835
▁scienzi	-14836
▁increases	-14837
▁directions	-14838
يق	-14839
▁מן	-14840
łada	-14841
▁fys	-14842
▁החד	-14843
opard	-14844
▁decy	-14845
▁edad	-14846
▁skup	-14847
▁عنها	-14848
▁nuovi	-14849
▁chcemy	-14850
▁mojego	-14851
▁możesz	-14852
▁obwohl	-14853
▁balloon	-14854
▁centrum	-14855
▁pensiamo	-14856
otechnolog	-14857
▁arquitect	-14858
▁población	-14859
▁entwickeln	-14860
▁productivity	-14861
erò	-14862
داء	-14863
▁pm	-14864
▁vs	-14865
▁אק	-14866
culo	-14867
into	-14868
▁fid	-14869
igung	-14870
▁angi	-14871
▁crea	-14872
▁pale	-14873
▁peer	-14874
▁אוכל	-14875
▁المط	-14876
called	-14877
▁weigh	-14878
▁immune	-14879
▁nombre	-14880
▁robust	-14881
▁portare	-14882
▁rebuild	-14883
▁wyobraź	-14884
▁meetings	-14885
▁możliwości	-14886
ęg	-14887
▁כח	-14888
poca	-14889
▁kab	-14890
▁szk	-14891
▁ככל	-14892
uting	-14893
▁nano	-14894
▁seti	-14895
▁תהיה	-14896
▁چقدر	-14897
▁escal	-14898
▁norte	-14899
▁nulla	-14900
▁thema	-14901
▁חדשות	-14902
▁بحاجة	-14903
▁quizás	-14904
▁trends	-14905
▁ongeloof	-14906
▁capacidad	-14907
▁microscop	-14908
פע	-14909
غر	-14910
ket	-14911
feld	-14912
▁abu	-14913
▁بزن	-14914
▁trot	-14915
▁aktiv	-14916
▁disag	-14917
▁shock	-14918
▁המידע	-14919
▁עליהם	-14920
▁phrase	-14921
▁seguro	-14922
▁triang	-14923
▁combust	-14924
▁economies	-14925
ár	-14926
bei	-14927
جاه	-14928
▁blu	-14929
▁bum	-14930
▁wyp	-14931
▁قائ	-14932
atsch	-14933
wierd	-14934
▁volv	-14935
▁أخبر	-14936
▁اللا	-14937
▁تغير	-14938
itudes	-14939
mittel	-14940
▁miser	-14941
▁vater	-14942
▁gebied	-14943
▁borders	-14944
يام	-14945
▁שר	-14946
otte	-14947
erson	-14948
etzen	-14949
grund	-14950
ática	-14951
▁hawa	-14952
▁poza	-14953
▁uncom	-14954
▁vader	-14955
▁חשבתי	-14956
▁النساء	-14957
▁collaps	-14958
▁همانطور	-14959
▁bepaalde	-14960
▁necesita	-14961
▁occident	-14962
▁ottenere	-14963
▁precisely	-14964
▁psychological	-14965
▁verschiedenen	-14966
سك	-14967
▁تك	-14968
haus	-14969
▁کنی	-14970
haupt	-14971
▁aang	-14972
▁biol	-14973
▁draa	-14974
▁feyn	-14975
▁glac	-14976
▁herz	-14977
▁inqu	-14978
▁القا	-14979
▁cuore	-14980
▁stavo	-14981
▁umana	-14982
▁zupeł	-14983
▁أنواع	-14984
▁jesteś	-14985
▁kwamen	-14986
▁realiz	-14987
▁tamaño	-14988
▁widzimy	-14989
▁raggiung	-14990
▁permanent	-14991
▁seguridad	-14992
▁sorprendente	-14993
▁קו	-14994
ieri	-14995
▁تعد	-14996
alize	-14997
lobal	-14998
▁fout	-14999
▁item	-15000
▁طریق	-15001
▁grows	-15002
▁incon	-15003
▁mitad	-15004
▁تصميم	-15005
▁کسانی	-15006
uciones	-15007
▁garage	-15008
▁nelson	-15009
▁الأكثر	-15010
▁izquier	-15011
▁samples	-15012
▁embedded	-15013
▁orchestra	-15014
▁automatically	-15015
ליח	-15016
▁عج	-15017
▁seb	-15018
▁خلق	-15019
▁صوت	-15020
iging	-15021
▁beer	-15022
▁דקות	-15023
umines	-15024
▁advoc	-15025
▁flood	-15026
▁kanker	-15027
▁modell	-15028
▁potuto	-15029
▁surely	-15030
▁volunt	-15031
▁lincoln	-15032
▁nowhere	-15033
▁benjamin	-15034
▁motivation	-15035
▁vorstellen	-15036
fun	-15037
uda	-15038
ترض	-15039
enas	-15040
ächt	-15041
▁disk	-15042
▁sele	-15043
▁sier	-15044
▁zatr	-15045
▁satur	-15046
▁suppl	-15047
▁هستید	-15048
▁cabeza	-15049
▁jeżeli	-15050
▁oceaan	-15051
▁parola	-15052
▁spoken	-15053
▁swoich	-15054
▁existed	-15055
▁recuper	-15056
▁consumers	-15057
▁physicist	-15058
óc	-15059
وغ	-15060
zet	-15061
äus	-15062
اطر	-15063
▁pitt	-15064
▁präs	-15065
▁pump	-15066
▁رسید	-15067
▁pitch	-15068
▁למעלה	-15069
▁نزدیک	-15070
جتماعية	-15071
▁agreed	-15072
▁begint	-15073
▁genial	-15074
▁lovely	-15075
▁gemeins	-15076
▁naszego	-15077
▁omgeving	-15078
ائج	-15079
کنون	-15080
▁unt	-15081
istro	-15082
▁colt	-15083
▁fung	-15084
▁bezpie	-15085
▁fuerza	-15086
▁mister	-15087
▁توانست	-15088
▁einigen	-15089
▁zamiast	-15090
▁condivid	-15091
▁patienten	-15092
nier	-15093
▁rus	-15094
▁tek	-15095
▁جور	-15096
▁نبا	-15097
assem	-15098
▁dien	-15099
▁איזה	-15100
▁הגיע	-15101
▁أليس	-15102
▁لمدة	-15103
essero	-15104
▁einde	-15105
▁بسرعة	-15106
▁lepiej	-15107
▁succes	-15108
▁ultimo	-15109
▁ambient	-15110
▁neander	-15111
▁sprache	-15112
▁erhalten	-15113
łon	-15114
▁0.	-15115
▁pc	-15116
▁éx	-15117
عتبر	-15118
▁jur	-15119
ingly	-15120
▁pacj	-15121
▁rail	-15122
▁רואה	-15123
▁angry	-15124
▁ersta	-15125
▁shang	-15126
▁walks	-15127
▁archit	-15128
▁charla	-15129
▁narrow	-15130
▁regres	-15131
▁stellt	-15132
▁vicino	-15133
▁carried	-15134
▁arrivare	-15135
▁plaatsen	-15136
▁vrienden	-15137
▁incentives	-15138
▁menschlichen	-15139
ża	-15140
▁+	-15141
جين	-15142
سين	-15143
قلت	-15144
igte	-15145
▁חשמ	-15146
▁למד	-15147
▁چشم	-15148
▁מיני	-15149
▁شاهد	-15150
▁utter	-15151
▁yield	-15152
▁habían	-15153
▁morgen	-15154
▁narzęd	-15155
▁regime	-15156
▁poorest	-15157
▁elephant	-15158
▁application	-15159
▁conversations	-15160
blo	-15161
ibe	-15162
روی	-15163
▁dv	-15164
stüt	-15165
▁הבר	-15166
eland	-15167
▁stom	-15168
▁بطور	-15169
▁قسمت	-15170
▁papel	-15171
▁الرجل	-15172
▁autism	-15173
▁eltern	-15174
▁enable	-15175
▁esiste	-15176
▁موسیقی	-15177
lichkeit	-15178
▁aspetto	-15179
▁gleiche	-15180
▁kleiner	-15181
▁palabra	-15182
▁sensors	-15183
▁demasiado	-15184
גני	-15185
דמה	-15186
راج	-15187
راك	-15188
رون	-15189
רבות	-15190
שבים	-15191
▁vale	-15192
▁جهاز	-15193
▁چنین	-15194
gelijk	-15195
▁arist	-15196
▁primi	-15197
▁bewust	-15198
▁מדברים	-15199
▁crucial	-15200
▁sistemi	-15201
▁stworzy	-15202
▁district	-15203
▁improvis	-15204
▁mosquito	-15205
▁questione	-15206
▁١	-15207
izi	-15208
leb	-15209
خصص	-15210
▁يؤ	-15211
cina	-15212
תיות	-15213
رانی	-15214
▁المق	-15215
▁dijeron	-15216
▁kindern	-15217
▁floating	-15218
▁pregnant	-15219
▁przypadku	-15220
▁reduction	-15221
▁synthetic	-15222
mie	-15223
ولي	-15224
gram	-15225
▁כוכ	-15226
▁متح	-15227
zeniu	-15228
▁buff	-15229
▁deut	-15230
▁knee	-15231
▁wing	-15232
▁zało	-15233
▁עומד	-15234
▁تخيل	-15235
zonder	-15236
▁spons	-15237
▁thuis	-15238
▁לגרום	-15239
industr	-15240
▁latach	-15241
▁stayed	-15242
▁islamic	-15243
▁kingdom	-15244
▁verwenden	-15245
▁movimiento	-15246
▁innovations	-15247
rów	-15248
omes	-15249
oord	-15250
שיים	-15251
▁hir	-15252
▁poś	-15253
▁היי	-15254
▁שהא	-15255
think	-15256
▁plac	-15257
▁różn	-15258
▁saud	-15259
▁وعلى	-15260
▁delhi	-15261
▁fruit	-15262
▁messo	-15263
▁swoją	-15264
▁العلا	-15265
▁وهكذا	-15266
▁sweden	-15267
▁download	-15268
▁drinking	-15269
▁earthquake	-15270
wing	-15271
▁hond	-15272
▁städ	-15273
▁משנה	-15274
▁حاضر	-15275
▁kraft	-15276
▁ocurr	-15277
▁powst	-15278
▁wciąż	-15279
▁אחרות	-15280
▁elabor	-15281
▁tested	-15282
▁במיוחד	-15283
▁الخارج	-15284
▁centina	-15285
▁liberal	-15286
▁nämlich	-15287
▁pushing	-15288
▁sistemas	-15289
▁presented	-15290
▁spreading	-15291
▁engagement	-15292
wał	-15293
ماد	-15294
arli	-15295
fica	-15296
iled	-15297
äten	-15298
stage	-15299
▁2020	-15300
▁fred	-15301
▁mike	-15302
urance	-15303
▁refle	-15304
▁devono	-15305
▁farmer	-15306
▁norden	-15307
▁persön	-15308
▁divided	-15309
▁człowiek	-15310
▁distingu	-15311
▁pomiędzy	-15312
▁shoulder	-15313
▁situazione	-15314
הים	-15315
thur	-15316
بعاد	-15317
▁keu	-15318
▁ومع	-15319
liono	-15320
zeugen	-15321
▁beden	-15322
▁المسا	-15323
▁anatom	-15324
▁offers	-15325
▁propia	-15326
▁valore	-15327
▁chapter	-15328
▁feynman	-15329
▁vogliono	-15330
éc	-15331
סות	-15332
ihad	-15333
ليات	-15334
▁gaf	-15335
▁mud	-15336
ölker	-15337
▁עליה	-15338
▁paras	-15339
▁الدرا	-15340
▁گرفتم	-15341
▁season	-15342
▁tratando	-15343
▁sculpture	-15344
sah	-15345
▁wk	-15346
aint	-15347
vorm	-15348
واجه	-15349
▁zim	-15350
כונות	-15351
▁mode	-15352
▁הברי	-15353
▁leeft	-15354
▁مشابه	-15355
igheden	-15356
through	-15357
▁padres	-15358
▁zmienić	-15359
▁contains	-15360
▁gebeurde	-15361
▁relación	-15362
▁commitment	-15363
sa	-15364
ראים	-15365
שיות	-15366
▁jou	-15367
▁prev	-15368
▁نشون	-15369
▁verfü	-15370
▁مفهوم	-15371
▁ekonom	-15372
▁otrzym	-15373
▁sbagli	-15374
▁volver	-15375
▁verbess	-15376
▁materiał	-15377
▁compartir	-15378
▁volunteers	-15379
داع	-15380
صيل	-15381
▁anx	-15382
▁קלי	-15383
▁افز	-15384
▁کجا	-15385
itory	-15386
▁cass	-15387
▁cioè	-15388
▁sket	-15389
▁אוהב	-15390
▁آنرا	-15391
▁معنی	-15392
▁craft	-15393
▁recib	-15394
▁scala	-15395
▁skept	-15396
▁słuch	-15397
▁مدينة	-15398
▁ciento	-15399
▁heaven	-15400
▁joined	-15401
▁painful	-15402
▁riconos	-15403
▁programa	-15404
▁depending	-15405
▁potrebbero	-15406
לוי	-15407
▁pf	-15408
▁ss	-15409
ammo	-15410
▁jet	-15411
▁żyw	-15412
▁فضا	-15413
קשורת	-15414
▁ours	-15415
▁rela	-15416
▁surg	-15417
▁zain	-15418
▁النف	-15419
▁درجة	-15420
▁fixed	-15421
▁publik	-15422
▁reject	-15423
▁sicure	-15424
▁constra	-15425
▁zupełnie	-15426
▁surrounded	-15427
عون	-15428
omag	-15429
weit	-15430
▁رنگ	-15431
▁فرص	-15432
▁مرض	-15433
▁dear	-15434
▁wody	-15435
▁בעיות	-15436
▁הסיבה	-15437
▁תמונה	-15438
▁riusci	-15439
▁section	-15440
▁welcome	-15441
▁distinct	-15442
▁maintain	-15443
▁secondly	-15444
▁transparency	-15445
▁vulnerability	-15446
צח	-15447
ודת	-15448
פחה	-15449
جابة	-15450
ليون	-15451
▁lig	-15452
▁عصب	-15453
▁للع	-15454
możli	-15455
worth	-15456
▁mani	-15457
mitted	-15458
▁famos	-15459
▁geest	-15460
▁pracht	-15461
▁wygląd	-15462
idamente	-15463
ilidades	-15464
▁paradox	-15465
▁przeciw	-15466
▁wollten	-15467
▁wprowad	-15468
▁współpr	-15469
nią	-15470
▁lag	-15471
▁عاد	-15472
ساعدة	-15473
▁ener	-15474
▁سرعت	-15475
▁مشاه	-15476
global	-15477
▁dense	-15478
▁forte	-15479
▁jonge	-15480
▁larry	-15481
▁دنیای	-15482
▁10.000	-15483
▁bureau	-15484
▁rozwią	-15485
▁electro	-15486
▁william	-15487
▁involves	-15488
▁verschil	-15489
סם	-15490
ظن	-15491
adr	-15492
geh	-15493
عاب	-15494
یتی	-15495
▁mm	-15496
śleć	-15497
نوان	-15498
▁192	-15499
▁alf	-15500
▁שבא	-15501
arian	-15502
wania	-15503
▁lens	-15504
▁writ	-15505
▁filos	-15506
▁المنط	-15507
▁protoc	-15508
▁اتفاقی	-15509
▁desider	-15510
▁asteroid	-15511
▁democrat	-15512
▁ervaring	-15513
▁telescop	-15514
▁gemeenschap	-15515
▁jó	-15516
יתנו	-15517
▁orb	-15518
▁پرد	-15519
ziała	-15520
▁bold	-15521
▁envi	-15522
▁تحصل	-15523
▁پاسخ	-15524
phones	-15525
▁enemy	-15526
▁spell	-15527
▁tiend	-15528
▁tygod	-15529
aterial	-15530
richten	-15531
▁escala	-15532
▁propio	-15533
▁tenido	-15534
▁influen	-15535
▁sentire	-15536
▁provides	-15537
▁uncertain	-15538
▁optimistic	-15539
dad	-15540
هاي	-15541
case	-15542
wnym	-15543
▁ack	-15544
▁وهم	-15545
▁busc	-15546
▁chol	-15547
▁cięż	-15548
▁huid	-15549
▁מראה	-15550
liches	-15551
▁cielo	-15552
▁stück	-15553
▁unbel	-15554
▁أصبحت	-15555
▁całkow	-15556
▁county	-15557
▁danych	-15558
▁anthrop	-15559
▁segunda	-15560
zustellen	-15561
▁quantità	-15562
▁furniture	-15563
▁translate	-15564
bud	-15565
حال	-15566
غاز	-15567
یره	-15568
anym	-15569
iday	-15570
▁ילד	-15571
▁بدم	-15572
▁בתור	-15573
▁מעור	-15574
▁المف	-15575
▁رفتم	-15576
escent	-15577
ologia	-15578
▁میخوا	-15579
▁rising	-15580
▁strony	-15581
▁suicide	-15582
▁الحيوانات	-15583
▁governance	-15584
▁populations	-15585
ctu	-15586
fre	-15587
rzy	-15588
▁eén	-15589
▁ממו	-15590
▁أحب	-15591
▁برخ	-15592
▁کاف	-15593
▁naam	-15594
▁sund	-15595
▁נפלא	-15596
iseren	-15597
▁klima	-15598
▁obiett	-15599
▁چیزهای	-15600
▁przestr	-15601
▁breaking	-15602
▁volledig	-15603
▁risultato	-15604
טב	-15605
ahn	-15606
ghi	-15607
łum	-15608
טרו	-15609
▁صن	-15610
ywat	-15611
▁spa	-15612
▁וזו	-15613
▁أود	-15614
▁aside	-15615
▁laden	-15616
▁letzt	-15617
▁práct	-15618
▁sales	-15619
▁youth	-15620
▁رفتار	-15621
▁efecto	-15622
utamente	-15623
▁bicycle	-15624
▁incontr	-15625
▁oxytocin	-15626
▁particle	-15627
▁symptoms	-15628
▁zrozumieć	-15629
-4	-15630
uct	-15631
▁دف	-15632
bren	-15633
haft	-15634
טיים	-15635
▁caf	-15636
▁בשם	-15637
class	-15638
estos	-15639
▁cham	-15640
▁enfr	-15641
▁tuve	-15642
▁اصلی	-15643
▁ذهبت	-15644
▁corso	-15645
▁daher	-15646
▁hemis	-15647
▁pizza	-15648
▁sieci	-15649
▁subur	-15650
▁البحث	-15651
▁adjust	-15652
▁limits	-15653
▁strumenti	-15654
▁31	-15655
vlak	-15656
▁mañ	-15657
▁nin	-15658
נהגות	-15659
▁lego	-15660
▁sque	-15661
▁הטבע	-15662
▁تصبح	-15663
▁dzień	-15664
▁hello	-15665
▁parli	-15666
▁الرائ	-15667
▁damals	-15668
▁offered	-15669
▁takiego	-15670
▁philanth	-15671
▁christian	-15672
▁inspiring	-15673
▁photography	-15674
ië	-15675
▁خی	-15676
▁rub	-15677
▁vest	-15678
▁زیاد	-15679
▁bitte	-15680
▁cardi	-15681
▁opens	-15682
▁رائعة	-15683
▁dietro	-15684
▁nessun	-15685
▁recomm	-15686
▁sports	-15687
▁znaleźć	-15688
▁elektron	-15689
▁imparato	-15690
▁properly	-15691
▁stations	-15692
כתי	-15693
avor	-15694
▁שנות	-15695
ophren	-15696
▁chest	-15697
▁kamer	-15698
▁linea	-15699
▁overl	-15700
▁extent	-15701
▁perpet	-15702
▁simult	-15703
▁עובדים	-15704
▁forests	-15705
▁schizophren	-15706
ąt	-15707
gie	-15708
▁lg	-15709
aars	-15710
kens	-15711
ربون	-15712
▁mri	-15713
icken	-15714
istor	-15715
ounid	-15716
▁eres	-15717
▁mite	-15718
▁sess	-15719
▁يحصل	-15720
▁avrei	-15721
▁halen	-15722
▁rende	-15723
▁santa	-15724
▁חדשים	-15725
▁miałem	-15726
▁powers	-15727
ualmente	-15728
▁distant	-15729
▁savings	-15730
▁الماضية	-15731
▁breathing	-15732
▁suficiente	-15733
حب	-15734
ظار	-15735
▁سف	-15736
▁zip	-15737
▁spar	-15738
▁ברור	-15739
▁dirty	-15740
▁niego	-15741
▁robią	-15742
▁tower	-15743
▁bezieh	-15744
▁entend	-15745
▁killer	-15746
▁semana	-15747
▁saranno	-15748
▁reaching	-15749
fur	-15750
oen	-15751
wed	-15752
ído	-15753
صدر	-15754
▁abr	-15755
▁jaw	-15756
▁מוק	-15757
▁اهم	-15758
burgh	-15759
teren	-15760
נרגיה	-15761
▁راجع	-15762
▁anger	-15763
▁sheep	-15764
▁urząd	-15765
▁במהלך	-15766
▁البدا	-15767
erweise	-15768
ycznych	-15769
▁agency	-15770
▁behave	-15771
▁comple	-15772
▁crimin	-15773
▁senior	-15774
▁voelen	-15775
▁worker	-15776
▁fortune	-15777
▁portato	-15778
▁touched	-15779
▁parlando	-15780
▁unterstüt	-15781
▁virtually	-15782
▁überhaupt	-15783
▁dramatically	-15784
ax	-15785
pat	-15786
äng	-15787
חלט	-15788
دار	-15789
▁למו	-15790
oring	-15791
מינים	-15792
▁inny	-15793
▁zoek	-15794
▁ביחד	-15795
▁חייב	-15796
▁زیست	-15797
▁colleg	-15798
▁emerge	-15799
▁facile	-15800
▁התחלתי	-15801
▁avevamo	-15802
▁gebäude	-15803
▁ciudades	-15804
▁recovery	-15805
tać	-15806
خفض	-15807
erei	-15808
mart	-15809
force	-15810
▁chef	-15811
▁hast	-15812
▁lied	-15813
▁pint	-15814
▁היכן	-15815
▁سریع	-15816
denken	-15817
orient	-15818
▁dagli	-15819
▁éxito	-15820
▁extend	-15821
▁poison	-15822
▁produz	-15823
▁refuge	-15824
▁całkiem	-15825
▁harvest	-15826
▁muscles	-15827
▁stoppen	-15828
▁allowing	-15829
▁lighting	-15830
▁tecnologie	-15831
cí	-15832
סו	-15833
وث	-15834
כיר	-15835
deel	-15836
▁rin	-15837
▁למש	-15838
tiamo	-15839
using	-15840
venes	-15841
▁drew	-15842
▁emph	-15843
▁zent	-15844
▁emple	-15845
▁unico	-15846
▁única	-15847
▁گذاشت	-15848
▁smooth	-15849
▁دستگاه	-15850
▁dioxide	-15851
▁wanting	-15852
▁التصميم	-15853
▁versucht	-15854
▁tú	-15855
▁سع	-15856
kton	-15857
baren	-15858
▁1998	-15859
▁خصوص	-15860
▁رابط	-15861
▁زنده	-15862
▁dźwię	-15863
▁whale	-15864
▁دانشگاه	-15865
▁política	-15866
▁recognition	-15867
pla	-15868
נוע	-15869
ريك	-15870
▁لج	-15871
▁dvd	-15872
▁età	-15873
▁sod	-15874
▁ככה	-15875
▁esqu	-15876
▁ايضا	-15877
▁aange	-15878
▁إعادة	-15879
▁sprawd	-15880
▁ziekte	-15881
▁חודשים	-15882
▁letting	-15883
▁grandfather	-15884
cyd	-15885
▁jh	-15886
▁جو	-15887
ובדה	-15888
צוני	-15889
▁امر	-15890
onnen	-15891
▁olie	-15892
▁الحل	-15893
▁demás	-15894
▁koran	-15895
▁middel	-15896
▁última	-15897
▁אנרגיה	-15898
▁diction	-15899
▁granted	-15900
conscious	-15901
▁africans	-15902
▁symmetry	-15903
▁elsewhere	-15904
▁settimana	-15905
▁ضع	-15906
▁مک	-15907
pack	-15908
▁tea	-15909
▁alco	-15910
▁temp	-15911
▁zehn	-15912
▁clint	-15913
▁tasks	-15914
▁المهم	-15915
▁هزینه	-15916
▁mañana	-15917
▁struck	-15918
▁verzam	-15919
▁wright	-15920
▁yorker	-15921
▁debemos	-15922
▁density	-15923
▁uniform	-15924
▁incident	-15925
▁resultado	-15926
▁controlling	-15927
דק	-15928
بلغ	-15929
▁öl	-15930
▁tuo	-15931
▁fulf	-15932
market	-15933
▁hause	-15934
▁jelly	-15935
▁rocks	-15936
▁tries	-15937
▁gewalt	-15938
▁pubblic	-15939
▁destroyed	-15940
▁impression	-15941
غط	-15942
cla	-15943
אשר	-15944
بيب	-15945
airs	-15946
atte	-15947
hlte	-15948
odes	-15949
▁biz	-15950
▁למח	-15951
▁لدى	-15952
ética	-15953
▁bass	-15954
▁butt	-15955
▁rome	-15956
▁وليس	-15957
arbeit	-15958
▁flash	-15959
▁inclu	-15960
▁שימוש	-15961
▁leiden	-15962
▁neural	-15963
▁beelden	-15964
▁distint	-15965
▁rainfor	-15966
[...]
