▁t 100
▁a 100
en 100
er 100
▁, 100
▁i 100
▁th 100
▁. 100
▁s 100
▁w 100
▁d 100
in 100
▁o 100
es 100
▁c 100
▁m 100
▁p 100
at 100
an 100
▁the 100
os 100
on 100
re 100
▁b 100
▁h 100
▁l 100
▁& 100
nd 100
or 100
ou 100
▁n 100
ar 100
▁f 100
al 100
ch 100
ap 100
▁e 100
▁in 100
▁g 100
ing 100
as 100
ot 100
▁to 100
qu 100
▁and 100
it 100
is 100
▁ا 100
ie 100
apos 100
el 100
▁u 100
ed 100
om 100
▁y 100
▁of 100
et 100
▁v 100
le 100
ent 100
ic 100
▁that 100
▁ال 100
▁de 100
▁is 100
ro 100
ut 100
▁we 100
ion 100
▁you 100
▁k 100
am 100
▁wh 100
▁م 100
ow 100
quot 100
▁it 100
il 100
ol 100
st 100
▁z 100
ve 100
▁al 100
ad 100
▁be 100
est 100
ere 100
▁ה 100
ig 100
▁st 100
▁ب 100
ac 100
id 100
▁j 100
ur 100
▁r 100
▁re 100
▁on 100
ly 100
▁qu 100
▁un 100
ir 100
▁א 100
im 100
▁so 100
▁en 100
▁this 100
▁و 100
ay 100
em 100
us 100
▁di 100
▁ch 100
▁- 100
ver 100
▁an 100
ct 100
▁se 100
ra 100
▁ל 100
▁do 100
un 100
ich 100
▁ha 100
▁-- 100
ים 100
▁ש 100
▁מ 100
▁? 100
▁for 100
ak 100
▁، 100
▁com 100
ter 100
and 100
▁was 100
▁con 100
od 100
▁la 100
▁ab 100
op 100
ld 100
ul 100
ia 100
ell 100
▁ت 100
ant 100
▁per 100
ות 100
▁ه 100
▁pro 100
▁es 100
▁: 100
ag 100
▁he 100
▁they 100
▁me 100
▁ver 100
ce 100
▁د 100
▁li 100
▁ב 100
▁أ 100
ان 100
▁ne 100
▁pr 100
▁as 100
ij 100
▁ل 100
ith 100
▁ک 100
ci 100
▁go 100
th 100
▁are 100
ess 100
ally 100
▁le 100
▁with 100
▁ف 100
▁can 100
ist 100
um 100
▁what 100
▁all 100
▁but 100
▁have 100
ation 100
را 100
▁mo 100
ال 100
▁wor 100
▁at 100
ill 100
ind 100
▁sh 100
▁te 100
▁die 100
▁lo 100
▁que 100
end 100
to 100
ht 100
out 100
▁sp 100
ens 100
ke 100
▁und 100
ab 100
te 100
▁ن 100
▁tr 100
▁ex 100
▁fr 100
ze 100
og 100
ust 100
ست 100
iv 100
▁su 100
ار 100
▁1 100
▁or 100
▁not 100
ier 100
▁there 100
▁about 100
ine 100
art 100
ould 100
se 100
▁ع 100
ese 100
نا 100
are 100
▁som 100
▁pe 100
ge 100
▁no 100
de 100
▁im 100
ok 100
ach 100
ff 100
▁ו 100
▁er 100
ost 100
▁my 100
▁el 100
▁si 100
▁ar 100
ers 100
▁من 100
zy 100
▁che 100
ort 100
▁כ 100
ate 100
all 100
▁ي 100
ight 100
ون 100
▁one 100
▁est 100
ca 100
▁ע 100
ies 100
▁het 100
ect 100
ها 100
▁ك 100
▁us 100
ما 100
ib 100
ین 100
▁ge 100
▁peop 100
▁people 100
נו 100
ente 100
▁by 100
▁ش 100
ity 100
▁if 100
▁das 100
▁pl 100
▁from 100
pl 100
ud 100
ien 100
▁man 100
ive 100
ני 100
▁like 100
aar 100
▁op 100
▁een 100
▁س 100
▁في 100
▁kn 100
▁now 100
▁ein 100
▁als 100
use 100
ast 100
▁nie 100
ink 100
▁dat 100
▁gr 100
▁י 100
ند 100
go 100
ard 100
iz 100
▁our 100
00 100
one 100
io 100
▁una 100
▁these 100
▁just 100
ure 100
▁van 100
her 100
▁out 100
ten 100
▁של 100
▁know 100
▁می 100
ear 100
▁ح 100
ond 100
▁ro 100
▁thing 100
▁mu 100
▁الم 100
▁2 100
▁when 100
ake 100
▁po 100
▁sie 100
▁beca 100
▁because 100
ול 100
▁par 100
li 100
ية 100
ain 100
▁è 100
▁get 100
oug 100
gen 100
▁them 100
▁how 100
▁در 100
▁think 100
▁act 100
ven 100
ור 100
▁up 100
▁who 100
▁inter 100
▁very 100
▁את 100
▁am 100
▁comp 100
▁quest 100
▁je 100
az 100
▁خ 100
ات 100
▁که 100
▁il 100
ber 100
▁wir 100
▁some 100
▁had 100
ound 100
ans 100
ne 100
per 100
זה 100
▁sch 100
ose 100
be 100
▁des 100
ip 100
▁به 100
▁del 100
▁na 100
▁der 100
▁ich 100
▁sa 100
▁ever 100
▁ج 100
act 100
▁آ 100
▁see 100
▁ze 100
if 100
den 100
orm 100
lo 100
ue 100
▁your 100
▁year 100
ack 100
ور 100
ru 100
▁more 100
no 100
اد 100
▁tim 100
▁which 100
ass 100
ame 100
tr 100
our 100
▁این 100
▁going 100
▁ق 100
ول 100
ين 100
▁here 100
▁ist 100
ود 100
reat 100
ام 100
wo 100
ذا 100
ace 100
▁أن 100
▁look 100
ید 100
▁ik 100
▁ر 100
▁would 100
hr 100
▁want 100
olog 100
app 100
ment 100
▁don 100
ous 100
we 100
▁over 100
ang 100
▁really 100
ide 100
▁their 100
icht 100
وا 100
▁ma 100
▁world 100
ck 100
▁work 100
ually 100
▁prob 100
ben 100
▁zu 100
▁dis 100
▁ما 100
▁were 100
▁co 100
du 100
▁إ 100
▁then 100
▁imp 100
hing 100
ild 100
▁every 100
▁vo 100
▁af 100
ית 100
cc 100
▁los 100
لى 100
ale 100
ijn 100
▁bu 100
▁way 100
av 100
ik 100
amo 100
▁than 100
▁will 100
ite 100
▁met 100
itt 100
ore 100
za 100
lem 100
nen 100
▁has 100
▁را 100
▁pre 100
▁br 100
ong 100
ica 100
▁fe 100
▁ad 100
oss 100
ando 100
ther 100
▁ی 100
ono 100
▁gen 100
▁pers 100
רו 100
ón 100
ym 100
ied 100
▁ח 100
ough 100
▁time 100
pp 100
▁non 100
oll 100
▁ind 100
▁actually 100
یم 100
▁say 100
ft 100
alk 100
gr 100
ult 100
lich 100
ice 100
لك 100
▁where 100
▁den 100
ato 100
ions 100
bi 100
▁could 100
▁into 100
▁הי 100
▁cl 100
pr 100
▁się 100
▁الت 100
▁با 100
ater 100
▁new 100
ign 100
▁part 100
age 100
▁also 100
لا 100
▁pu 100
▁ent 100
וד 100
▁years 100
▁por 100
▁things 100
▁come 100
▁other 100
▁sc 100
▁au 100
ير 100
▁em 100
che 100
eren 100
▁somet 100
▁res 100
▁did 100
▁از 100
ung 100
fe 100
że 100
ical 100
▁well 100
▁diff 100
▁; 100
رد 100
▁kind 100
▁ide 100
▁her 100
▁much 100
▁לה 100
▁cu 100
▁real 100
je 100
▁الأ 100
▁war 100
▁ho 100
▁.. 100
▁לא 100
▁cont 100
▁זה 100
▁tod 100
la 100
nie 100
kt 100
▁sol 100
ione 100
▁happ 100
▁any 100
ano 100
בר 100
ry 100
oun 100
▁bet 100
cie 100
▁she 100
cent 100
ire 100
▁make 100
ía 100
ces 100
▁ان 100
elf 100
▁המ 100
zie 100
▁است 100
▁fir 100
▁ob 100
▁right 100
▁da 100
ree 100
▁inf 100
ów 100
ory 100
pt 100
ely 100
ial 100
ken 100
cz 100
▁bo 100
und 100
▁problem 100
▁چ 100
▁said 100
▁wie 100
ll 100
▁start 100
▁been 100
ord 100
sch 100
هم 100
▁ag 100
▁dan 100
ni 100
▁two 100
▁need 100
רי 100
▁most 100
▁wer 100
يد 100
يا 100
▁something 100
▁پ 100
לי 100
ych 100
كن 100
▁om 100
▁las 100
די 100
mo 100
וא 100
ys 100
▁ת 100
▁ph 100
▁3 100
▁pi 100
ją 100
na 100
▁first 100
con 100
▁cre 100
▁mi 100
ick 100
▁got 100
▁ter 100
able 100
yst 100
▁those 100
▁נ 100
he 100
▁mar 100
▁car 100
cr 100
▁tak 100
▁הא 100
own 100
▁od 100
▁cos 100
▁back 100
amp 100
וב 100
▁على 100
▁talk 100
▁call 100
▁hum 100
▁tra 100
bl 100
zi 100
תי 100
▁ser 100
ep 100
▁his 100
▁jest 100
▁ק 100
▁mod 100
ug 100
vers 100
▁inc 100
ای 100
▁spe 100
▁zijn 100
ado 100
000 100
ody 100
▁dec 100
row 100
ome 100
▁że 100
ase 100
ade 100
ittle 100
▁let 100
לו 100
▁little 100
▁bl 100
nolog 100
▁tech 100
ał 100
ste 100
▁even 100
ür 100
int 100
ión 100
▁col 100
ence 100
vel 100
▁lot 100
▁life 100
▁pow 100
▁person 100
▁פ 100
▁کن 100
▁str 100
pe 100
عل 100
ient 100
נה 100
▁voor 100
chen 100
co 100
▁gu 100
ual 100
ty 100
▁nicht 100
▁von 100
gan 100
▁para 100
▁mit 100
ert 100
ile 100
way 100
▁under 100
ving 100
ern 100
▁על 100
اب 100
ري 100
▁dass 100
erent 100
▁wat 100
▁eine 100
ors 100
▁niet 100
iss 100
▁med 100
▁only 100
ijk 100
▁may 100
▁מה 100
get 100
amos 100
▁nu 100
▁ke 100
▁dr 100
▁auf 100
ated 100
ations 100
▁nat 100
لي 100
amente 100
ves 100
ella 100
▁آن 100
تر 100
▁stud 100
▁گ 100
▁ג 100
▁ز 100
▁ר 100
▁good 100
▁ci 100
▁day 100
vol 100
מו 100
▁یک 100
▁thr 100
ystem 100
ذه 100
قد 100
▁many 100
br 100
ish 100
▁sim 100
ict 100
ob 100
▁trans 100
حد 100
▁comm 100
בי 100
other 100
▁take 100
▁sono 100
ible 100
▁pot 100
ful 100
שה 100
cht 100
ון 100
ks 100
▁هم 100
▁pol 100
▁different 100
▁does 100
▁cr 100
ti 100
▁bel 100
▁int 100
ás 100
وم 100
▁hel 100
▁... 100
▁mens 100
▁wy 100
▁pod 100
wn 100
▁mus 100
que 100
▁ten 100
▁الع 100
ta 100
▁show 100
▁؟ 100
ante 100
▁19 100
ina 100
▁ok 100
▁sec 100
ian 100
▁bra 100
als 100
▁through 100
▁5 100
▁import 100
▁off 100
ents 100
▁dies 100
▁um 100
ico 100
▁down 100
שי 100
▁jak 100
▁why 100
ange 100
oc 100
فت 100
▁هذا 100
▁around 100
red 100
tó 100
▁fl 100
יה 100
ject 100
▁بال 100
▁wr 100
▁pat 100
▁form 100
▁mak 100
▁sm 100
▁ele 100
zen 100
cia 100
ning 100
▁put 100
▁ins 100
▁technolog 100
▁ص 100
▁10 100
▁art 100
ary 100
▁któ 100
ię 100
▁שה 100
יות 100
▁produ 100
▁human 100
▁ס 100
▁20 100
לה 100
▁coun 100
▁ve 100
▁mat 100
▁system 100
▁fin 100
erg 100
enn 100
מה 100
▁رو 100
▁uns 100
נים 100
▁mill 100
▁cons 100
wa 100
▁مع 100
▁ד 100
men 100
ada 100
▁وال 100
▁rel 100
▁שא 100
iel 100
▁exper 100
po 100
▁poss 100
▁tell 100
▁being 100
▁questo 100
ting 100
מי 100
cial 100
ance 100
▁min 100
▁big 100
רא 100
vent 100
▁same 100
▁use 100
ذلك 100
▁tut 100
▁dem 100
▁acc 100
▁app 100
▁sur 100
ought 100
▁لل 100
▁! 100
▁dit 100
▁great 100
▁4 100
▁ط 100
▁find 100
▁av 100
שים 100
omen 100
▁happen 100
ons 100
▁three 100
ise 100
hen 100
▁cor 100
▁או 100
eld 100
my 100
ren 100
▁heb 100
▁its 100
ele 100
▁cap 100
▁maar 100
▁كان 100
▁idea 100
▁mil 100
▁sk 100
▁plan 100
▁fact 100
כל 100
xt 100
בל 100
▁bas 100
عد 100
▁الح 100
iend 100
▁stat 100
les 100
▁try 100
urn 100
▁mom 100
▁mon 100
▁design 100
رو 100
▁אח 100
▁vol 100
▁cent 100
▁doing 100
יי 100
▁uni 100
▁sci 100
▁sich 100
igh 100
▁child 100
ars 100
ora 100
ull 100
ically 100
▁percent 100
▁ז 100
idad 100
cy 100
▁kan 100
▁لا 100
vo 100
▁creat 100
▁hier 100
▁inform 100
ved 100
لی 100
▁build 100
emos 100
▁ben 100
igen 100
era 100
ute 100
ación 100
ition 100
شت 100
ics 100
▁aan 100
▁after 100
▁más 100
ali 100
body 100
▁برا 100
▁again 100
▁וא 100
سا 100
دا 100
iamo 100
▁fam 100
▁bec 100
elt 100
iem 100
▁aut 100
thing 100
ger 100
ood 100
aw 100
▁più 100
▁ear 100
ious 100
über 100
▁aus 100
ple 100
▁rec 100
▁dar 100
▁pero 100
▁zo 100
stand 100
,000 100
▁called 100
▁como 100
▁prim 100
▁וה 100
רים 100
au 100
ige 100
▁الب 100
▁אי 100
wer 100
ool 100
ero 100
נות 100
▁הוא 100
ular 100
▁waar 100
وان 100
▁long 100
▁mach 100
▁best 100
▁cam 100
▁hand 100
▁אני 100
▁sind 100
ete 100
כול 100
ści 100
ah 100
ific 100
aj 100
▁بود 100
▁countr 100
▁far 100
▁amer 100
▁מא 100
ום 100
▁sens 100
قت 100
ism 100
tra 100
▁هذه 100
▁ga 100
▁hac 100
fore 100
▁era 100
▁should 100
▁ty 100
ento 100
ende 100
▁rem 100
▁אנ 100
▁imag 100
ior 100
ets 100
▁lear 100
مل 100
▁ask 100
▁inst 100
▁ges 100
▁fun 100
▁وا 100
▁¿ 100
▁کرد 100
▁comput 100
يم 100
▁made 100
▁today 100
▁für 100
mente 100
▁pres 100
ph 100
▁aber 100
▁reg 100
old 100
▁lu 100
▁jed 100
ote 100
▁عن 100
▁own 100
▁هو 100
▁בא 100
▁ac 100
ating 100
▁ih 100
▁hat 100
ail 100
ingen 100
ön 100
▁last 100
ution 100
ła 100
خت 100
▁important 100
▁&# 100
▁&#9 100
▁wenn 100
یر 100
ży 100
▁end 100
▁haben 100
▁gener 100
פי 100
▁tem 100
zo 100
▁play 100
▁alle 100
ont 100
▁beg 100
▁energ 100
ità 100
▁beh 100
▁dur 100
▁دار 100
▁bi 100
▁organ 100
form 100
نت 100
ata 100
▁brain 100
raw 100
czy 100
▁mol 100
▁another 100
gg 100
ek 100
lt 100
ki 100
▁כל 100
▁num 100
▁eff 100
ده 100
ities 100
قة 100
ids 100
ello 100
▁econ 100
▁school 100
ło 100
bre 100
▁למ 100
▁feel 100
▁thought 100
▁him 100
▁200 100
▁prze 100
pect 100
ede 100
▁ess 100
▁della 100
مكن 100
▁צ 100
▁eng 100
رة 100
▁الس 100
▁uit 100
wor 100
▁mean 100
שר 100
▁interest 100
▁son 100
▁help 100
▁compl 100
▁power 100
▁kun 100
חי 100
▁change 100
▁vis 100
▁second 100
▁pos 100
▁before 100
▁ed 100
▁men 100
يع 100
▁afr 100
▁cour 100
▁التي 100
▁didn 100
ać 100
▁pens 100
▁nel 100
▁ها 100
▁pass 100
▁über 100
قا 100
▁sl 100
bo 100
▁deze 100
▁econom 100
ido 100
▁inv 100
sel 100
يل 100
ko 100
▁przy 100
cess 100
▁ws 100
با 100
▁está 100
ane 100
▁ted 100
ction 100
▁אות 100
▁ris 100
▁hist 100
טי 100
▁sin 100
▁word 100
סי 100
▁برای 100
עי 100
كل 100
▁famil 100
בה 100
▁never 100
▁started 100
▁det 100
▁understand 100
net 100
▁kom 100
▁imm 100
▁الذ 100
بر 100
▁הת 100
وع 100
anno 100
▁هنا 100
att 100
▁turn 100
▁story 100
▁water 100
▁kön 100
▁went 100
ioni 100
גי 100
port 100
یز 100
ופ 100
gu 100
▁esto 100
▁bit 100
up 100
ori 100
دي 100
رف 100
▁give 100
ility 100
▁qual 100
▁كل 100
▁expl 100
ka 100
▁better 100
▁ذلك 100
▁دا 100
ner 100
ומ 100
▁ale 100
▁إلى 100
▁found 100
▁point 100
▁ś 100
▁partic 100
ici 100
قع 100
חנו 100
▁بر 100
▁cz 100
erd 100
va 100
▁progr 100
▁rob 100
▁pa 100
▁אבל 100
▁att 100
ieve 100
ura 100
▁vor 100
▁6 100
▁אז 100
اه 100
ists 100
▁diese 100
▁pop 100
▁cell 100
▁fil 100
▁mag 100
ings 100
▁mis 100
▁might 100
عت 100
▁high 100
▁fu 100
▁thank 100
وب 100
▁dire 100
gt 100
▁doll 100
▁sort 100
▁الك 100
ito 100
▁bus 100
وج 100
azione 100
▁fat 100
wi 100
▁الج 100
ku 100
▁ap 100
▁الن 100
قي 100
בו 100
▁ja 100
▁hij 100
ced 100
▁each 100
▁bot 100
▁ste 100
▁יכול 100
שו 100
▁לע 100
▁course 100
uro 100
elijk 100
▁land 100
rem 100
ural 100
velop 100
▁still 100
سی 100
ari 100
oro 100
cept 100
aus 100
رب 100
gether 100
ami 100
▁lar 100
רה 100
▁naar 100
▁next 100
▁glo 100
▁ago 100
ني 100
▁hebben 100
ward 100
eden 100
▁contro 100
cu 100
▁together 100
گر 100
▁commun 100
▁במ 100
iet 100
▁sign 100
▁conf 100
ny 100
ath 100
▁nas 100
خر 100
alth 100
▁ט 100
ins 100
biamo 100
its 100
▁های 100
▁غ 100
▁הם 100
by 100
▁الا 100
▁gro 100
▁tot 100
ische 100
▁develop 100
▁able 100
▁sub 100
▁du 100
enti 100
▁anim 100
▁grow 100
▁grand 100
▁technology 100
▁door 100
▁million 100
▁يمكن 100
▁مت 100
onder 100
▁prof 100
ween 100
▁et 100
▁vers 100
▁four 100
▁بد 100
سب 100
ita 100
▁שי 100
cer 100
▁מי 100
▁cas 100
▁יש 100
یش 100
▁mor 100
▁val 100
lu 100
▁9 100
▁בע 100
▁ass 100
▁set 100
erm 100
▁ant 100
▁came 100
▁cosa 100
ines 100
ść 100
aph 100
▁stu 100
مر 100
▁data 100
كون 100
قط 100
▁jo 100
▁between 100
▁así 100
▁tu 100
حت 100
▁dist 100
▁شما 100
ותר 100
ati 100
כם 100
ness 100
bal 100
▁learn 100
ché 100
ited 100
ital 100
▁project 100
וח 100
▁fut 100
▁place 100
▁mal 100
ience 100
read 100
▁lat 100
iness 100
▁probab 100
arch 100
أن 100
▁uno 100
▁7 100
كم 100
▁geb 100
śmy 100
رت 100
▁הע 100
▁gra 100
ieren 100
ruct 100
▁ah 100
ized 100
▁few 100
▁questa 100
▁הח 100
▁הש 100
iter 100
▁8 100
anie 100
▁30 100
zt 100
וק 100
▁hal 100
self 100
צי 100
ri 100
ures 100
▁50 100
▁too 100
های 100
ania 100
▁cost 100
ros 100
▁sal 100
▁ir 100
▁هست 100
▁bill 100
▁الإ 100
▁used 100
فا 100
▁الش 100
ank 100
der 100
▁רו 100
▁15 100
duc 100
amm 100
▁este 100
▁small 100
▁question 100
▁resp 100
ational 100
▁kon 100
▁old 100
▁ni 100
ps 100
▁mijn 100
▁מת 100
ample 100
aal 100
én 100
▁maybe 100
ida 100
yn 100
▁עם 100
▁colle 100
▁יותר 100
▁mater 100
عة 100
▁fac 100
▁char 100
▁lang 100
isch 100
▁publ 100
▁wo 100
▁children 100
zą 100
▁wię 100
ways 100
▁لم 100
▁read 100
▁کار 100
▁perché 100
▁gl 100
▁cal 100
▁light 100
▁mensen 100
aut 100
▁100 100
مان 100
▁מש 100
▁לי 100
▁mir 100
▁sit 100
erv 100
يف 100
▁מס 100
▁مث 100
▁esta 100
▁done 100
▁def 100
ños 100
uss 100
▁univers 100
▁nach 100
▁looking 100
▁wa 100
▁whole 100
▁less 100
ats 100
oney 100
▁لي 100
▁open 100
▁vi 100
▁move 100
▁doesn 100
▁nos 100
▁– 100
▁abbiamo 100
▁hu 100
els 100
▁cult 100
▁health 100
iert 100
▁הר 100
▁love 100
ino 100
וג 100
▁mind 100
וש 100
ין 100
pos 100
▁fa 100
▁care 100
جا 100
▁moment 100
▁وه 100
▁werden 100
▁sem 100
▁hard 100
לא 100
می 100
▁example 100
eten 100
מש 100
▁kr 100
▁einen 100
▁information 100
▁women 100
▁cur 100
▁czy 100
ellen 100
صل 100
▁alt 100
▁net 100
▁היא 100
ters 100
▁الق 100
▁live 100
tern 100
selves 100
▁stor 100
iones 100
hl 100
▁hoe 100
iał 100
▁social 100
▁sing 100
▁מע 100
▁mot 100
سم 100
▁five 100
▁الص 100
▁giv 100
פר 100
▁الط 100
▁vide 100
endo 100
▁test 100
land 100
▁pun 100
رات 100
▁begin 100
▁os 100
▁prz 100
▁قد 100
▁sag 100
▁bes 100
▁bre 100
▁lud 100
ope 100
ana 100
▁oh 100
ęd 100
▁always 100
▁book 100
ones 100
▁الف 100
▁wanted 100
▁mark 100
ative 100
▁sta 100
▁dav 100
▁tien 100
ount 100
▁everything 100
מת 100
▁elect 100
▁polit 100
me 100
▁können 100
pre 100
par 100
nect 100
ird 100
▁تا 100
یا 100
▁working 100
ustr 100
▁rest 100
▁gli 100
▁é 100
▁sent 100
▁dise 100
▁ث 100
▁او 100
כי 100
ji 100
▁process 100
▁computer 100
▁تر 100
▁gre 100
▁space 100
سي 100
▁hay 100
iten 100
▁kids 100
ję 100
ional 100
ogr 100
cul 100
▁leg 100
خص 100
▁times 100
osa 100
▁reas 100
▁supp 100
isten 100
▁trying 100
▁money 100
▁roz 100
▁stand 100
ضا 100
cle 100
▁solo 100
▁kunnen 100
▁chang 100
▁lab 100
▁ext 100
▁muy 100
▁believe 100
▁vie 100
▁أو 100
ett 100
لة 100
▁gover 100
of 100
▁fre 100
ili 100
▁oder 100
ble 100
▁global 100
▁succ 100
ates 100
ng 100
▁tro 100
▁vir 100
▁teach 100
hren 100
gun 100
▁using 100
▁contin 100
▁away 100
▁super 100
▁hacer 100
▁country 100
▁evol 100
▁food 100
▁אם 100
▁چیز 100
▁lead 100
▁pie 100
jo 100
בים 100
▁robot 100
▁هي 100
▁dei 100
dy 100
▁nost 100
ather 100
ثر 100
▁الخ 100
orn 100
▁prot 100
▁ons 100
vi 100
ief 100
ijd 100
ider 100
▁stop 100
any 100
▁إن 100
ani 100
▁educ 100
▁speci 100
▁היה 100
zione 100
▁molto 100
▁tam 100
▁mich 100
▁cuando 100
▁eso 100
▁nur 100
▁run 100
▁pict 100
vir 100
wh 100
▁bad 100
▁nam 100
▁internet 100
gl 100
▁ans 100
▁są 100
iment 100
▁sein 100
▁viel 100
hal 100
ción 100
▁nuest 100
▁بع 100
▁mid 100
اده 100
aces 100
ember 100
מר 100
▁number 100
▁thinking 100
hn 100
nych 100
▁cir 100
▁gente 100
▁minut 100
ini 100
▁ev 100
ments 100
▁quando 100
hip 100
▁zou 100
▁term 100
לים 100
ores 100
ja 100
▁earth 100
▁ru 100
ły 100
▁sul 100
تم 100
שות 100
▁هناك 100
▁fra 100
▁الآ 100
ize 100
▁create 100
▁rad 100
את 100
▁aff 100
ivid 100
▁equ 100
til 100
▁sus 100
▁walk 100
▁fig 100
▁home 100
▁means 100
▁took 100
▁energy 100
وت 100
verse 100
▁hun 100
esso 100
▁film 100
▁ment 100
▁delle 100
ados 100
דר 100
▁africa 100
الم 100
וי 100
▁kle 100
aba 100
▁parte 100
▁friend 100
allen 100
▁const 100
▁dus 100
▁الذي 100
▁لكن 100
▁future 100
▁כא 100
▁enough 100
ric 100
▁pas 100
ga 100
▁interesting 100
דים 100
▁tym 100
עים 100
▁cle 100
acy 100
ולם 100
▁così 100
וצ 100
▁connect 100
▁kl 100
▁kann 100
▁blo 100
aps 100
▁sw 100
▁planet 100
یست 100
▁left 100
▁ond 100
▁norm 100
▁bij 100
▁אנחנו 100
ues 100
▁zw 100
ungen 100
▁cui 100
▁become 100
کن 100
▁govern 100
▁مش 100
ering 100
▁getting 100
▁head 100
▁הק 100
ativ 100
▁id 100
▁حال 100
▁air 100
▁stre 100
▁które 100
cover 100
▁sz 100
ouw 100
ری 100
▁phys 100
gn 100
▁science 100
▁without 100
▁qué 100
pro 100
▁hab 100
▁says 100
▁einer 100
▁andere 100
▁quite 100
▁add 100
▁pret 100
zyst 100
▁probably 100
ican 100
ape 100
ouse 100
▁grou 100
af 100
▁ref 100
▁sense 100
▁result 100
כו 100
▁god 100
▁% 100
ef 100
▁face 100
دم 100
▁bar 100
كان 100
▁complet 100
▁بعد 100
ron 100
▁مو 100
▁half 100
ws 100
▁gel 100
▁سا 100
▁auch 100
אים 100
js 100
▁control 100
▁building 100
▁تو 100
pu 100
▁porque 100
▁dom 100
▁month 100
▁stuff 100
mer 100
▁باش 100
▁product 100
▁happened 100
▁arch 100
ices 100
▁simple 100
▁alla 100
col 100
بل 100
▁علي 100
▁chi 100
▁comes 100
ator 100
▁dollars 100
▁sam 100
▁talking 100
emy 100
lam 100
▁india 100
▁mein 100
iting 100
gli 100
▁loc 100
ilt 100
ברים 100
▁wel 100
▁wonder 100
قل 100
bs 100
plic 100
▁gem 100
▁mem 100
▁okay 100
man 100
▁video 100
▁لدي 100
▁aqu 100
ertain 100
▁beaut 100
▁loro 100
▁gi 100
▁later 100
▁anni 100
▁making 100
▁moż 100
דה 100
▁fare 100
▁mund 100
▁business 100
▁top 100
wie 100
▁tre 100
▁הז 100
1; 100
▁&#91; 100
3; 100
▁&#93; 100
▁dann 100
▁socie 100
▁نف 100
▁خوا 100
▁scient 100
من 100
▁وج 100
▁ont 100
▁har 100
يات 100
▁inno 100
▁einem 100
רות 100
▁ps 100
ظر 100
حا 100
▁أي 100
▁ولك 100
▁body 100
atie 100
رك 100
▁bring 100
ibt 100
▁ved 100
▁abs 100
▁material 100
ever 100
נית 100
zu 100
▁acr 100
קה 100
▁ook 100
▁כי 100
▁gesch 100
anto 100
▁בה 100
▁individ 100
▁job 100
▁sab 100
▁else 100
▁rese 100
led 100
▁red 100
▁essere 100
▁invest 100
ناس 100
▁sehr 100
ät 100
▁anything 100
▁bed 100
▁dru 100
▁mond 100
▁fund 100
▁ideas 100
▁tip 100
▁model 100
▁keep 100
▁gir 100
▁terr 100
▁room 100
▁anche 100
viron 100
uto 100
▁cond 100
▁הזה 100
▁research 100
▁فقط 100
lex 100
ury 100
تي 100
▁arr 100
▁city 100
▁18 100
▁dig 100
ument 100
▁todo 100
▁לח 100
▁اون 100
▁particular 100
▁ای 100
bie 100
▁phot 100
łem 100
▁environ 100
▁/ 100
▁ra 100
▁public 100
▁persone 100
▁incred 100
inci 100
▁12 100
amy 100
indi 100
▁makes 100
▁wird 100
▁eas 100
heid 100
▁oce 100
▁mic 100
▁effect 100
anz 100
▁לש 100
ba 100
▁side 100
▁hanno 100
▁sound 100
▁such 100
änd 100
▁مج 100
▁cer 100
▁dre 100
▁mie 100
▁six 100
ges 100
▁ora 100
▁عند 100
מים 100
ts 100
▁seem 100
ischen 100
ma 100
قی 100
res 100
▁exc 100
enza 100
▁ولكن 100
▁الر 100
▁coming 100
▁آنها 100
▁daar 100
▁מח 100
▁lives 100
▁pretty 100
▁mas 100
cze 100
sten 100
ائ 100
▁40 100
▁biolog 100
oud 100
ują 100
▁تع 100
▁ta 100
▁quindi 100
▁countries 100
▁case 100
▁אתם 100
ią 100
eft 100
ene 100
יתי 100
ño 100
▁za 100
וכ 100
▁nog 100
▁hope 100
iger 100
án 100
ann 100
▁imagine 100
▁allow 100
owe 100
▁across 100
▁doen 100
بد 100
ying 100
▁bis 100
ograph 100
گی 100
pres 100
▁conc 100
▁מק 100
▁quello 100
▁amaz 100
▁once 100
בע 100
ios 100
▁sel 100
▁modo 100
▁الو 100
▁meer 100
acht 100
▁ko 100
▁menschen 100
erence 100
ück 100
ijke 100
▁שמ 100
vis 100
gest 100
press 100
izz 100
▁exp 100
▁innov 100
▁نح 100
بت 100
▁goes 100
▁años 100
▁fas 100
▁הה 100
▁خود 100
▁شد 100
▁told 100
▁ot 100
▁כך 100
▁سو 100
▁port 100
ork 100
▁נו 100
▁cho 100
ately 100
▁qui 100
▁có 100
▁yet 100
▁reason 100
śli 100
▁pap 100
ensch 100
▁dzie 100
مت 100
▁הד 100
▁tw 100
elle 100
da 100
▁dell 100
▁living 100
▁nor 100
لف 100
▁happens 100
jor 100
▁داشت 100
aft 100
▁כמו 100
▁young 100
ime 100
nym 100
aten 100
▁incre 100
▁dev 100
▁line 100
kie 100
▁ey 100
▁trad 100
كثر 100
▁مثل 100
▁basically 100
▁pom 100
▁اما 100
▁ways 100
▁fot 100
ipt 100
▁alm 100
▁לפ 100
was 100
▁mass 100
▁bard 100
▁patient 100
▁gibt 100
▁הפ 100
מן 100
▁ihnen 100
▁cou 100
▁שלי 100
do 100
رض 100
iti 100
▁saw 100
where 100
ales 100
▁having 100
lau 100
که 100
ivo 100
يت 100
▁הג 100
▁ży 100
▁ده 100
▁experience 100
oot 100
▁seen 100
iendo 100
▁music 100
elen 100
bar 100
▁בי 100
▁sobre 100
▁دی 100
▁wur 100
▁problems 100
▁hour 100
כים 100
▁environment 100
ization 100
לק 100
▁לנו 100
▁waren 100
▁euro 100
▁wil 100
اره 100
▁while 100
anda 100
נת 100
▁algo 100
▁family 100
▁تص 100
icult 100
▁ahora 100
▁nun 100
שהו 100
▁obs 100
▁tutti 100
▁bab 100
▁days 100
▁decid 100
▁remember 100
▁camp 100
▁onze 100
▁inside 100
akt 100
▁مد 100
ną 100
sen 100
ared 100
▁york 100
▁natural 100
enden 100
انی 100
ined 100
▁exact 100
▁les 100
imos 100
urs 100
ثير 100
▁self 100
▁25 100
iento 100
ily 100
▁billion 100
▁tego 100
▁אחד 100
וס 100
ورد 100
fer 100
▁contr 100
▁mundo 100
lijk 100
▁level 100
▁picture 100
▁aud 100
▁dam 100
▁state 100
▁girl 100
▁prov 100
▁توان 100
▁geen 100
▁وقت 100
علم 100
נט 100
▁program 100
▁both 100
▁hund 100
▁watch 100
اری 100
▁og 100
ousand 100
▁الد 100
▁discover 100
gel 100
ורה 100
por 100
▁present 100
▁شي 100
▁pon 100
▁states 100
▁ric 100
ament 100
▁news 100
-- 100
▁pain 100
ista 100
ether 100
כת 100
▁asked 100
▁china 100
▁nothing 100
▁بش 100
▁langu 100
▁ca 100
▁post 100
line 100
▁welt 100
▁tutto 100
▁single 100
▁ven 100
▁jaar 100
נס 100
▁دو 100
rop 100
fect 100
▁בש 100
ield 100
هر 100
▁everybody 100
▁thousand 100
itive 100
▁ur 100
ident 100
דע 100
▁wereld 100
imes 100
▁zien 100
لم 100
▁tun 100
▁history 100
▁הס 100
▁lav 100
یت 100
▁within 100
▁bro 100
▁cells 100
▁whether 100
▁almost 100
ark 100
▁noch 100
▁certain 100
▁dla 100
▁midd 100
chte 100
▁cancer 100
▁dep 100
▁sehen 100
▁wrong 100
רת 100
▁demo 100
▁oper 100
▁unter 100
▁سال 100
ware 100
ants 100
▁gew 100
ala 100
اص 100
▁ple 100
▁arm 100
cho 100
str 100
istem 100
▁treat 100
▁רק 100
▁hom 100
▁nad 100
▁yo 100
los 100
és 100
يث 100
iful 100
▁relig 100
▁wszyst 100
ender 100
▁saying 100
▁versch 100
کر 100
▁bin 100
▁clim 100
▁ret 100
▁dieser 100
▁coll 100
▁answer 100
▁hear 100
▁heart 100
▁class 100
cun 100
fr 100
▁تق 100
▁واقع 100
bra 100
▁ju 100
ready 100
iva 100
rze 100
vie 100
▁וב 100
▁יכולים 100
▁etwas 100
ras 100
▁الآن 100
ages 100
▁sure 100
▁בת 100
▁כדי 100
▁rich 100
▁tele 100
gi 100
שת 100
baj 100
ulation 100
▁przez 100
▁هر 100
▁mondo 100
nego 100
▁must 100
acter 100
▁onder 100
kom 100
bbe 100
dat 100
رس 100
▁سن 100
مو 100
▁aquí 100
▁extra 100
▁يت 100
▁זו 100
▁sou 100
▁nature 100
▁beautiful 100
▁ihr 100
▁wid 100
mos 100
bers 100
▁hy 100
aż 100
مة 100
بي 100
▁לק 100
▁already 100
▁interess 100
▁durch 100
▁situ 100
▁tom 100
▁إذا 100
ować 100
▁שלנו 100
▁mö 100
▁low 100
▁הב 100
▁مح 100
▁chr 100
▁więc 100
▁کنیم 100
▁تح 100
یلی 100
▁لأن 100
לות 100
▁تلك 100
▁market 100
▁حت 100
▁kill 100
في 100
حدث 100
▁lle 100
▁guy 100
▁matter 100
cript 100
uje 100
ony 100
ían 100
עות 100
▁یا 100
imo 100
▁activ 100
▁جدا 100
▁looks 100
▁fall 100
▁speak 100
▁todos 100
▁كانت 100
▁true 100
▁يع 100
▁possib 100
▁twe 100
▁habe 100
يرة 100
▁lim 100
▁often 100
▁sat 100
▁mer 100
gar 100
▁الى 100
▁wind 100
▁exist 100
ted 100
▁fue 100
▁decis 100
▁mess 100
▁ול 100
▁appro 100
lus 100
▁który 100
▁عندما 100
▁worden 100
▁possible 100
▁بعض 100
▁cosas 100
▁حس 100
▁ست 100
انه 100
▁disc 100
▁wiss 100
▁works 100
ctor 100
צה 100
▁math 100
▁amazing 100
كر 100
raf 100
בור 100
▁buen 100
▁sil 100
icz 100
▁someone 100
iera 100
▁espe 100
less 100
▁spend 100
כן 100
▁ام 100
▁לב 100
▁histor 100
ياء 100
▁fatto 100
▁west 100
▁naj 100
iar 100
▁dos 100
▁אנו 100
van 100
osp 100
▁experiment 100
خل 100
nej 100
▁pal 100
▁sistem 100
▁tec 100
▁zur 100
ób 100
cin 100
▁mehr 100
▁60 100
▁success 100
lie 100
▁questi 100
דו 100
▁age 100
▁heard 100
ias 100
com 100
▁zn 100
▁تن 100
iedy 100
▁drug 100
▁psych 100
▁group 100
▁puede 100
▁trabaj 100
▁neur 100
▁individual 100
בות 100
▁جم 100
▁وأ 100
▁miss 100
▁challen 100
oman 100
▁mog 100
▁sym 100
▁education 100
▁united 100
▁community 100
▁cose 100
ör 100
דול 100
▁personal 100
▁kiedy 100
▁کنم 100
▁occ 100
جام 100
מצ 100
אי 100
▁universe 100
pen 100
▁کنند 100
▁complex 100
▁team 100
▁להיות 100
▁media 100
▁serv 100
گاه 100
▁months 100
ודה 100
anti 100
▁due 100
▁green 100
▁ident 100
▁verb 100
uk 100
ollow 100
▁until 100
▁past 100
▁אנשים 100
▁looked 100
olo 100
▁zm 100
▁figure 100
▁anal 100
▁الناس 100
▁liter 100
work 100
pir 100
▁simp 100
רג 100
▁foc 100
▁engine 100
▁شده 100
▁yes 100
stead 100
▁sle 100
▁chem 100
uur 100
▁sometimes 100
▁alles 100
▁nella 100
▁absol 100
plo 100
▁america 100
▁نش 100
▁dna 100
ired 100
▁iss 100
▁ye 100
▁hundred 100
yt 100
▁كنت 100
▁vr 100
▁struct 100
▁instead 100
یک 100
▁eigen 100
וך 100
▁dest 100
vious 100
▁built 100
aan 100
מות 100
▁myself 100
ret 100
▁hor 100
▁همه 100
▁cómo 100
▁bien 100
pow 100
▁kil 100
▁rag 100
▁democr 100
▁isn 100
ler 100
▁zwe 100
▁نمی 100
pa 100
ún 100
äch 100
▁יוד 100
▁somebody 100
▁ged 100
ave 100
طور 100
▁princi 100
وی 100
▁tool 100
שוב 100
▁verd 100
مات 100
▁może 100
▁kne 100
▁stories 100
▁idee 100
حة 100
▁object 100
esz 100
lio 100
▁cop 100
▁queste 100
▁since 100
▁heeft 100
▁veel 100
ario 100
emat 100
▁din 100
ement 100
▁government 100
▁pay 100
وق 100
▁كه 100
▁enc 100
▁behav 100
ling 100
▁follow 100
▁invent 100
▁العالم 100
▁تج 100
بع 100
▁sn 100
ii 100
zę 100
▁gran 100
▁places 100
aria 100
▁groß 100
كت 100
▁bei 100
▁ach 100
▁prima 100
▁چه 100
iden 100
▁ri 100
▁words 100
▁comun 100
▁ai 100
▁night 100
▁language 100
▁order 100
side 100
.000 100
fic 100
▁dall 100
unch 100
▁خیلی 100
▁חי 100
lichen 100
▁noi 100
▁jeśli 100
portun 100
▁opt 100
ode 100
▁opportun 100
▁wirk 100
▁front 100
▁instit 100
▁dal 100
▁nue 100
ruik 100
▁entire 100
▁wied 100
▁house 100
יתה 100
ares 100
▁טוב 100
ense 100
▁step 100
▁middle 100
כשי 100
iche 100
▁zd 100
▁caus 100
rawd 100
liche 100
▁einf 100
▁fant 100
▁personas 100
▁prop 100
ład 100
▁zro 100
ולי 100
▁lie 100
ونه 100
▁consum 100
▁ger 100
eter 100
▁piece 100
▁bud 100
▁fav 100
▁species 100
▁کنید 100
▁tipo 100
▁large 100
fort 100
▁mother 100
וז 100
▁typ 100
▁تما 100
▁comb 100
ście 100
▁zum 100
▁algun 100
ديد 100
▁entre 100
اف 100
crib 100
▁צרי 100
▁rze 100
▁mig 100
▁va 100
▁świ 100
▁taking 100
mi 100
عم 100
▁mole 100
waż 100
ots 100
ton 100
jąc 100
▁wasn 100
▁rather 100
▁چیزی 100
▁سر 100
▁سي 100
▁اگر 100
وس 100
وي 100
ضع 100
▁everyone 100
▁انجام 100
▁80 100
▁גם 100
▁vez 100
▁bardzo 100
eg 100
▁orig 100
ycz 100
ades 100
keit 100
▁completely 100
▁students 100
anza 100
▁dz 100
vert 100
▁yeah 100
▁though 100
حي 100
▁لقد 100
▁están 100
▁يج 100
▁quick 100
▁focus 100
nik 100
אה 100
▁ast 100
itect 100
▁exactly 100
łe 100
ima 100
▁itself 100
▁mia 100
▁11 100
▁sor 100
▁interact 100
▁اند 100
▁emot 100
▁enton 100
▁medic 100
oth 100
▁mult 100
ister 100
▁ocean 100
עה 100
▁entonces 100
ames 100
קר 100
▁לעשות 100
▁minutes 100
▁society 100
uch 100
▁meet 100
لب 100
▁revol 100
▁tal 100
▁share 100
▁star 100
פה 100
▁sex 100
▁third 100
▁kinds 100
▁לת 100
▁وب 100
▁تت 100
upp 100
▁couple 100
▁sea 100
▁via 100
▁enorm 100
▁sun 100
▁maken 100
▁study 100
אות 100
קים 100
iny 100
▁woman 100
▁bez 100
▁game 100
▁mnie 100
▁deb 100
▁ese 100
▁ourselves 100
▁iets 100
azioni 100
▁friends 100
ستط 100
▁będ 100
▁oil 100
▁won 100
ullie 100
▁jullie 100
put 100
ium 100
▁fly 100
etzt 100
▁كيف 100
imens 100
▁io 100
▁بت 100
קי 100
▁stra 100
▁199 100
amb 100
▁المت 100
▁anc 100
śl 100
פת 100
▁فر 100
ash 100
▁decided 100
شر 100
▁gets 100
▁recent 100
פור 100
ples 100
▁עצ 100
▁dingen 100
▁unsere 100
▁disease 100
▁happening 100
▁extrem 100
▁began 100
▁ave 100
uit 100
iek 100
▁themselves 100
▁geh 100
▁któr 100
▁company 100
▁web 100
▁اف 100
▁ihre 100
▁واحد 100
ress 100
חת 100
▁free 100
ged 100
▁أنه 100
zego 100
▁wür 100
▁wä 100
▁huge 100
▁pred 100
▁turns 100
istic 100
▁wirklich 100
▁aver 100
הם 100
▁impro 100
assen 100
ności 100
▁became 100
▁وت 100
ordin 100
▁deal 100
▁tiene 100
▁sud 100
▁guard 100
▁perfect 100
▁transform 100
▁فکر 100
▁raz 100
▁name 100
▁consider 100
▁oc 100
▁هستند 100
▁kw 100
▁nar 100
▁intern 100
pie 100
▁tecnolog 100
רח 100
▁happy 100
met 100
bro 100
سر 100
fen 100
inge 100
atic 100
עשה 100
gh 100
רך 100
ungs 100
min 100
▁ciò 100
נשים 100
▁sum 100
ól 100
ama 100
▁cy 100
agen 100
▁أكثر 100
chi 100
ffen 100
▁mio 100
▁gaan 100
▁area 100
bién 100
▁también 100
▁cał 100
▁stato 100
▁defin 100
face 100
▁leven 100
▁meine 100
زه 100
▁record 100
▁meas 100
▁خواه 100
▁pueden 100
heit 100
▁bott 100
▁learned 100
▁machine 100
anc 100
▁spr 100
یه 100
▁dra 100
▁win 100
▁לג 100
▁normal 100
▁viol 100
عب 100
▁eer 100
▁along 100
▁event 100
▁ات 100
▁לכם 100
▁fü 100
▁شخص 100
▁created 100
▁week 100
▁shows 100
▁intell 100
inden 100
dzie 100
▁priv 100
▁otr 100
▁وجود 100
▁omdat 100
عتقد 100
▁cambi 100
▁scr 100
▁weil 100
▁prom 100
▁spo 100
▁poi 100
▁forma 100
▁animals 100
ראה 100
▁divers 100
▁black 100
▁clear 100
lko 100
جه 100
▁vert 100
wards 100
▁czas 100
▁خوب 100
▁expect 100
ola 100
▁civ 100
▁vog 100
▁deep 100
دة 100
▁بل 100
▁questions 100
amento 100
zelf 100
▁squ 100
▁dove 100
▁arbe 100
▁profess 100
▁ומ 100
▁tenemos 100
▁transcript 100
▁בח 100
▁gut 100
haps 100
▁leben 100
not 100
▁dzi 100
▁nap 100
▁חוש 100
▁دست 100
▁قبل 100
▁perhaps 100
▁pier 100
▁direct 100
▁עו 100
▁field 100
חות 100
كي 100
▁jour 100
▁sia 100
ished 100
▁listen 100
زر 100
▁تم 100
▁זאת 100
▁guys 100
▁dro 100
ró 100
▁ones 100
▁الي 100
▁gebruik 100
▁bur 100
▁vita 100
▁werk 100
▁against 100
ena 100
zym 100
acji 100
▁zeit 100
▁hours 100
▁viv 100
▁tijd 100
üs 100
▁early 100
▁wurde 100
łow 100
▁הצ 100
astic 100
▁oth 100
▁dir 100
▁grande 100
طر 100
ush 100
▁نحن 100
▁death 100
▁dif 100
▁مرد 100
imy 100
ایی 100
▁fast 100
ateg 100
▁machen 100
▁others 100
▁mów 100
▁arg 100
ker 100
ół 100
▁x 100
▁يق 100
▁learning 100
▁relations 100
▁knew 100
itting 100
▁סי 100
כשיו 100
▁estos 100
▁culture 100
וו 100
▁american 100
▁زند 100
▁couldn 100
▁esper 100
כה 100
▁ذ 100
cks 100
inen 100
▁hold 100
▁zal 100
עת 100
▁tas 100
▁labor 100
▁continu 100
▁seven 100
▁vida 100
▁dieses 100
wy 100
▁گفت 100
▁peri 100
esto 100
▁full 100
ster 100
▁kra 100
ادة 100
apt 100
الي 100
igu 100
ains 100
▁الث 100
ases 100
ته 100
wij 100
▁داد 100
▁neg 100
▁کند 100
صب 100
ral 100
▁pra 100
▁wall 100
▁ليس 100
▁view 100
▁heel 100
▁zich 100
▁national 100
▁break 100
▁einfach 100
▁ec 100
ראות 100
▁tylko 100
ورة 100
▁architect 100
شياء 100
▁toen 100
▁הנ 100
▁denken 100
خرى 100
aron 100
▁soft 100
▁gdy 100
▁wonderful 100
▁ogni 100
▁invol 100
fl 100
زی 100
▁seg 100
▁worked 100
ential 100
▁nuo 100
▁מאוד 100
▁esa 100
▁local 100
طة 100
aren 100
▁gave 100
▁systems 100
▁بين 100
▁realmente 100
وش 100
اج 100
ped 100
▁estas 100
▁بگ 100
▁takes 100
▁repres 100
▁cat 100
▁hace 100
▁eight 100
▁inse 100
▁john 100
▁اين 100
▁becom 100
שא 100
▁خل 100
▁lots 100
uj 100
fü 100
▁trat 100
ered 100
صد 100
▁دان 100
ature 100
▁finally 100
▁zelf 100
▁حد 100
iene 100
▁esc 100
nos 100
▁communic 100
▁pok 100
▁blue 100
▁amount 100
mt 100
▁respons 100
رار 100
aring 100
▁tur 100
▁europe 100
▁problema 100
eln 100
▁least 100
▁evolution 100
▁أف 100
▁ult 100
▁immer 100
asta 100
itten 100
▁echt 100
▁ken 100
▁goog 100
▁behavior 100
▁main 100
▁نت 100
▁sistema 100
סט 100
דם 100
ało 100
▁thousands 100
▁cut 100
▁difficult 100
امل 100
etic 100
▁tan 100
▁الغ 100
▁tiem 100
▁short 100
ئة 100
▁moving 100
▁prote 100
ource 100
دام 100
▁during 100
▁moeten 100
▁אמ 100
▁siamo 100
▁outside 100
▁די 100
▁zoals 100
▁obvious 100
ór 100
▁ludzi 100
uw 100
نی 100
▁אותו 100
▁favor 100
וף 100
▁powerful 100
▁goed 100
▁تغ 100
ara 100
▁pattern 100
▁أع 100
itu 100
▁besch 100
▁שע 100
▁لت 100
▁بنا 100
سان 100
גל 100
▁wsp 100
▁special 100
50 100
▁micro 100
▁poor 100
▁90 100
▁אל 100
son 100
▁century 100
▁בכל 100
▁map 100
este 100
יא 100
ستطيع 100
یده 100
▁نوع 100
▁16 100
▁distr 100
▁difference 100
ارد 100
▁עלי 100
ides 100
▁neces 100
inal 100
▁كما 100
ither 100
▁dice 100
▁center 100
▁fail 100
▁دیگر 100
▁protect 100
▁بسی 100
icos 100
▁behind 100
hmen 100
aciones 100
▁شيء 100
▁moral 100
▁clos 100
ggi 100
▁מצ 100
▁può 100
bia 100
▁pick 100
יותר 100
جل 100
ić 100
▁cada 100
▁llam 100
▁swo 100
▁paar 100
▁importante 100
ining 100
ney 100
▁momento 100
▁close 100
▁needs 100
utions 100
sh 100
▁só 100
▁אפ 100
▁dov 100
▁qualc 100
cio 100
▁— 100
▁industr 100
▁compass 100
▁intellig 100
▁הרבה 100
ift 100
▁mad 100
▁perform 100
eds 100
▁han 100
▁population 100
ika 100
رفت 100
▁propr 100
▁כמה 100
▁whatever 100
▁الان 100
▁hecho 100
▁surpr 100
فر 100
سة 100
נחנו 100
▁pic 100
bst 100
vin 100
▁phil 100
adas 100
ging 100
طف 100
ارة 100
▁tiempo 100
نگ 100
▁sólo 100
▁liber 100
▁common 100
ís 100
uc 100
▁nut 100
▁ض 100
▁sold 100
תם 100
▁يكون 100
unt 100
▁mó 100
▁support 100
ريق 100
▁san 100
▁حسنا 100
▁שזה 100
▁student 100
▁היו 100
emand 100
ught 100
▁بیش 100
▁pued 100
▁باید 100
etto 100
uego 100
▁וכ 100
▁lik 100
ograf 100
ix 100
▁podemos 100
jekt 100
▁ep 100
▁link 100
▁الوا 100
▁relationship 100
▁incredib 100
▁jetzt 100
ilar 100
ona 100
▁pract 100
▁עכשיו 100
elijke 100
igt 100
▁kid 100
▁אתה 100
▁collect 100
▁שנ 100
▁period 100
▁taken 100
▁نیست 100
▁لن 100
▁בס 100
ming 100
▁google 100
▁gior 100
▁beginning 100
جم 100
▁flow 100
▁hosp 100
▁press 100
▁visual 100
ział 100
ستخ 100
tà 100
ונים 100
rar 100
▁gan 100
▁ill 100
▁tras 100
▁absolut 100
טים 100
▁given 100
bor 100
▁hiv 100
▁sto 100
än 100
▁weg 100
▁access 100
▁wissen 100
itions 100
▁south 100
▁spos 100
▁twee 100
▁הט 100
▁زی 100
▁וזה 100
▁أنا 100
isto 100
▁yourself 100
ban 100
▁gaat 100
▁qualcosa 100
ability 100
عا 100
eks 100
▁pen 100
▁miles 100
یل 100
▁zap 100
▁14 100
iero 100
▁hot 100
בת 100
سل 100
▁woll 100
▁iniz 100
▁bal 100
▁tend 100
emen 100
ising 100
▁buy 100
ורים 100
▁הכ 100
▁każ 100
▁organiz 100
▁ya 100
وات 100
▁soll 100
▁zac 100
▁حول 100
▁eyes 100
▁habl 100
▁terms 100
esc 100
▁auto 100
ison 100
▁flo 100
oso 100
erde 100
▁hem 100
gio 100
▁anderen 100
عات 100
جة 100
vano 100
▁podr 100
▁verl 100
▁cra 100
king 100
▁مر 100
ías 100
چه 100
▁unser 100
וני 100
abor 100
▁hands 100
▁70 100
▁parts 100
▁leave 100
▁nucle 100
mal 100
ogn 100
▁seeing 100
icy 100
▁لذا 100
ساس 100
▁carb 100
▁تش 100
▁fundament 100
▁להת 100
▁general 100
▁ני 100
يش 100
▁major 100
▁כאן 100
onden 100
ador 100
▁image 100
▁cool 100
eng 100
▁easy 100
▁reach 100
▁rac 100
▁benef 100
ريد 100
iste 100
odzi 100
▁ecc 100
فعل 100
iver 100
▁שאני 100
ased 100
▁hatte 100
ives 100
ination 100
▁حتى 100
▁gez 100
▁audience 100
▁street 100
▁یه 100
year 100
▁changed 100
بة 100
yw 100
▁tempo 100
▁alg 100
▁rid 100
▁economic 100
▁دارد 100
▁alcun 100
chan 100
▁cannot 100
ريقة 100
▁requ 100
nte 100
▁vill 100
▁online 100
▁حيث 100
ention 100
ował 100
▁rod 100
▁altro 100
ختلف 100
▁dol 100
▁mucho 100
▁bere 100
▁turned 100
▁האלה 100
▁hol 100
▁wij 100
ąd 100
utt 100
▁mathemat 100
▁mut 100
لت 100
▁عمل 100
▁fore 100
▁corre 100
اء 100
▁gest 100
▁longer 100
edi 100
ava 100
▁var 100
▁perm 100
וע 100
▁denn 100
▁virus 100
▁ox 100
▁plant 100
▁ground 100
▁color 100
kon 100
▁ثم 100
▁pur 100
חה 100
for 100
▁الل 100
روع 100
air 100
▁روی 100
room 100
▁punto 100
śnie 100
▁וי 100
lud 100
▁near 100
▁tru 100
▁chin 100
▁משהו 100
▁tel 100
▁keine 100
▁humans 100
▁estaba 100
cing 100
▁slow 100
▁impact 100
▁diag 100
▁donde 100
▁fine 100
är 100
▁civil 100
▁paper 100
ادی 100
▁surv 100
▁wordt 100
▁lug 100
▁syn 100
إن 100
▁selbst 100
▁electric 100
▁simply 100
▁father 100
▁وقتی 100
▁finan 100
▁ואני 100
▁capac 100
istan 100
▁ball 100
▁powied 100
▁leute 100
▁איך 100
ches 100
chten 100
cious 100
▁baby 100
مي 100
▁بخ 100
enta 100
▁final 100
▁animal 100
iß 100
▁decir 100
▁ang 100
▁flu 100
▁vac 100
▁zus 100
emente 100
▁stay 100
ledge 100
▁parl 100
schaft 100
▁cities 100
▁gio 100
▁compan 100
▁sobie 100
▁هل 100
فس 100
▁needed 100
▁revolution 100
▁modern 100
rod 100
ugh 100
▁explain 100
▁size 100
▁realized 100
▁bat 100
▁viele 100
oit 100
▁suo 100
▁نظ 100
ieden 100
▁pregun 100
▁conse 100
rum 100
eder 100
▁مست 100
▁programm 100
lia 100
▁diesem 100
▁tradition 100
▁foot 100
▁photograph 100
ën 100
▁mac 100
ams 100
▁جه 100
▁creo 100
قيقة 100
▁kam 100
▁fort 100
idence 100
گه 100
▁signific 100
▁dollar 100
quen 100
▁było 100
לת 100
▁پس 100
▁poco 100
وند 100
تما 100
ער 100
day 100
▁نفس 100
▁17 100
uren 100
▁ber 100
▁laten 100
▁natur 100
ouwen 100
▁white 100
▁müs 100
▁שהם 100
▁bewe 100
▁farm 100
▁software 100
▁מב 100
ently 100
ander 100
▁scre 100
nia 100
▁verw 100
یچ 100
▁tienen 100
▁fur 100
contr 100
▁gol 100
▁مورد 100
▁spent 100
راء 100
▁feed 100
נג 100
lish 100
▁digital 100
ology 100
vil 100
▁gone 100
▁הל 100
zion 100
cil 100
oty 100
ivity 100
sto 100
▁ster 100
▁redu 100
▁הרא 100
▁scale 100
tu 100
▁بین 100
ley 100
oren 100
▁był 100
▁experien 100
▁zeg 100
▁مس 100
vero 100
▁moet 100
ources 100
▁być 100
▁interested 100
▁المش 100
rij 100
▁شود 100
▁lost 100
uen 100
▁één 100
▁parents 100
unque 100
▁ability 100
▁send 100
▁possiamo 100
▁vu 100
▁וע 100
kład 100
▁quickly 100
zyć 100
ively 100
leg 100
▁incredible 100
▁gas 100
▁zei 100
▁بح 100
▁pan 100
▁bene 100
cially 100
▁value 100
▁growth 100
▁sagte 100
▁coś 100
ئي 100
▁measure 100
שב 100
▁sagen 100
כות 100
▁بی 100
imento 100
▁fear 100
▁grad 100
▁13 100
▁poz 100
זי 100
omet 100
▁either 100
فة 100
▁vra 100
▁בר 100
▁tried 100
▁rzeczy 100
טה 100
▁ول 100
▁immag 100
car 100
▁dinge 100
omo 100
val 100
▁political 100
▁bueno 100
▁יודעים 100
▁crit 100
▁zwei 100
▁companies 100
▁dark 100
▁الما 100
▁eines 100
▁structure 100
▁לד 100
▁force 100
▁sudden 100
▁له 100
▁tag 100
ela 100
▁denk 100
▁feet 100
jer 100
oper 100
▁بسیار 100
abil 100
icas 100
▁מפ 100
▁key 100
liśmy 100
▁north 100
▁tar 100
▁اینکه 100
▁ancora 100
ouch 100
▁nieu 100
▁economy 100
▁necess 100
ival 100
▁hon 100
▁198 100
▁constru 100
▁á 100
▁pac 100
▁غير 100
▁compr 100
▁cere 100
▁diesen 100
▁serious 100
▁quel 100
▁کردم 100
▁similar 100
▁opportunity 100
▁foto 100
zent 100
jem 100
iving 100
▁زمان 100
▁estamos 100
▁aw 100
▁exam 100
ogen 100
▁box 100
ole 100
▁cual 100
הי 100
ha 100
ولا 100
▁שב 100
▁ون 100
▁david 100
▁predict 100
imi 100
▁الكثير 100
urt 100
▁gebe 100
▁schw 100
▁known 100
▁produce 100
▁sap 100
▁temper 100
▁انت 100
▁poll 100
▁haar 100
▁דבר 100
▁کش 100
▁concept 100
▁soort 100
وه 100
▁201 100
▁پیش 100
ption 100
iteit 100
▁strong 100
خذ 100
▁alleen 100
ستان 100
▁بیشتر 100
▁sugg 100
▁reality 100
win 100
hood 100
▁agr 100
fully 100
▁erg 100
oon 100
▁apr 100
▁degli 100
▁בו 100
▁mai 100
▁jahr 100
▁wouldn 100
ump 100
zz 100
▁bom 100
▁آخر 100
▁krij 100
▁durante 100
▁bacter 100
▁glau 100
ators 100
kow 100
▁sulla 100
بط 100
▁elk 100
▁bamb 100
▁vier 100
▁vedere 100
sche 100
▁leaders 100
alt 100
ضل 100
łą 100
▁jap 100
▁ממש 100
▁werd 100
▁network 100
▁sitting 100
▁eat 100
íamos 100
ua 100
nis 100
▁anyone 100
▁ولی 100
▁quella 100
▁growing 100
▁اله 100
▁auth 100
gs 100
cej 100
▁ביותר 100
▁mes 100
ienia 100
▁allem 100
▁sí 100
▁rock 100
▁knowledge 100
▁based 100
▁books 100
צים 100
▁computers 100
▁ban 100
▁felt 100
▁tools 100
▁compassion 100
رق 100
▁draw 100
fä 100
▁wła 100
▁approach 100
pio 100
▁convers 100
▁surface 100
▁stru 100
سبة 100
▁ust 100
▁technologies 100
▁patients 100
ram 100
▁represent 100
▁مي 100
▁sho 100
anger 100
▁sust 100
abe 100
▁solar 100
ffe 100
اري 100
▁jahren 100
▁travel 100
▁لو 100
▁verh 100
▁אותם 100
▁کم 100
ites 100
▁stage 100
▁jako 100
▁ludzie 100
عه 100
▁بزر 100
kl 100
▁theory 100
▁müssen 100
▁sł 100
▁entw 100
elli 100
ills 100
▁cli 100
▁teil 100
▁blood 100
▁suggest 100
▁brought 100
▁card 100
▁indust 100
▁لأ 100
▁climate 100
imiento 100
▁describ 100
▁نظر 100
חד 100
gre 100
▁dead 100
▁brit 100
▁hin 100
▁שהוא 100
etti 100
▁mij 100
itar 100
▁שלו 100
glich 100
▁eerste 100
uf 100
▁dopo 100
▁fight 100
▁development 100
▁خلال 100
▁trov 100
book 100
▁dic 100
▁images 100
▁changes 100
▁adv 100
bol 100
▁שיש 100
▁areas 100
▁اليوم 100
▁gar 100
▁law 100
פים 100
▁peque 100
▁manera 100
▁morning 100
▁ice 100
▁ellos 100
نب 100
▁laat 100
rebbe 100
▁eth 100
▁casa 100
▁born 100
▁innovation 100
▁pad 100
▁developed 100
ived 100
unden 100
▁persona 100
▁ging 100
▁pare 100
▁attention 100
▁نق 100
▁lad 100
uth 100
stell 100
▁fish 100
▁שם 100
zenia 100
▁pull 100
▁بب 100
ياة 100
▁مق 100
▁تكون 100
▁erf 100
▁weeks 100
▁wieder 100
jes 100
חים 100
צור 100
▁هن 100
▁rele 100
▁voi 100
▁base 100
óż 100
▁amb 100
▁mayor 100
▁mechan 100
▁write 100
ott 100
▁average 100
▁understanding 100
antes 100
izing 100
▁można 100
▁belang 100
▁pierws 100
▁starting 100
وز 100
ammen 100
▁bild 100
▁compet 100
▁spread 100
▁situation 100
ichtig 100
▁luego 100
sc 100
▁intro 100
▁influ 100
ex 100
▁esp 100
▁manag 100
nal 100
zioni 100
entially 100
راد 100
▁ממ 100
▁pub 100
▁wrote 100
▁bottom 100
▁scientists 100
▁muse 100
רט 100
مال 100
▁cris 100
▁tej 100
enz 100
▁davvero 100
▁anders 100
▁kleine 100
ule 100
▁לו 100
▁חד 100
▁نا 100
▁bank 100
▁teraz 100
cion 100
▁gives 100
▁באמת 100
▁physical 100
له 100
▁sar 100
▁divent 100
▁feeling 100
lemente 100
ismo 100
▁technologie 100
enie 100
▁לפני 100
▁mejor 100
مد 100
▁24 100
▁challenge 100
▁developing 100
▁nice 100
▁historia 100
▁مختلف 100
▁בק 100
▁الواقع 100
▁pla 100
▁اول 100
▁prac 100
imin 100
▁había 100
▁risk 100
▁سوف 100
כנו 100
▁يجب 100
▁mount 100
▁él 100
▁hig 100
▁numbers 100
▁ند 100
▁smart 100
▁giving 100
▁kor 100
▁zost 100
▁czę 100
▁würde 100
כון 100
▁weet 100
ichte 100
▁acqu 100
▁react 100
▁كب 100
▁myśl 100
▁ואז 100
▁استف 100
קום 100
▁path 100
דות 100
صول 100
▁div 100
▁tit 100
ność 100
▁doc 100
ادر 100
▁led 100
▁suff 100
▁tegen 100
▁פשו 100
▁extraordin 100
▁rap 100
لاق 100
▁fab 100
▁road 100
▁text 100
▁geld 100
▁uży 100
زار 100
▁desde 100
▁לראות 100
▁ce 100
▁sand 100
leicht 100
▁cover 100
▁damit 100
łam 100
ules 100
▁projekt 100
idos 100
▁depend 100
geb 100
▁الذين 100
▁przed 100
▁interes 100
▁pros 100
ensive 100
▁nobody 100
▁פע 100
▁separ 100
▁وهذا 100
▁carbon 100
▁absolutely 100
▁inspir 100
▁includ 100
▁הזו 100
▁forward 100
▁english 100
▁medical 100
▁hospital 100
▁literally 100
▁mismo 100
▁będzie 100
▁بن 100
▁wet 100
וט 100
▁spir 100
▁heraus 100
▁أيضا 100
bel 100
ahre 100
اني 100
▁confl 100
▁miejs 100
▁curr 100
ised 100
▁dag 100
atori 100
▁گرفت 100
▁generation 100
وية 100
▁بأن 100
ellow 100
▁element 100
▁להם 100
▁seems 100
▁500 100
itor 100
▁cars 100
▁affect 100
▁university 100
▁גדול 100
pi 100
▁زندگی 100
▁discovered 100
חר 100
esta 100
▁prost 100
ופן 100
ifica 100
ität 100
▁gene 100
ality 100
حظ 100
▁למעשה 100
▁gle 100
▁świat 100
▁segu 100
▁stan 100
▁standard 100
▁type 100
kommen 100
iesz 100
▁leb 100
▁عام 100
uring 100
▁save 100
وك 100
kel 100
▁استفاده 100
▁tych 100
▁gdzie 100
▁realize 100
▁vielleicht 100
zys 100
▁phone 100
▁tanto 100
▁لدينا 100
▁chinese 100
▁meth 100
▁hit 100
▁بم 100
otros 100
▁שלהם 100
אר 100
ונ 100
▁المد 100
▁movement 100
▁nod 100
▁playing 100
▁fire 100
نات 100
▁complic 100
▁fol 100
▁guess 100
hi 100
ops 100
▁except 100
▁hundreds 100
▁sac 100
بار 100
ków 100
▁صح 100
▁lay 100
▁vost 100
▁express 100
▁بها 100
uchen 100
زي 100
rol 100
▁dl 100
▁otra 100
▁meaning 100
▁macht 100
▁millions 100
kken 100
▁girls 100
las 100
▁tats 100
ieron 100
▁sell 100
▁manier 100
▁stess 100
▁zie 100
▁track 100
▁worth 100
▁اینجا 100
ances 100
enia 100
▁ton 100
▁altr 100
▁21 100
▁samen 100
از 100
▁eye 100
ussen 100
▁geme 100
▁ساخت 100
bed 100
▁perspect 100
ijken 100
▁dalla 100
▁ponie 100
▁sustain 100
اس 100
arlo 100
piel 100
▁touch 100
▁sempre 100
▁نه 100
▁aby 100
▁میکن 100
▁effic 100
▁fair 100
▁עד 100
▁recently 100
▁פי 100
▁nosotros 100
the 100
▁groot 100
▁مص 100
▁bek 100
وری 100
roll 100
▁pet 100
▁truth 100
tegr 100
هایی 100
▁196 100
text 100
▁shape 100
▁sever 100
▁total 100
▁telling 100
aban 100
▁running 100
ziej 100
▁ara 100
▁alone 100
▁ponieważ 100
pués 100
hlen 100
שמ 100
▁nostro 100
▁después 100
▁رفت 100
▁escu 100
▁300 100
▁college 100
▁dzię 100
▁avail 100
▁americ 100
ables 100
iard 100
▁רוצה 100
▁zusammen 100
▁hasta 100
صة 100
▁knows 100
▁sposób 100
head 100
▁volta 100
▁stim 100
פות 100
oci 100
▁blog 100
▁wen 100
کل 100
▁encontr 100
▁voice 100
yl 100
kte 100
▁לס 100
ser 100
▁proper 100
tract 100
▁ziem 100
▁דברים 100
▁już 100
ktion 100
▁جميع 100
کت 100
▁mos 100
▁رس 100
gend 100
▁رب 100
▁dent 100
▁dou 100
▁bir 100
▁مردم 100
▁detail 100
▁haven 100
▁vision 100
▁جد 100
auen 100
ties 100
rawdę 100
דרך 100
▁مهم 100
▁קי 100
▁capt 100
كرة 100
view 100
ęp 100
▁בכ 100
▁park 100
▁dimens 100
▁ud 100
▁שאנחנו 100
rie 100
برا 100
ford 100
▁neigh 100
▁hemos 100
▁nuestra 100
▁boy 100
▁especially 100
▁nell 100
לתי 100
▁lavoro 100
une 100
▁سل 100
▁zak 100
▁distrib 100
wet 100
▁کردن 100
▁soon 100
▁האם 100
urity 100
zenie 100
▁terug 100
▁obviously 100
▁aren 100
▁proces 100
▁industry 100
ßen 100
▁מד 100
▁showed 100
▁מר 100
ploy 100
▁ira 100
▁creating 100
▁fis 100
▁oggi 100
מוד 100
arse 100
▁virt 100
▁הסי 100
▁tener 100
▁dost 100
▁nuestro 100
ئية 100
▁incredibly 100
uer 100
▁شب 100
▁estud 100
kę 100
▁terror 100
▁mamy 100
ولة 100
kich 100
▁fal 100
▁hele 100
wią 100
▁bisog 100
▁día 100
▁anybody 100
▁أم 100
▁أحد 100
osten 100
▁jahre 100
cient 100
ניים 100
▁یکی 100
▁peace 100
ub 100
▁grote 100
▁mov 100
▁talked 100
iała 100
▁« 100
▁אך 100
▁wish 100
schien 100
▁allemaal 100
▁happiness 100
▁cin 100
▁quanto 100
▁capital 100
تون 100
وف 100
icamente 100
atr 100
ored 100
▁geht 100
▁progress 100
▁zrobi 100
▁zeggen 100
iare 100
סת 100
▁belangr 100
▁rate 100
▁nostra 100
open 100
▁anno 100
ורי 100
▁collabor 100
عر 100
▁wz 100
cies 100
▁fem 100
▁ecco 100
▁solution 100
erca 100
iven 100
طفال 100
ió 100
▁zas 100
▁empe 100
▁waarom 100
▁depress 100
▁emp 100
▁niż 100
czą 100
▁hall 100
▁drive 100
▁particip 100
aves 100
▁بي 100
▁» 100
▁eg 100
▁usa 100
▁lugar 100
קט 100
▁fond 100
▁detto 100
مه 100
ified 100
▁entwick 100
▁gala 100
▁altri 100
או 100
▁קט 100
▁197 100
▁erano 100
▁zero 100
▁autom 100
zza 100
▁schools 100
▁subject 100
▁ay 100
▁piccol 100
▁أخرى 100
▁بزرگ 100
▁بشكل 100
חיים 100
▁realidad 100
سته 100
▁east 100
▁bev 100
▁کرده 100
▁japan 100
▁nuclear 100
פילו 100
▁jeden 100
▁strateg 100
▁وي 100
ichten 100
▁bird 100
▁galax 100
▁determ 100
cha 100
eli 100
היה 100
▁bey 100
▁راه 100
▁chance 100
▁trust 100
▁beyond 100
▁becomes 100
فل 100
▁róż 100
imp 100
▁חיי 100
بيع 100
▁sua 100
זו 100
تاب 100
▁storia 100
▁issue 100
▁zurück 100
▁discuss 100
▁kinder 100
▁list 100
▁among 100
▁אומר 100
▁sleep 100
oli 100
▁לכ 100
asing 100
▁esem 100
▁verand 100
صف 100
▁tv 100
▁też 100
ابل 100
▁visto 100
▁scientific 100
▁actual 100
גיע 100
ולה 100
ried 100
▁منا 100
▁function 100
▁لذلك 100
▁motiv 100
▁سب 100
▁quant 100
▁tiny 100
▁داشته 100
▁wahr 100
▁please 100
zych 100
▁ost 100
▁available 100
▁conscious 100
▁الوقت 100
▁rot 100
▁rip 100
חו 100
צר 100
auf 100
▁tum 100
▁toe 100
▁util 100
▁fing 100
▁ż 100
לוג 100
bber 100
▁vari 100
▁misschien 100
لاث 100
رم 100
▁kinderen 100
▁sare 100
▁lavor 100
רון 100
▁died 100
▁واقعا 100
▁integr 100
ms 100
▁أق 100
▁كم 100
▁proget 100
▁اش 100
bes 100
oph 100
▁issues 100
ju 100
sz 100
▁هیچ 100
▁która 100
▁בין 100
▁log 100
▁cit 100
▁pover 100
zn 100
ife 100
▁respect 100
طي 100
▁dzieci 100
▁quiero 100
به 100
وجود 100
▁باشد 100
▁reasons 100
▁העולם 100
▁tutte 100
▁designed 100
▁פשוט 100
▁adult 100
▁afgh 100
ינו 100
▁אחת 100
ows 100
enen 100
▁فعل 100
▁libr 100
▁resources 100
▁costru 100
▁żeby 100
sp 100
▁stick 100
▁rules 100
▁otro 100
▁البي 100
▁naprawdę 100
▁robi 100
▁bod 100
▁درب 100
▁انه 100
▁چون 100
iente 100
▁natuur 100
▁pictures 100
ój 100
شان 100
aliśmy 100
سط 100
edere 100
▁bigger 100
▁office 100
eed 100
▁האי 100
▁attack 100
לט 100
zej 100
وار 100
▁ov 100
ניות 100
▁muss 100
▁organism 100
osed 100
▁central 100
▁gł 100
▁device 100
▁involved 100
▁materials 100
ktr 100
angen 100
▁grund 100
▁grupp 100
▁heute 100
ضي 100
▁blind 100
▁milit 100
▁convin 100
oms 100
▁lif 100
▁mental 100
▁tells 100
▁report 100
ächlich 100
ńst 100
▁rand 100
▁games 100
▁وقد 100
mit 100
how 100
▁وم 100
▁روز 100
org 100
▁solve 100
▁island 100
نع 100
▁christ 100
▁groups 100
▁nine 100
▁camera 100
▁מג 100
▁dijo 100
▁היתה 100
ula 100
▁trabajo 100
▁changing 100
▁fundamental 100
▁نم 100
▁security 100
▁gal 100
▁hen 100
▁writing 100
קות 100
▁אלה 100
▁code 100
▁islam 100
ery 100
▁dank 100
idge 100
▁rit 100
▁wiel 100
▁chiam 100
▁بإ 100
aro 100
▁فع 100
ume 100
▁הן 100
▁כן 100
ping 100
בד 100
▁cru 100
▁clin 100
▁schon 100
▁usted 100
ims 100
▁several 100
ories 100
▁mism 100
▁asking 100
▁nei 100
▁einz 100
▁action 100
▁crisis 100
▁שלא 100
▁nich 100
▁للت 100
▁jeste 100
▁teachers 100
▁כמ 100
idades 100
▁imposs 100
▁możemy 100
▁مغ 100
ichen 100
▁stad 100
▁rom 100
▁webs 100
otto 100
▁detect 100
▁potential 100
▁وع 100
ullen 100
▁المن 100
▁ander 100
asi 100
▁hoy 100
▁lev 100
▁fel 100
aggio 100
▁radio 100
▁robots 100
▁towards 100
▁lub 100
át 100
iers 100
▁voy 100
▁nieuwe 100
ér 100
▁בצ 100
▁مان 100
zin 100
istr 100
▁warum 100
▁צריכים 100
▁putting 100
▁בני 100
▁clean 100
▁lond 100
▁عم 100
▁bang 100
enomen 100
▁اي 100
▁حالا 100
▁sounds 100
▁wis 100
▁immedi 100
oni 100
bert 100
▁cerc 100
icians 100
▁atmos 100
▁graph 100
▁ganz 100
▁infr 100
▁prec 100
الت 100
▁grac 100
▁المو 100
▁contrib 100
▁projects 100
entes 100
▁lived 100
بی 100
לדים 100
▁isra 100
▁transport 100
▁עבור 100
زش 100
فع 100
▁kont 100
▁שנים 100
stellen 100
anden 100
▁menos 100
▁differen 100
▁song 100
▁international 100
baar 100
▁vel 100
▁circ 100
▁jobs 100
▁risp 100
▁afghan 100
▁stati 100
▁lij 100
وجه 100
▁اج 100
▁klein 100
▁chemical 100
▁ö 100
ners 100
▁passion 100
▁investig 100
uls 100
▁ومن 100
▁skin 100
▁داریم 100
▁futuro 100
فك 100
▁statist 100
▁fuer 100
▁todas 100
ify 100
▁شروع 100
▁odpow 100
قتص 100
▁اط 100
▁basic 100
▁voglio 100
▁evidence 100
וון 100
▁הכל 100
▁dad 100
▁positive 100
▁bew 100
▁begr 100
▁optim 100
▁wiele 100
cji 100
ache 100
▁spraw 100
▁museum 100
▁millones 100
▁país 100
ذي 100
bier 100
▁danger 100
צת 100
▁قرار 100
▁pew 100
let 100
encia 100
▁context 100
ously 100
ove 100
▁gt 100
▁zaw 100
▁cross 100
▁اح 100
anne 100
▁niem 100
endere 100
iu 100
یی 100
▁ú 100
▁weten 100
enschaft 100
▁cred 100
▁دارند 100
▁więcej 100
bile 100
▁spiel 100
▁proprio 100
▁wszystko 100
oby 100
▁العمل 100
▁wol 100
▁cele 100
▁senza 100
▁فإن 100
▁king 100
نى 100
eth 100
aking 100
▁weiter 100
▁caso 100
amiento 100
▁explor 100
▁suddenly 100
טר 100
▁تد 100
▁region 100
▁الأشياء 100
arily 100
▁dream 100
▁درباره 100
▁lt 100
▁الأم 100
شته 100
arsi 100
▁anyway 100
▁ero 100
phere 100
▁plat 100
▁einige 100
▁televis 100
▁בפ 100
▁repl 100
▁everywhere 100
▁particularly 100
▁estar 100
▁brill 100
▁nation 100
▁avere 100
anten 100
▁fascin 100
סים 100
▁pes 100
▁certainly 100
▁אמר 100
▁komen 100
▁wild 100
war 100
نده 100
▁ig 100
▁doch 100
▁conflict 100
▁creative 100
▁mont 100
▁character 100
▁spre 100
▁trial 100
▁بدأ 100
▁artist 100
▁further 100
ips 100
▁ut 100
▁הול 100
öß 100
▁mam 100
▁ragaz 100
▁pag 100
▁nast 100
▁molti 100
▁dob 100
▁ul 100
▁chris 100
niej 100
▁volg 100
▁nau 100
▁plaats 100
ror 100
خاص 100
▁village 100
avo 100
bt 100
una 100
▁היום 100
adores 100
▁search 100
▁كن 100
▁bor 100
▁sei 100
▁choice 100
tery 100
▁wants 100
▁zouden 100
▁estoy 100
▁democracy 100
زن 100
▁kar 100
▁breat 100
▁franc 100
▁indeed 100
▁possono 100
ieg 100
بدو 100
erve 100
ierte 100
üt 100
icie 100
▁gust 100
igkeit 100
▁significa 100
▁calcul 100
▁ejem 100
▁فى 100
▁demon 100
atto 100
▁تحت 100
▁viene 100
▁چند 100
▁דרך 100
ña 100
nten 100
▁rów 100
niejs 100
عی 100
▁خب 100
▁جيد 100
iding 100
▁עי 100
▁showing 100
len 100
cción 100
▁نگاه 100
▁מדי 100
▁energie 100
▁گذ 100
▁saben 100
▁möchte 100
▁potrze 100
قه 100
▁חבר 100
▁vast 100
▁الإن 100
▁tatsächlich 100
▁חושב 100
▁نع 100
▁hey 100
▁ord 100
antly 100
▁birth 100
▁ble 100
▁onge 100
▁genau 100
▁جديد 100
▁brand 100
▁credo 100
cza 100
▁techn 100
▁basis 100
▁electr 100
kr 100
▁400 100
▁verdad 100
▁mars 100
▁ti 100
ffic 100
▁sky 100
▁nawet 100
▁دور 100
▁reci 100
ít 100
▁wys 100
▁zij 100
▁table 100
▁qualche 100
20 100
وة 100
▁شا 100
▁speed 100
inn 100
▁mort 100
▁doctor 100
▁giorno 100
▁پر 100
come 100
▁roku 100
▁takie 100
▁infect 100
▁hop 100
▁potete 100
like 100
▁arbeit 100
edia 100
▁gab 100
▁ine 100
▁medicine 100
pad 100
itch 100
▁חלק 100
▁screen 100
▁verg 100
▁african 100
کی 100
▁fos 100
▁quality 100
▁altern 100
▁اس 100
▁لما 100
▁cause 100
חק 100
ably 100
▁nodig 100
ומר 100
ונות 100
▁vent 100
▁כאשר 100
▁zelfs 100
▁concent 100
beeld 100
▁grazie 100
▁totally 100
وى 100
▁בט 100
imate 100
äh 100
▁האח 100
iction 100
▁staat 100
-1 100
quier 100
ستخدم 100
ground 100
▁domin 100
▁שת 100
▁אין 100
▁procent 100
sta 100
▁notice 100
owi 100
▁bede 100
▁niños 100
▁infrast 100
voor 100
▁jud 100
▁piens 100
زم 100
▁message 100
zed 100
▁insp 100
ałem 100
סף 100
בין 100
▁beis 100
▁onto 100
▁spect 100
▁قط 100
akes 100
▁ماذا 100
נק 100
דת 100
نة 100
▁aids 100
▁starts 100
▁richard 100
owy 100
▁רא 100
▁המי 100
light 100
▁stesso 100
▁altra 100
▁apart 100
▁אחר 100
▁jego 100
▁willen 100
▁introdu 100
raz 100
▁foss 100
pon 100
cl 100
▁eventually 100
▁geschichte 100
▁biggest 100
rei 100
lect 100
▁journey 100
حل 100
ymi 100
▁square 100
▁austr 100
▁allora 100
▁بص 100
ząd 100
طل 100
wać 100
▁likely 100
ette 100
▁fix 100
▁150 100
▁drie 100
▁drugs 100
▁أس 100
▁وهو 100
▁genes 100
▁dot 100
▁belie 100
▁circa 100
▁يمكنك 100
▁ella 100
▁walking 100
ej 100
▁artic 100
amin 100
▁jedn 100
▁throw 100
wik 100
elde 100
▁freed 100
▁secret 100
orge 100
owej 100
▁chc 100
▁وفي 100
▁examples 100
غير 100
▁1. 100
cher 100
▁tor 100
▁davon 100
▁mensch 100
عي 100
▁כש 100
▁مرة 100
▁studies 100
hand 100
ynam 100
▁אותה 100
وجد 100
▁אולי 100
▁extraordinary 100
▁plants 100
▁stress 100
▁iran 100
ستم 100
▁מכ 100
▁germ 100
▁تأ 100
▁abb 100
▁conos 100
ucht 100
▁dort 100
▁ربما 100
▁רואים 100
▁$ 100
▁roll 100
▁świe 100
זור 100
▁frag 100
▁يمكننا 100
izione 100
▁belangrijk 100
achten 100
unately 100
ün 100
▁oppos 100
بات 100
ujemy 100
wię 100
▁check 100
veel 100
itter 100
▁plastic 100
▁activity 100
▁antes 100
▁micros 100
▁connected 100
▁genet 100
▁buildings 100
▁גי 100
wers 100
▁elektr 100
▁خط 100
▁pil 100
▁שאנו 100
▁stellen 100
▁teacher 100
▁تنها 100
▁möglich 100
▁بأ 100
كا 100
גלל 100
bare 100
▁wait 100
▁nelle 100
▁machines 100
▁sen 100
▁זהו 100
stein 100
▁realtà 100
▁zag 100
▁tres 100
▁מילי 100
▁beste 100
▁الأمر 100
دد 100
▁تون 100
▁میش 100
▁بالن 100
▁talks 100
▁results 100
zelfde 100
▁exciting 100
▁band 100
▁forest 100
▁president 100
▁mur 100
▁moje 100
▁pack 100
▁vul 100
ała 100
cont 100
صبح 100
▁drei 100
▁esempio 100
▁שנה 100
▁moved 100
▁familiar 100
▁أش 100
eras 100
izar 100
ניין 100
▁author 100
▁deliver 100
▁extremely 100
woon 100
▁lin 100
▁ready 100
▁حقا 100
▁stem 100
owania 100
▁asp 100
▁essentially 100
▁مه 100
בוד 100
▁أت 100
alen 100
lock 100
▁עוד 100
▁społe 100
▁poverty 100
▁año 100
▁pubbl 100
▁correct 100
ude 100
▁swe 100
▁named 100
▁eig 100
▁ries 100
halten 100
▁poder 100
▁mujer 100
▁sett 100
▁משת 100
▁carry 100
erc 100
▁guer 100
▁conoc 100
dom 100
▁recht 100
▁inclus 100
anta 100
▁داده 100
▁emerg 100
▁frank 100
▁مم 100
ended 100
entlich 100
▁conserv 100
▁rain 100
▁muchos 100
estr 100
▁والتي 100
▁compon 100
unk 100
בודה 100
▁letter 100
▁position 100
rel 100
▁oxy 100
▁ידי 100
▁lose 100
▁mine 100
▁source 100
סה 100
▁ä 100
▁oss 100
يرا 100
▁وق 100
▁שני 100
▁tier 100
رى 100
eken 100
aje 100
▁iedere 100
▁bisogno 100
قات 100
wood 100
▁باز 100
▁ness 100
ibility 100
▁commer 100
▁intr 100
▁dynam 100
▁movie 100
▁więks 100
▁לצ 100
orso 100
▁arriv 100
▁celebr 100
rage 100
▁mist 100
▁زم 100
▁controll 100
▁psycholog 100
▁seine 100
▁supposed 100
▁respon 100
يز 100
ذهب 100
bbero 100
▁paul 100
▁nic 100
▁چرا 100
▁harv 100
▁radi 100
▁بدون 100
▁licht 100
▁جا 100
arm 100
aur 100
idem 100
▁otros 100
▁favorite 100
▁הכי 100
▁מאד 100
▁jej 100
▁pak 100
▁training 100
▁transl 100
كس 100
▁rece 100
▁افراد 100
bu 100
نية 100
back 100
ując 100
▁بالت 100
▁urban 100
ball 100
werk 100
▁algunos 100
ومات 100
▁blij 100
▁zach 100
▁באופן 100
▁hatten 100
▁glass 100
גע 100
▁تعلم 100
▁tenía 100
▁higher 100
vere 100
▁cier 100
▁push 100
▁stata 100
▁dentro 100
▁necesit 100
▁version 100
رائ 100
idas 100
▁schl 100
ibr 100
oma 100
ورت 100
▁תודה 100
naj 100
▁kur 100
▁znac 100
▁المج 100
▁hadden 100
▁watching 100
▁المع 100
▁late 100
▁industrial 100
▁يك 100
▁individuals 100
ارج 100
▁trees 100
▁popular 100
▁cook 100
▁improve 100
▁ak 100
▁gracias 100
▁ks 100
▁stars 100
▁sad 100
▁begon 100
▁threat 100
▁wyk 100
ouden 100
▁merc 100
▁equip 100
▁remark 100
▁ann 100
▁kop 100
פשר 100
بدأ 100
▁geven 100
الة 100
▁meno 100
▁prevent 100
ضوع 100
▁1, 100
oria 100
eless 100
▁negli 100
zieć 100
▁وك 100
▁2000 100
▁grew 100
▁safe 100
▁largest 100
▁continue 100
يلة 100
▁brow 100
▁הייתי 100
▁بنابرا 100
שית 100
ولوج 100
نان 100
ينة 100
▁daz 100
▁verschill 100
▁کو 100
▁etc 100
▁iemand 100
▁hero 100
▁kwam 100
▁organization 100
▁enf 100
▁trick 100
▁nada 100
▁crazy 100
▁ayud 100
יים 100
▁بار 100
iforn 100
▁mamm 100
▁impossible 100
▁afghanistan 100
cias 100
▁somewhere 100
▁meest 100
ingu 100
▁gh 100
▁baj 100
▁zab 100
▁zeer 100
▁forse 100
▁somehow 100
ission 100
▁fantast 100
▁objects 100
hrt 100
▁أعتقد 100
eta 100
▁wp 100
▁داخل 100
▁kol 100
▁وكان 100
▁בגלל 100
▁appear 100
▁brains 100
תה 100
▁citiz 100
ئل 100
شی 100
▁kre 100
▁dere 100
▁niger 100
▁stwor 100
ai 100
▁sy 100
▁שכ 100
▁cart 100
כנולוג 100
▁plane 100
▁usually 100
▁gebruiken 100
קו 100
بح 100
▁luck 100
▁attra 100
▁bedeut 100
גר 100
▁نام 100
▁chic 100
▁meant 100
▁points 100
▁darüber 100
esh 100
▁ambi 100
▁princip 100
▁ran 100
▁últ 100
▁natür 100
▁همان 100
owanie 100
▁above 100
מד 100
▁mand 100
▁disapp 100
▁biology 100
▁journal 100
▁hers 100
▁تمام 100
▁board 100
▁forms 100
ليل 100
▁muchas 100
▁mentre 100
▁response 100
▁enjo 100
▁dinosa 100
الی 100
یری 100
▁cel 100
▁content 100
▁vraag 100
esi 100
قيام 100
▁hebt 100
▁waste 100
▁könnte 100
▁właśnie 100
▁kto 100
▁sig 100
▁verm 100
kund 100
ką 100
مس 100
▁ظ 100
▁kein 100
▁miał 100
▁products 100
łu 100
▁electricity 100
halb 100
▁website 100
▁demonstr 100
▁احت 100
▁دول 100
▁bacteria 100
▁größ 100
▁epidem 100
▁insect 100
▁memory 100
▁surger 100
ya 100
ald 100
chio 100
arten 100
▁komt 100
▁recog 100
▁nostri 100
▁ihn 100
▁کام 100
▁المست 100
נד 100
▁bess 100
pers 100
owych 100
eszcze 100
▁אפילו 100
▁allowed 100
▁سه 100
▁models 100
▁لكم 100
ctors 100
سبب 100
staw 100
▁אלו 100
▁eens 100
▁weiß 100
▁freedom 100
phone 100
▁stiamo 100
▁religion 100
▁ful 100
▁citt 100
▁accept 100
▁ustedes 100
▁neighbor 100
▁minute 100
▁including 100
▁conditions 100
▁ba 100
▁families 100
רצ 100
▁motor 100
▁اتفا 100
vas 100
▁crow 100
▁facebook 100
iles 100
▁larger 100
▁account 100
▁site 100
▁washing 100
äd 100
▁series 100
äs 100
▁lassen 100
ibile 100
organ 100
▁prod 100
▁והוא 100
▁fotograf 100
▁שק 100
esse 100
ركة 100
▁fill 100
▁letz 100
▁בב 100
▁praw 100
▁إنها 100
▁zullen 100
▁nuestros 100
▁philos 100
ניתן 100
كة 100
عية 100
▁medio 100
▁verste 100
ilità 100
▁sond 100
▁hacia 100
oi 100
aniu 100
▁cie 100
hm 100
▁עושים 100
▁faster 100
▁którzy 100
▁bambini 100
منا 100
▁همین 100
▁reading 100
▁whe 100
▁role 100
▁odpowied 100
▁mí 100
▁print 100
▁restaur 100
ogo 100
uno 100
▁לל 100
cono 100
imm 100
aster 100
▁عليه 100
▁مكان 100
▁observ 100
▁veränd 100
ham 100
▁מט 100
▁minds 100
▁funzion 100
▁perspective 100
▁taught 100
inct 100
veer 100
▁gef 100
▁ecos 100
▁vict 100
▁gehen 100
▁riv 100
▁الض 100
▁associ 100
▁respond 100
▁hö 100
lier 100
▁finding 100
▁تخ 100
▁goal 100
▁wife 100
نج 100
▁magic 100
▁return 100
رج 100
▁ziet 100
erte 100
ciamo 100
ength 100
▁shown 100
▁telef 100
▁corru 100
▁fuori 100
غي 100
▁بط 100
atory 100
▁sorts 100
▁quer 100
▁elkaar 100
فه 100
aving 100
▁empez 100
▁krijgen 100
▁relativ 100
board 100
▁train 100
▁algor 100
▁therefore 100
dr 100
ęż 100
essen 100
▁malaria 100
▁condu 100
▁architecture 100
▁alcuni 100
▁ejemplo 100
▁agricult 100
iety 100
▁ded 100
▁jon 100
▁samo 100
▁town 100
▁worse 100
▁wik 100
قتصاد 100
▁page 100
zzo 100
▁veh 100
▁altre 100
▁unfort 100
▁الحياة 100
▁org 100
▁gewoon 100
▁wollen 100
▁pregunt 100
▁traditional 100
▁בדי 100
vilupp 100
▁older 100
▁vanda 100
▁35 100
weise 100
▁unos 100
▁bunch 100
▁świecie 100
omas 100
▁cod 100
وعة 100
▁mr 100
صر 100
eler 100
kiem 100
▁الز 100
▁male 100
▁ended 100
▁bio 100
▁batt 100
▁sequ 100
▁decision 100
▁dog 100
▁mają 100
elden 100
▁werde 100
produ 100
ety 100
▁فهم 100
▁killed 100
▁mc 100
enda 100
▁nunca 100
aría 100
▁זמן 100
▁kunt 100
▁reden 100
ota 100
▁lí 100
▁اص 100
▁אלי 100
hrend 100
▁truly 100
▁svilupp 100
▁complicated 100
cen 100
▁erz 100
▁افت 100
▁צריך 100
▁ببین 100
ilities 100
شون 100
▁אחרי 100
▁qualcun 100
▁خا 100
מרי 100
▁جز 100
▁trou 100
▁voll 100
▁binnen 100
lej 100
▁prison 100
▁western 100
ały 100
الب 100
▁دن 100
▁يد 100
▁أنها 100
▁cultural 100
رفة 100
▁spot 100
▁indep 100
▁spaz 100
▁kunst 100
▁spirit 100
▁phenomen 100
▁wanne 100
óg 100
łas 100
woord 100
▁wanneer 100
▁llev 100
▁beispiel 100
▁surprising 100
▁جن 100
amer 100
▁jeszcze 100
rag 100
▁حل 100
▁siem 100
elo 100
▁nuovo 100
aci 100
opt 100
▁trem 100
▁swoje 100
▁successful 100
▁cloud 100
▁document 100
▁trib 100
▁odd 100
estra 100
ód 100
▁upon 100
▁إنه 100
▁niez 100
▁drink 100
فق 100
czę 100
▁thanks 100
راح 100
▁مجم 100
ounds 100
▁spra 100
▁broad 100
▁intent 100
▁treatment 100
irn 100
sze 100
▁alth 100
▁skills 100
▁mee 100
▁trade 100
▁violence 100
لو 100
لاء 100
▁engag 100
חיל 100
▁desar 100
▁military 100
هد 100
▁שאתם 100
▁mention 100
▁communities 100
aard 100
▁یاد 100
▁genetic 100
▁interpre 100
erw 100
▁مى 100
▁trze 100
▁applic 100
▁aspect 100
מונה 100
▁rat 100
ienie 100
▁concern 100
▁بودم 100
▁نشان 100
ícul 100
▁شيئ 100
ughter 100
▁meiner 100
▁throughout 100
▁cheap 100
▁funcion 100
ناء 100
▁إلي 100
▁ارت 100
▁vulner 100
▁wszystkie 100
▁cases 100
▁veces 100
▁afford 100
▁written 100
▁była 100
▁method 100
▁pieces 100
▁indian 100
▁miliard 100
وني 100
uzione 100
▁מכי 100
▁vinden 100
ria 100
גים 100
▁עוב 100
▁ihren 100
▁يح 100
avano 100
▁otras 100
▁smaller 100
lik 100
▁dw 100
▁estado 100
▁jednak 100
med 100
urr 100
nize 100
▁patterns 100
▁quot 100
▁humanity 100
acja 100
świ 100
wort 100
▁השי 100
eling 100
plant 100
▁address 100
▁استخ 100
▁penso 100
▁select 100
▁temu 100
▁himself 100
▁straight 100
▁habit 100
▁podría 100
▁independ 100
▁ongeveer 100
iate 100
▁دید 100
▁lebens 100
▁attravers 100
▁fantastic 100
▁cerv 100
▁prin 100
▁verk 100
ضح 100
▁نو 100
▁دانش 100
▁richt 100
▁während 100
▁הבי 100
▁שלכם 100
▁beauty 100
לח 100
רק 100
▁lapt 100
▁although 100
▁ciud 100
▁rise 100
▁الأول 100
▁enorme 100
▁standing 100
osh 100
▁twor 100
▁hablar 100
▁weight 100
▁wurden 100
▁tree 100
▁sic 100
▁nuevo 100
▁beings 100
▁service 100
▁45 100
▁rim 100
▁دهد 100
▁algu 100
▁soci 100
▁launch 100
▁۱ 100
▁mano 100
ishing 100
▁price 100
enschap 100
▁camb 100
▁cold 100
▁gegen 100
nic 100
uta 100
ulate 100
▁elke 100
▁scha 100
▁جهان 100
▁בעצ 100
▁ontwik 100
▁concentr 100
עיון 100
▁ולא 100
▁jeder 100
▁بنابراین 100
nell 100
▁werken 100
▁נת 100
الية 100
▁بهتر 100
▁صحبت 100
▁alguien 100
رکت 100
atore 100
▁mart 100
▁russ 100
▁واحدة 100
▁choose 100
كبر 100
▁lui 100
▁sino 100
▁achter 100
ieme 100
▁emer 100
▁vorm 100
▁excited 100
وط 100
کس 100
für 100
▁خواهد 100
▁ee 100
▁أخ 100
inar 100
▁liv 100
▁embar 100
▁کردیم 100
▁policy 100
igo 100
▁يحدث 100
▁בעולם 100
▁healthy 100
bij 100
▁alive 100
▁tutaj 100
ifornia 100
▁siempre 100
isz 100
▁והם 100
▁الحقيقة 100
works 100
צב 100
▁וח 100
▁שבו 100
yle 100
▁patr 100
▁vero 100
▁tussen 100
▁private 100
ובן 100
▁earlier 100
▁recognize 100
▁مخ 100
ilmente 100
▁environmental 100
vit 100
jące 100
▁akt 100
▁למה 100
▁casi 100
انية 100
▁kept 100
nde 100
انات 100
▁allows 100
▁london 100
▁sicher 100
يء 100
isco 100
▁dop 100
▁درست 100
▁kijken 100
▁physics 100
ולים 100
▁tengo 100
▁glob 100
▁effort 100
▁primer 100
▁clearly 100
▁expensive 100
▁increasing 100
▁vom 100
▁دارم 100
ברי 100
▁wam 100
▁decisions 100
▁אפשר 100
ניה 100
ured 100
▁appl 100
iale 100
▁gele 100
▁california 100
czu 100
▁esos 100
▁greater 100
▁solutions 100
gev 100
hib 100
كرا 100
▁terra 100
▁دون 100
time 100
▁dazu 100
▁tecnología 100
ución 100
▁uses 100
▁الام 100
▁propos 100
در 100
▁حين 100
▁ثلاث 100
▁symbol 100
▁achieve 100
▁anywhere 100
ظم 100
▁تماما 100
cken 100
▁limit 100
▁increase 100
rowad 100
mar 100
▁כשה 100
▁חיים 100
يك 100
▁painting 100
▁שח 100
play 100
ורות 100
▁perd 100
▁aveva 100
▁famous 100
▁comfort 100
▁אותי 100
▁للم 100
▁których 100
cep 100
▁ולה 100
▁cogn 100
jet 100
حدة 100
▁sé 100
▁colleag 100
▁histori 100
▁wichtig 100
דיין 100
▁weit 100
iments 100
رن 100
▁kob 100
▁zob 100
▁rius 100
▁scop 100
▁babies 100
▁engineering 100
▁primo 100
uti 100
▁ahí 100
▁anti 100
▁חשוב 100
▁studio 100
▁אלא 100
▁לכל 100
▁intel 100
▁darwin 100
▁יוצ 100
▁intelligence 100
mon 100
ńs 100
bec 100
▁وهي 100
▁کوچ 100
▁strange 100
▁teaching 100
▁הדבר 100
bit 100
▁specif 100
thern 100
▁neurons 100
▁سنة 100
cular 100
iling 100
▁beet 100
▁critical 100
kry 100
▁giust 100
ווה 100
▁هایی 100
owane 100
▁weer 100
▁المح 100
▁americans 100
פש 100
▁lines 100
▁iedereen 100
ضر 100
wel 100
كلة 100
▁wit 100
▁eind 100
▁toda 100
▁parad 100
▁oto 100
▁visit 100
▁ol 100
▁haciendo 100
▁uw 100
▁naz 100
▁listening 100
oof 100
▁inner 100
▁mogelijk 100
apes 100
ils 100
▁פעם 100
▁اخت 100
▁arte 100
▁mówi 100
▁current 100
cią 100
▁suc 100
یدا 100
▁مط 100
▁מער 100
▁stanno 100
▁seconds 100
▁worry 100
▁jestem 100
▁original 100
الات 100
مایش 100
جد 100
▁acad 100
اقة 100
gono 100
▁zit 100
▁magn 100
▁accord 100
▁cuenta 100
▁remind 100
ardo 100
▁ذات 100
زة 100
شف 100
ester 100
▁dram 100
▁natürlich 100
▁מז 100
esis 100
▁برد 100
▁prawd 100
aties 100
▁cant 100
▁opin 100
▁nooit 100
▁wäre 100
کرد 100
▁انها 100
ترنت 100
▁wyd 100
▁پای 100
▁denke 100
ره 100
zum 100
کار 100
عادة 100
▁ther 100
▁email 100
▁volte 100
▁bardziej 100
▁مرا 100
▁ingen 100
▁miljo 100
▁rapid 100
▁צי 100
▁sed 100
▁wal 100
▁jemand 100
▁pensar 100
▁dobbiamo 100
alia 100
▁kos 100
▁resol 100
▁designer 100
ijf 100
لاف 100
iced 100
raft 100
▁tens 100
▁ليست 100
▁israel 100
▁provide 100
▁production 100
▁lower 100
ky 100
▁block 100
▁however 100
▁sondern 100
زل 100
▁sido 100
▁costs 100
▁عا 100
▁sla 100
▁avete 100
▁libro 100
▁massive 100
▁unserer 100
heim 100
▁במי 100
▁mogą 100
▁عبر 100
remmo 100
▁esas 100
▁none 100
▁زیادی 100
cj 100
ضاء 100
ساعد 100
▁aid 100
▁funktion 100
▁mex 100
▁بالا 100
▁performance 100
گونه 100
▁dio 100
▁אדם 100
ición 100
▁specific 100
جاد 100
▁آز 100
racht 100
▁agua 100
▁neue 100
ientos 100
▁rights 100
▁qualcuno 100
▁sogar 100
▁بودند 100
nam 100
▁virtual 100
kn 100
▁ملي 100
▁rule 100
▁أننا 100
▁expand 100
▁kommen 100
▁dej 100
▁dor 100
▁אינ 100
▁surgery 100
▁interessante 100
urch 100
פק 100
▁pel 100
▁rein 100
▁types 100
▁saving 100
ec 100
▁مؤ 100
▁jakie 100
▁store 100
▁zrobić 100
▁geleden 100
ques 100
gress 100
▁فيها 100
▁10,000 100
▁verhaal 100
حن 100
▁ug 100
▁weap 100
▁رائ 100
▁المنا 100
gew 100
rete 100
▁فيه 100
▁magg 100
מיד 100
band 100
ymore 100
▁aant 100
▁campa 100
▁comport 100
▁zwischen 100
zić 100
▁ماه 100
itude 100
▁zobac 100
▁dangerous 100
ciu 100
pra 100
▁داره 100
▁pokaz 100
▁various 100
▁impar 100
▁segund 100
▁99 100
▁בז 100
▁בעי 100
▁اذا 100
▁iraq 100
▁کاری 100
owa 100
▁fit 100
elling 100
▁gemacht 100
מנו 100
▁dance 100
▁możli 100
▁driving 100
ורת 100
قدر 100
▁منذ 100
orden 100
▁argument 100
▁dati 100
▁أفضل 100
▁madre 100
▁employ 100
▁molecul 100
▁أح 100
▁הנה 100
▁انگ 100
▁gradu 100
▁chodzi 100
▁creativity 100
idd 100
▁tiss 100
▁anymore 100
▁unfortunately 100
قول 100
מא 100
زد 100
leem 100
orie 100
pose 100
▁حتی 100
▁neuro 100
▁guerra 100
▁slight 100
▁probleem 100
▁آیا 100
▁values 100
▁charles 100
ارت 100
▁moder 100
▁slecht 100
▁kult 100
▁verschillende 100
kim 100
▁sue 100
▁copy 100
▁powin 100
▁conversation 100
سه 100
▁cry 100
▁desp 100
▁conference 100
▁להי 100
علومات 100
imately 100
▁becoming 100
él 100
▁fuel 100
▁wyst 100
▁הללו 100
▁infrastruct 100
اند 100
▁پی 100
aken 100
▁כבר 100
▁whose 100
▁cooper 100
▁گو 100
▁enjoy 100
▁لماذا 100
▁levels 100
▁algunas 100
gin 100
ends 100
▁glaube 100
aling 100
▁multi 100
▁andare 100
▁حا 100
▁بچه 100
▁denen 100
áp 100
غيرة 100
▁hät 100
▁רוצים 100
▁forget 100
שון 100
▁jug 100
stood 100
▁הגדול 100
▁بالنسبة 100
▁terrible 100
▁geno 100
▁beginnen 100
hol 100
▁tecnologia 100
tex 100
قدم 100
▁לך 100
ikan 100
▁acqua 100
▁czego 100
▁electron 100
▁wi 100
▁origin 100
عداد 100
▁שלה 100
▁vandaag 100
حاول 100
▁لنا 100
وص 100
▁tax 100
▁zonder 100
▁oud 100
ancia 100
▁task 100
▁direction 100
▁chcia 100
▁vamos 100
▁waż 100
▁forth 100
▁services 100
asse 100
▁vot 100
▁המש 100
chter 100
▁נכון 100
▁magaz 100
zer 100
▁nag 100
etten 100
▁onderzo 100
so 100
yect 100
▁allí 100
▁vehic 100
▁życie 100
▁income 100
▁quelle 100
▁resist 100
▁immediately 100
lijke 100
▁gold 100
▁gerade 100
▁eigenlijk 100
▁keer 100
▁surr 100
ancy 100
▁frage 100
▁wissenschaft 100
▁laws 100
شا 100
▁duż 100
▁potrzeb 100
▁waiting 100
eri 100
קרא 100
▁zod 100
▁عالم 100
hers 100
▁greatest 100
▁حيات 100
▁bodies 100
▁einstein 100
לית 100
▁fo 100
▁finden 100
▁politics 100
ابة 100
▁raise 100
▁życia 100
▁edific 100
▁einmal 100
achte 100
▁pian 100
▁encou 100
▁powiedział 100
pet 100
cons 100
▁flying 100
▁remarkable 100
▁ign 100
▁ohne 100
▁primera 100
▁washington 100
▁pię 100
prene 100
key 100
▁diet 100
▁oczy 100
▁środ 100
▁پیدا 100
▁sport 100
wiąz 100
▁bord 100
▁ludz 100
▁מספר 100
▁nueva 100
▁diss 100
▁geben 100
▁neuron 100
lin 100
yste 100
▁המח 100
▁שהיא 100
▁assum 100
▁mobile 100
▁przykład 100
وتر 100
▁يتم 100
▁decade 100
▁connection 100
dro 100
▁precis 100
▁bomb 100
▁fest 100
▁cualquier 100
▁אר 100
▁زمین 100
ysteem 100
▁ihrer 100
ánd 100
▁نیا 100
▁quiz 100
▁irgend 100
▁emotion 100
▁bast 100
▁range 100
ژی 100
▁מדו 100
▁خاص 100
iencia 100
▁incluso 100
over 100
▁boys 100
▁carr 100
▁hair 100
chod 100
▁näch 100
▁adapt 100
▁città 100
▁install 100
▁enormous 100
▁invented 100
▁عل 100
jaw 100
atically 100
▁grandes 100
log 100
iben 100
▁funny 100
▁slide 100
▁کردند 100
▁financial 100
مج 100
▁روش 100
▁ولا 100
▁عنوان 100
צו 100
▁paz 100
▁destro 100
▁تف 100
urre 100
▁george 100
▁temperature 100
uted 100
▁העי 100
▁sapete 100
▁wood 100
▁target 100
▁twitter 100
▁posit 100
30 100
▁following 100
▁institutions 100
يب 100
▁doctors 100
▁vro 100
▁gall 100
▁citizens 100
▁información 100
aly 100
▁gev 100
▁geweld 100
▁techni 100
▁diseases 100
ael 100
aden 100
▁لكي 100
gos 100
öt 100
צד 100
arbe 100
stre 100
▁ros 100
▁scu 100
▁altijd 100
▁nichts 100
▁effective 100
▁entreprene 100
راف 100
czas 100
▁shoot 100
▁creare 100
▁mountain 100
ums 100
▁tab 100
▁legs 100
▁random 100
owie 100
ained 100
▁demand 100
▁recogn 100
eso 100
▁punt 100
▁נראה 100
urg 100
רום 100
يدة 100
▁astron 100
▁הדברים 100
▁willing 100
fa 100
▁נפ 100
▁sembra 100
▁useful 100
وام 100
▁inizi 100
▁prepar 100
▁shared 100
▁speaking 100
ונה 100
▁במש 100
▁סוג 100
▁narr 100
▁jaren 100
▁sarebbe 100
قية 100
isen 100
▁طول 100
▁fold 100
▁شوند 100
▁cerebro 100
▁fib 100
▁nom 100
▁cust 100
wol 100
▁בג 100
reci 100
▁2008 100
▁capire 100
▁ü 100
▁wym 100
کان 100
▁bent 100
▁sorry 100
▁رأ 100
▁gig 100
▁nac 100
▁contact 100
agt 100
بود 100
يمة 100
▁تغی 100
▁nerv 100
▁علينا 100
▁networks 100
خوا 100
▁carto 100
▁floor 100
▁afrika 100
enschapp 100
מית 100
طان 100
▁ped 100
▁rond 100
▁shot 100
▁cominci 100
▁invis 100
▁ka 100
ided 100
▁mel 100
ho 100
▁zmien 100
▁condition 100
▁mix 100
▁قال 100
▁deel 100
▁sche 100
▁steeds 100
▁survive 100
▁bag 100
▁الحد 100
▁career 100
▁cervello 100
▁0 100
▁fosse 100
▁genom 100
▁diffic 100
▁television 100
care 100
▁gent 100
▁maak 100
▁להשת 100
nehmen 100
iff 100
▁يوم 100
▁espac 100
ווי 100
▁وس 100
▁rif 100
▁strugg 100
▁יי 100
antic 100
▁dafür 100
▁jesteśmy 100
▁gek 100
▁jaki 100
▁يقوم 100
דש 100
▁deber 100
reg 100
czyć 100
▁indic 100
▁emotional 100
eil 100
ises 100
شخاص 100
▁asia 100
▁hous 100
▁instr 100
▁ing 100
▁desert 100
▁רי 100
atro 100
kele 100
▁وضع 100
▁gang 100
▁mente 100
▁compar 100
aam 100
▁somm 100
▁równie 100
▁profound 100
▁ł 100
ellt 100
▁hole 100
▁weren 100
▁mission 100
▁societies 100
قب 100
פרי 100
▁bol 100
▁sir 100
▁grandi 100
▁ricord 100
▁prozent 100
▁instrument 100
▁سأ 100
keiten 100
▁serie 100
לד 100
▁proyect 100
▁experiments 100
ét 100
▁الأس 100
▁europa 100
set 100
▁milioni 100
ميم 100
▁kap 100
▁dobr 100
▁wygl 100
▁يش 100
oten 100
▁practice 100
▁lö 100
▁sup 100
▁כול 100
▁كذلك 100
illa 100
▁magnet 100
schen 100
▁wire 100
▁forces 100
▁pyt 100
▁kommt 100
▁فه 100
▁000 100
▁manuf 100
▁اخ 100
▁cerca 100
▁molte 100
اهد 100
▁sf 100
▁hip 100
▁mostly 100
▁niemand 100
▁tremend 100
▁universo 100
דור 100
▁cią 100
right 100
▁wielu 100
▁police 100
▁würden 100
وير 100
nymi 100
▁walked 100
fall 100
ront 100
▁gehirn 100
▁חז 100
▁soy 100
▁unique 100
▁ship 100
▁michael 100
▁wow 100
▁circu 100
▁philosoph 100
▁veramente 100
▁القيام 100
ativo 100
▁ostat 100
▁cambia 100
▁zeigen 100
▁potrebbe 100
כנס 100
راه 100
▁וש 100
almente 100
▁landsc 100
nes 100
▁bul 100
cked 100
▁pole 100
imensional 100
▁effects 100
▁understood 100
▁governments 100
▁منت 100
ál 100
▁ות 100
iant 100
▁tex 100
▁czym 100
▁miei 100
▁apply 100
▁loved 100
▁migli 100
▁ذه 100
bles 100
ؤلاء 100
▁ler 100
entras 100
▁moest 100
▁współ 100
▁myster 100
▁meeting 100
▁המס 100
▁يكن 100
▁دوست 100
▁mostr 100
▁genome 100
▁wasser 100
فته 100
cznie 100
zyscy 100
▁אחוז 100
▁honest 100
▁הנו 100
▁قام 100
▁descu 100
▁اونها 100
▁belief 100
▁diverse 100
▁completamente 100
▁طور 100
▁ובכן 100
▁دنیا 100
▁begrij 100
▁wszyscy 100
▁كرد 100
▁arab 100
▁ende 100
▁multip 100
▁wealth 100
▁consciousness 100
▁chair 100
▁grup 100
▁insieme 100
▁pud 100
▁בנו 100
▁manufact 100
▁תח 100
itto 100
▁الخاص 100
عمال 100
▁alto 100
▁widz 100
▁mostrar 100
ús 100
شد 100
▁flight 100
▁moon 100
▁acerca 100
▁decide 100
▁parlare 100
▁scan 100
▁vrij 100
ientes 100
▁vielen 100
▁hacerlo 100
▁partners 100
על 100
▁worst 100
aat 100
▁מו 100
tech 100
▁evolved 100
يه 100
han 100
ساء 100
▁snel 100
▁organis 100
▁individu 100
▁بده 100
▁fino 100
atz 100
eda 100
▁erw 100
▁znaj 100
▁aún 100
▁cab 100
نین 100
▁تس 100
▁apple 100
▁vedete 100
▁passiert 100
uerd 100
▁נמצ 100
atura 100
▁grado 100
▁helped 100
واء 100
▁יהיה 100
▁foundation 100
ذن 100
ؤال 100
▁וג 100
▁أد 100
▁יודע 100
يين 100
▁rh 100
ffee 100
▁usar 100
ierung 100
mp 100
isce 100
▁אחרים 100
ception 100
ande 100
▁jun 100
▁جمع 100
▁canc 100
▁rapp 100
▁prior 100
▁انسان 100
▁partner 100
yk 100
▁194 100
▁note 100
ending 100
▁below 100
▁infin 100
▁maggior 100
יו 100
انا 100
تها 100
▁corr 100
▁certo 100
▁¡ 100
acza 100
▁siete 100
▁تغییر 100
▁verstehen 100
▁zat 100
anych 100
▁centro 100
▁artific 100
الك 100
itud 100
▁تول 100
▁والت 100
▁campaign 100
▁instance 100
▁حو 100
▁entr 100
▁challenges 100
▁hus 100
▁hang 100
▁interpret 100
ört 100
ברה 100
edor 100
kiej 100
▁complete 100
צע 100
ays 100
▁کسی 100
inary 100
ivi 100
ומות 100
▁spl 100
▁عدد 100
issen 100
▁core 100
▁nasa 100
▁ancient 100
▁reflect 100
جات 100
▁أول 100
▁twice 100
erentes 100
▁directly 100
▁designers 100
ביר 100
▁ار 100
▁già 100
▁לזה 100
▁leren 100
▁active 100
▁possibly 100
▁transpar 100
mitt 100
ienza 100
▁birds 100
▁społecz 100
erst 100
▁آمو 100
▁doet 100
▁advan 100
▁موضوع 100
תח 100
vamo 100
aries 100
▁budget 100
▁oxygen 100
ثل 100
ago 100
grad 100
▁lic 100
▁móz 100
▁zam 100
▁cand 100
▁causes 100
▁artists 100
بان 100
zial 100
geben 100
▁buiten 100
ług 100
▁prem 100
ín 100
▁ją 100
atur 100
▁تجرب 100
▁summer 100
wise 100
▁shar 100
▁torn 100
▁party 100
טיפ 100
▁drop 100
▁appar 100
כנולוגיה 100
▁لها 100
▁enter 100
▁sempl 100
▁professor 100
tedy 100
ivers 100
▁polic 100
▁inspired 100
▁verschieden 100
ارب 100
▁bee 100
ischer 100
▁wtedy 100
▁75 100
achen 100
eller 100
water 100
▁erste 100
▁james 100
زا 100
▁فقد 100
▁allen 100
▁פר 100
▁ברי 100
▁للأ 100
▁اندا 100
▁intelle 100
▁mientras 100
▁ry 100
arów 100
▁البح 100
▁ahead 100
▁coast 100
▁purpose 100
▁sustainable 100
utz 100
▁albo 100
▁grat 100
▁poet 100
tschaft 100
מוש 100
▁pig 100
▁sieht 100
ביב 100
▁עושה 100
▁daran 100
מין 100
▁كنا 100
▁jack 100
▁remo 100
▁rice 100
▁odkry 100
▁quale 100
▁spending 100
ieke 100
▁ráp 100
▁ایم 100
▁مغز 100
▁heat 100
▁والم 100
▁pensare 100
empt 100
▁race 100
lement 100
▁attract 100
▁immagin 100
רכ 100
▁rol 100
▁שלך 100
▁crowd 100
▁والذي 100
▁insegn 100
▁kennen 100
اية 100
▁محا 100
owego 100
▁lange 100
▁depart 100
تمع 100
▁lì 100
▁התח 100
▁quad 100
▁match 100
▁سنوات 100
▁biological 100
▁ogr 100
▁دائ 100
▁prototy 100
▁bib 100
▁heav 100
▁intu 100
▁nies 100
idente 100
▁initi 100
▁nuestras 100
תיים 100
حتاج 100
▁burn 100
▁inve 100
▁موجود 100
▁nostre 100
ians 100
▁millionen 100
▁py 100
used 100
▁nan 100
▁fanno 100
▁macch 100
▁behand 100
▁prefer 100
▁sector 100
now 100
here 100
▁bren 100
▁tour 100
▁بذلك 100
▁شكرا 100
aczego 100
▁reduce 100
אן 100
לב 100
dem 100
▁workers 100
gesch 100
▁rare 100
▁veloc 100
▁algorith 100
قى 100
▁بیم 100
▁oraz 100
▁innych 100
▁persoon 100
▁dlaczego 100
▁attraverso 100
bres 100
▁ruim 100
▁sharing 100
▁institution 100
▁دع 100
▁fren 100
▁aware 100
▁עדיין 100
ستخدام 100
▁manip 100
▁punkt 100
▁stessa 100
usz 100
▁سپ 100
orno 100
▁مشکل 100
▁pleas 100
hes 100
راض 100
aakt 100
▁mob 100
▁communication 100
▁علم 100
▁diferentes 100
▁corpor 100
▁zrozum 100
▁intelligent 100
▁decades 100
▁teen 100
▁verr 100
▁energía 100
abet 100
ativa 100
▁جدید 100
▁ممکن 100
▁הראשו 100
▁którym 100
▁energia 100
▁impress 100
anze 100
▁koń 100
▁recon 100
▁rough 100
aced 100
rare 100
▁שוב 100
▁لأنه 100
iliśmy 100
▁frame 100
▁secondo 100
רוב 100
icial 100
itori 100
▁nú 100
▁صد 100
▁loss 100
▁امرو 100
▁konnte 100
▁problemi 100
▁pis 100
▁vic 100
▁golf 100
▁harvard 100
▁published 100
▁complexity 100
▁popul 100
▁وإ 100
▁وح 100
▁incent 100
▁satell 100
צל 100
gang 100
osto 100
▁inj 100
▁vole 100
וכלו 100
▁אוה 100
▁meter 100
▁subst 100
▁الشخص 100
▁explore 100
isti 100
▁spin 100
▁ontde 100
▁hic 100
▁sick 100
▁piano 100
▁sociale 100
▁zb 100
▁fro 100
▁nutr 100
▁wikip 100
▁زمانی 100
▁האנשים 100
▁devices 100
osta 100
▁يقول 100
▁capacity 100
קש 100
طح 100
▁nik 100
▁چطور 100
▁tierra 100
▁yellow 100
▁theater 100
abei 100
▁synth 100
▁בדיוק 100
▁thomas 100
▁ين 100
▁ens 100
esehen 100
▁bought 100
▁focused 100
pap 100
▁למע 100
essed 100
▁bron 100
كنولوج 100
▁crear 100
▁supply 100
kw 100
▁leid 100
▁برنا 100
▁تقوم 100
▁beter 100
▁maakt 100
▁comenz 100
▁gleich 100
▁molecules 100
onom 100
pped 100
▁hid 100
▁pien 100
▁metaph 100
▁specie 100
سية 100
عمل 100
▁bell 100
▁التج 100
▁چگونه 100
▁expert 100
▁infrastructure 100
mas 100
▁شهر 100
▁datos 100
▁החיים 100
▁działa 100
outh 100
▁dying 100
rebbero 100
▁produced 100
ców 100
رای 100
aker 100
اق 100
وض 100
arz 100
cop 100
▁ني 100
berg 100
itos 100
▁ganze 100
▁nasze 100
▁bringing 100
ماء 100
▁أب 100
▁river 100
itation 100
▁dzięku 100
▁ersten 100
▁platform 100
▁slightly 100
halt 100
▁يعني 100
▁intens 100
▁equival 100
▁pressure 100
مكان 100
▁במה 100
▁stup 100
▁angel 100
▁degre 100
jos 100
▁steve 100
▁بك 100
▁لإ 100
فاوت 100
▁gard 100
▁طريق 100
▁reform 100
▁daughter 100
יתם 100
نين 100
▁horr 100
▁airpl 100
▁digit 100
▁puedo 100
▁tumor 100
▁patent 100
סק 100
▁منط 100
▁مثال 100
▁verso 100
▁vertellen 100
ceed 100
▁حدود 100
▁programs 100
▁bos 100
▁sagt 100
▁בשבי 100
▁میلی 100
lusion 100
▁sexual 100
arios 100
▁cresc 100
▁dabei 100
▁nehmen 100
▁شه 100
▁nim 100
▁palab 100
▁trouble 100
off 100
رية 100
▁iron 100
▁rout 100
▁probe 100
ulpt 100
zeug 100
▁anf 100
▁cro 100
▁hacen 100
▁fellow 100
باط 100
esen 100
zeit 100
▁600 100
▁kore 100
▁degrees 100
▁nations 100
▁neighborhood 100
omp 100
ysł 100
▁پا 100
fico 100
lude 100
▁lun 100
▁conv 100
▁swim 100
▁również 100
▁vrouwen 100
▁gru 100
▁nig 100
ession 100
▁donne 100
▁przyj 100
▁cambio 100
▁خوش 100
▁کشور 100
▁zmian 100
▁significant 100
isf 100
oto 100
▁شئ 100
▁lei 100
▁quar 100
▁große 100
▁depression 100
ktur 100
▁dai 100
apped 100
▁ליצור 100
دی 100
term 100
▁קצת 100
▁musl 100
ionale 100
▁occur 100
▁ecosystem 100
يدا 100
nung 100
wijl 100
▁מבי 100
iglia 100
▁therap 100
▁لك 100
istas 100
▁التح 100
▁quasi 100
▁letzten 100
kun 100
كذا 100
vant 100
▁fle 100
▁اب 100
▁etwa 100
▁disse 100
▁glück 100
▁przysz 100
▁problemas 100
▁dwa 100
▁2007 100
▁erst 100
▁zegt 100
▁istnie 100
غة 100
▁saf 100
▁מוד 100
rijven 100
▁1,000 100
پی 100
oko 100
▁ern 100
house 100
cipl 100
▁2010 100
▁senso 100
▁sorpr 100
▁dinero 100
▁الأرض 100
▁dzięki 100
inas 100
▁bub 100
olare 100
▁colon 100
▁eating 100
▁definit 100
▁könnten 100
▁آب 100
▁ומה 100
▁جام 100
gener 100
istry 100
▁العام 100
▁dollari 100
قبل 100
▁zon 100
▁agre 100
ological 100
▁terwijl 100
טו 100
etr 100
▁דול 100
▁besser 100
▁breast 100
▁streets 100
▁صحي 100
▁منظ 100
schein 100
▁عليها 100
▁played 100
▁creates 100
vés 100
▁untersch 100
nt 100
▁להפ 100
▁מיי 100
▁coin 100
ager 100
hrung 100
illion 100
▁legal 100
▁milion 100
▁hearing 100
▁fash 100
▁puzz 100
▁prize 100
▁surve 100
▁خواهم 100
▁corner 100
ographic 100
hä 100
▁alred 100
▁novel 100
▁extreme 100
asso 100
▁tys 100
▁יום 100
▁shop 100
▁balance 100
▁helping 100
▁differences 100
owo 100
stru 100
umin 100
▁jul 100
▁كبير 100
▁mujeres 100
ünd 100
ماغ 100
▁lack 100
▁ideal 100
▁הצי 100
▁interview 100
uld 100
▁avevo 100
▁closer 100
▁markets 100
▁scientist 100
▁harm 100
▁الأخ 100
▁22 100
▁chied 100
▁surge 100
▁także 100
▁חושבים 100
▁implic 100
▁ún 100
▁کنه 100
▁laptop 100
رح 100
bing 100
▁bep 100
▁وما 100
▁באות 100
▁الحي 100
▁finger 100
▁physic 100
god 100
plom 100
▁فوق 100
▁custom 100
▁gather 100
▁classroom 100
▁francisco 100
▁joy 100
▁غیر 100
▁daten 100
▁enferm 100
mee 100
▁hack 100
▁włas 100
▁catch 100
▁coffee 100
viamente 100
قاء 100
ולוג 100
▁cha 100
▁شاید 100
▁farlo 100
▁photos 100
▁מוצ 100
▁نفر 100
▁كبيرة 100
▁sollte 100
okr 100
▁dól 100
▁מקום 100
▁goede 100
▁disord 100
▁highly 100
▁minister 100
▁التص 100
▁اینه 100
puesto 100
▁kilka 100
▁vista 100
▁miljoen 100
▁23 100
ícil 100
▁tutta 100
▁alrededor 100
ech 100
زان 100
▁يم 100
iest 100
▁difícil 100
▁intellect 100
یشه 100
▁amp 100
▁ניתן 100
licher 100
▁هؤلاء 100
▁ancest 100
▁answers 100
▁atmosphere 100
idi 100
▁eks 100
gency 100
▁arts 100
▁facendo 100
▁accident 100
ają 100
izo 100
▁gun 100
▁bush 100
▁أريد 100
▁bridge 100
▁km 100
iere 100
▁nego 100
▁הזאת 100
▁alcune 100
▁المتحدة 100
▁naturale 100
▁vas 100
▁aantal 100
eme 100
▁رؤ 100
▁حرف 100
izzare 100
▁occup 100
rew 100
ורך 100
▁נה 100
ację 100
▁szy 100
▁zast 100
▁wilde 100
▁foreign 100
واع 100
▁host 100
▁osob 100
▁seemed 100
cles 100
ivos 100
uten 100
ening 100
▁lich 100
▁lung 100
▁احساس 100
▁اطلا 100
وء 100
פיק 100
teil 100
atter 100
under 100
▁seas 100
▁يوجد 100
▁frauen 100
أة 100
otic 100
ścią 100
▁مختلفة 100
▁nigeria 100
▁שבה 100
▁broken 100
anken 100
▁hart 100
▁hoop 100
▁kijk 100
▁دیگری 100
got 100
یند 100
▁atom 100
▁کوچک 100
▁ung 100
▁glam 100
▁encontrar 100
تان 100
▁ding 100
▁betek 100
▁ignor 100
▁acceler 100
▁dziękuję 100
uis 100
▁dum 100
▁مید 100
▁paid 100
▁הזמן 100
▁minder 100
▁puedes 100
▁stanie 100
▁switch 100
▁choices 100
هاية 100
▁nauk 100
▁vacc 100
▁tissue 100
▁valley 100
▁surround 100
גות 100
ليس 100
▁kör 100
▁nav 100
atives 100
lung 100
▁err 100
▁były 100
▁wide 100
▁quien 100
▁schre 100
▁adesso 100
▁fashion 100
یستم 100
▁admin 100
▁feels 100
▁welche 100
▁minuten 100
▁الأطفال 100
▁magazine 100
▁ziemlich 100
יר 100
▁repu 100
▁easily 100
ences 100
يارات 100
▁fragen 100
تی 100
جر 100
fte 100
▁jer 100
▁sigu 100
▁شيئا 100
▁aprend 100
▁notion 100
▁robert 100
▁studying 100
▁successo 100
▁רבה 100
liamo 100
▁dens 100
▁arbeiten 100
zyw 100
▁calls 100
▁schnell 100
ires 100
▁fer 100
▁beat 100
▁braz 100
▁erzä 100
igheid 100
▁aliment 100
▁wikipedia 100
kol 100
سات 100
▁בד 100
▁avuto 100
قوم 100
tube 100
atego 100
świad 100
▁escrib 100
▁status 100
▁symmet 100
▁window 100
▁sollten 100
▁commercial 100
acje 100
▁אשר 100
▁صورت 100
▁تعلمون 100
▁organizations 100
פו 100
aty 100
iby 100
▁accur 100
▁campo 100
▁powod 100
▁radical 100
▁communicate 100
لاب 100
▁دي 100
▁دقی 100
▁rozm 100
▁laborator 100
gust 100
▁فرا 100
▁lado 100
▁regular 100
▁religious 100
▁موقع 100
▁mouse 100
▁moments 100
kten 100
▁padre 100
▁nearly 100
▁nä 100
fähr 100
komen 100
▁بالم 100
▁categ 100
▁każdy 100
▁efficient 100
▁يبدو 100
▁misma 100
▁كانوا 100
▁ciudad 100
▁shares 100
▁pregunta 100
▁organisms 100
nię 100
▁حق 100
▁منها 100
▁photo 100
▁imagination 100
gry 100
ציה 100
ודות 100
▁cla 100
▁tent 100
▁לגבי 100
▁domanda 100
▁bef 100
aining 100
اح 100
xim 100
ظام 100
▁sì 100
based 100
▁będą 100
▁prep 100
▁meisten 100
▁institute 100
ząc 100
ذار 100
▁سم 100
▁frustr 100
▁background 100
▁definition 100
▁dial 100
▁aller 100
ivamente 100
▁members 100
glio 100
▁fully 100
▁dlatego 100
▁noticed 100
vor 100
▁sapp 100
▁scen 100
▁spaces 100
▁tremendous 100
شرة 100
▁اع 100
▁jump 100
▁سی 100
eros 100
▁youtube 100
يدي 100
▁colum 100
▁musimy 100
▁través 100
▁atl 100
▁auß 100
▁zaj 100
▁reve 100
▁بوده 100
▁nemen 100
▁bekommen 100
شم 100
נוי 100
▁درا 100
abile 100
▁kenn 100
▁sarà 100
▁خارج 100
▁zodat 100
▁בצורה 100
▁dispos 100
▁risult 100
▁wollte 100
▁british 100
▁familie 100
▁dé 100
aniem 100
ortun 100
ierten 100
▁شو 100
acie 100
▁vag 100
▁pron 100
▁giant 100
▁sprechen 100
atch 100
ivel 100
onym 100
▁dije 100
▁dood 100
▁plast 100
▁beetje 100
▁gotten 100
cel 100
▁hyp 100
▁agree 100
▁przem 100
▁lights 100
▁knowing 100
dimensional 100
▁colleagues 100
نه 100
▁موا 100
▁leads 100
▁meinen 100
▁progetto 100
mark 100
obra 100
▁embr 100
▁vuel 100
weg 100
wide 100
רונות 100
▁نظام 100
▁commit 100
▁missing 100
انو 100
▁همچ 100
▁hydro 100
▁vragen 100
▁planets 100
▁stopped 100
▁traffic 100
فظ 100
▁اعت 100
▁barr 100
▁raum 100
▁fuera 100
▁telesc 100
▁الطبيع 100
▁داستان 100
צות 100
يمكن 100
▁fert 100
astanza 100
▁despite 100
▁feedback 100
▁abbastanza 100
▁ultimately 100
print 100
▁بازی 100
▁shift 100
quences 100
ומי 100
▁haber 100
▁sculpt 100
▁versus 100
▁vriend 100
▁display 100
▁الطريقة 100
▁possibility 100
▁دل 100
bled 100
zien 100
ولو 100
▁کل 100
enzi 100
عليم 100
lywood 100
wiście 100
▁veget 100
▁meinem 100
▁natuurlijk 100
▁relationships 100
zw 100
lip 100
▁mann 100
▁każde 100
▁benefits 100
בול 100
action 100
▁brief 100
▁count 100
▁nigdy 100
▁smell 100
▁לחשוב 100
▁البشر 100
▁invece 100
▁brilliant 100
▁particles 100
دف 100
زيد 100
west 100
▁הייתה 100
▁darauf 100
iken 100
▁2005 100
▁alex 100
▁כיצד 100
▁הראשון 100
ذج 100
ומים 100
▁join 100
▁salv 100
▁batter 100
▁następ 100
شار 100
onds 100
فكير 100
amenti 100
▁held 100
▁prove 100
▁leader 100
tere 100
▁avo 100
▁sah 100
▁جای 100
▁brings 100
▁replic 100
▁بالفعل 100
cip 100
▁أنت 100
ossen 100
▁اولین 100
▁universal 100
▁rep 100
beren 100
▁הגי 100
▁podob 100
▁contem 100
char 100
▁hog 100
▁lek 100
▁dedic 100
▁expos 100
▁laatste 100
▁invisible 100
▁wszystkich 100
▁ساز 100
▁kans 100
בוה 100
▁myślę 100
باء 100
▁má 100
ocol 100
וקים 100
▁salud 100
▁ax 100
puter 100
▁sang 100
kelijk 100
▁هستیم 100
▁siebie 100
▁قب 100
ilidad 100
▁negative 100
▁benut 100
▁hyper 100
▁prend 100
▁turning 100
ompl 100
▁250 100
adora 100
▁בעצם 100
▁structures 100
▁responsibility 100
orgen 100
▁قادر 100
▁serve 100
▁cierto 100
▁illustr 100
ريب 100
▁27 100
▁trzy 100
▁hotel 100
▁estudi 100
▁gemaakt 100
▁mayoría 100
▁ambiente 100
mod 100
schijn 100
▁discovery 100
ius 100
▁mik 100
▁afra 100
▁diagn 100
▁comunic 100
▁pó 100
انون 100
▁numero 100
▁convert 100
▁diversity 100
▁differently 100
oft 100
▁deg 100
▁uso 100
▁objet 100
▁mé 100
▁cuer 100
▁בתוך 100
▁bread 100
▁polít 100
erencia 100
▁descubr 100
▁śm 100
▁مما 100
▁toch 100
▁schle 100
▁spazio 100
▁recover 100
▁informatie 100
bym 100
▁aiut 100
▁brown 100
▁סיפור 100
ienen 100
▁מפני 100
▁forever 100
טח 100
annt 100
▁alz 100
▁המת 100
▁dale 100
▁grab 100
▁zdję 100
▁כפי 100
▁świata 100
▁possibile 100
קרה 100
لیل 100
▁gras 100
▁moeil 100
bling 100
▁בערך 100
▁الجم 100
▁بسبب 100
,5 100
▁hä 100
meno 100
ulas 100
▁irr 100
▁اسم 100
▁أكبر 100
▁gebeurt 100
▁kleinen 100
▁addition 100
ierz 100
▁gay 100
▁حقی 100
▁باشه 100
▁قابل 100
▁analys 100
▁meglio 100
▁chor 100
▁tough 100
▁dólares 100
▁farmers 100
▁strength 100
uję 100
▁ip 100
omst 100
▁עומ 100
▁pozw 100
▁warm 100
▁האלו 100
jących 100
▁sotto 100
▁charge 100
ובה 100
onos 100
▁erre 100
▁niets 100
▁volgende 100
ضية 100
▁מכו 100
▁coraz 100
▁diseñ 100
▁afraid 100
chs 100
▁mój 100
akter 100
▁sper 100
apping 100
▁analog 100
▁creatures 100
פט 100
ادي 100
▁2. 100
▁atr 100
▁hell 100
▁pomy 100
▁trip 100
▁بدأت 100
▁lasci 100
▁attempt 100
imenti 100
umento 100
▁verbind 100
▁emoc 100
▁uomo 100
▁ایده 100
▁اطلاعات 100
▁artificial 100
iën 100
مون 100
▁مل 100
▁oko 100
▁1960 100
▁autor 100
orzyst 100
▁contra 100
▁supuesto 100
asz 100
▁تب 100
لايا 100
▁firm 100
▁sost 100
▁تعرف 100
▁insight 100
anes 100
ständ 100
▁نیاز 100
▁double 100
▁konden 100
▁brother 100
לום 100
▁אף 100
▁ללא 100
▁مرت 100
▁chann 100
▁speech 100
▁כת 100
volg 100
▁len 100
▁details 100
▁גר 100
▁egy 100
▁zad 100
▁biom 100
▁mechanism 100
▁کمک 100
▁lunch 100
▁potem 100
▁fairly 100
▁niente 100
▁begrijpen 100
onte 100
▁fün 100
▁pip 100
▁grass 100
▁marketing 100
▁experiences 100
▁opportunities 100
ił 100
עט 100
ędzy 100
▁vere 100
▁rodza 100
▁sopra 100
▁יכולה 100
▁newspap 100
▁bastante 100
▁previous 100
▁phenomenon 100
▁hung 100
▁فكرة 100
▁appreci 100
py 100
▁zes 100
▁באי 100
▁links 100
▁mouth 100
▁suced 100
▁اتفاق 100
uge 100
utto 100
▁flex 100
▁posso 100
▁werkt 100
scheinlich 100
▁eigentlich 100
▁لان 100
point 100
مریک 100
▁kit 100
▁zah 100
erden 100
kunft 100
▁okaz 100
▁orch 100
▁سیستم 100
▁importantly 100
▁يا 100
▁noise 100
▁اینها 100
▁leadership 100
▁obl 100
▁groe 100
▁לדבר 100
▁bound 100
▁imper 100
▁conven 100
▁توانید 100
▁describe 100
▁emotions 100
▁facciamo 100
▁bru 100
▁للغ 100
▁dare 100
▁vrouw 100
▁passed 100
ąda 100
inter 100
▁hoch 100
▁ning 100
▁events 100
▁między 100
▁landscape 100
▁بخش 100
kiego 100
sehen 100
▁inne 100
▁enkele 100
▁intervent 100
▁necessarily 100
וריה 100
▁paint 100
▁diplom 100
ובי 100
▁fá 100
etta 100
oston 100
▁female 100
▁fascinating 100
קד 100
▁نعم 100
▁logr 100
▁geluk 100
▁canada 100
▁elimin 100
▁matters 100
▁podczas 100
▁weniger 100
úbl 100
▁dim 100
▁toek 100
▁zitten 100
▁شک 100
▁gps 100
▁پرو 100
zlich 100
▁pote 100
▁جديدة 100
▁construct 100
▁veranderen 100
▁حدث 100
▁liqu 100
▁פחות 100
▁otten 100
▁البته 100
▁molecu 100
▁neuros 100
▁protein 100
▁influence 100
▁mathematics 100
mö 100
قر 100
▁؛ 100
▁تط 100
▁gefü 100
▁repe 100
▁gebeur 100
▁leading 100
▁weapons 100
فهم 100
rupt 100
▁מוש 100
▁helps 100
▁betekent 100
נטר 100
▁jan 100
▁smo 100
iedad 100
▁simpl 100
▁spring 100
▁احتمال 100
laub 100
▁kat 100
▁tri 100
▁הרו 100
▁درصد 100
üh 100
▁نی 100
elly 100
▁luz 100
▁بما 100
▁seit 100
▁quatt 100
▁lesson 100
▁metaphor 100
▁civilization 100
zymy 100
▁pul 100
▁decl 100
▁ooit 100
▁crash 100
▁signal 100
▁elements 100
▁suffering 100
זר 100
ارس 100
aped 100
▁tedx 100
▁tick 100
▁zaczę 100
▁ganzen 100
خی 100
▁أج 100
aging 100
▁قدرت 100
▁justice 100
▁المعلومات 100
خاب 100
▁جزء 100
▁مقد 100
▁coal 100
▁deed 100
▁prime 100
▁rural 100
▁divert 100
▁espacio 100
▁fighting 100
▁az 100
▁בסי 100
▁faces 100
▁paradig 100
▁profession 100
וץ 100
נם 100
▁صف 100
▁لحظ 100
▁کمی 100
▁cert 100
▁lucky 100
▁siano 100
▁kilomet 100
واب 100
▁מסת 100
▁قلي 100
▁erken 100
▁respu 100
▁produkt 100
كية 100
▁hil 100
▁wheel 100
▁mexico 100
▁talent 100
▁dow 100
▁עשו 100
ofd 100
▁2009 100
▁diam 100
▁uważ 100
▁humor 100
▁french 100
▁zawsze 100
▁compart 100
▁superfic 100
ïn 100
▁dó 100
▁أص 100
ريبا 100
▁myth 100
ctions 100
▁usare 100
▁increí 100
▁prostu 100
▁related 100
של 100
قاط 100
unte 100
▁somos 100
▁empath 100
▁100,000 100
פל 100
rot 100
▁bás 100
▁شدن 100
▁conduct 100
▁figured 100
▁مب 100
iono 100
▁opl 100
▁mitt 100
▁אותנו 100
▁sb 100
▁obec 100
▁click 100
▁offer 100
▁quali 100
▁advant 100
▁husband 100
▁responsible 100
irs 100
اريخ 100
▁לנ 100
geven 100
▁lleg 100
▁השני 100
▁sache 100
▁billions 100
غل 100
حية 100
wiek 100
سائل 100
▁lief 100
ثال 100
▁ozn 100
▁pró 100
▁engage 100
▁unge 100
▁efect 100
▁videos 100
▁cambiar 100
▁consegu 100
▁counter 100
▁quattro 100
▁egg 100
▁lok 100
▁dobrze 100
▁termin 100
▁cél 100
▁luce 100
▁المص 100
▁nivel 100
▁pasado 100
▁آم 100
ztał 100
▁bil 100
▁scar 100
▁המוח 100
idents 100
▁iphone 100
▁otherwise 100
۰۰ 100
ests 100
▁heiß 100
▁الأن 100
▁kolej 100
▁alguna 100
▁houden 100
▁matemat 100
▁sabemos 100
▁trovare 100
▁separate 100
ظهر 100
▁eing 100
▁semplic 100
▁according 100
▁competition 100
قائ 100
arde 100
▁najb 100
▁astero 100
▁boston 100
▁wisdom 100
▁toekomst 100
וות 100
▁طو 100
cking 100
▁prób 100
▁polio 100
▁fields 100
ification 100
▁inm 100
▁dese 100
▁يعمل 100
▁exhib 100
▁dinosaur 100
▁problemen 100
ned 100
▁pł 100
amię 100
▁دوب 100
asion 100
▁chimp 100
▁کاملا 100
cześnie 100
▁profes 100
▁توانیم 100
▁bringen 100
omos 100
uras 100
erung 100
▁vind 100
▁osserv 100
▁להשתמש 100
▁استخدام 100
▁childhood 100
emic 100
▁החי 100
▁usando 100
▁convent 100
ورا 100
▁ts 100
▁תק 100
ujące 100
▁eleg 100
▁schr 100
▁tail 100
▁proced 100
▁العديد 100
▁leaving 100
▁station 100
▁يأ 100
apse 100
▁dry 100
▁faith 100
▁posto 100
▁diseño 100
▁sosten 100
gł 100
▁۲ 100
ציא 100
▁فل 100
▁produc 100
▁economics 100
עם 100
▁כעת 100
▁perce 100
▁simul 100
▁מישהו 100
▁interessant 100
zes 100
▁kraj 100
ändern 100
▁במקום 100
▁الآخر 100
▁países 100
▁profit 100
▁tę 100
▁ונ 100
▁wyobra 100
ennen 100
▁2004 100
▁grot 100
anas 100
ifying 100
▁walls 100
▁church 100
▁curios 100
▁grandm 100
▁większo 100
▁bedeutet 100
غم 100
ulous 100
usion 100
▁بگیر 100
▁هستم 100
▁minim 100
▁تستطيع 100
▁hopefully 100
▁32 100
▁chip 100
▁voed 100
▁מסוג 100
▁pakistan 100
▁simplemente 100
▁professional 100
odo 100
onal 100
▁emb 100
▁wed 100
▁abstr 100
▁pomoc 100
▁حقیقت 100
▁aument 100
▁großen 100
▁ricerca 100
gres 100
▁póź 100
▁תמיד 100
ography 100
▁debate 100
▁زن 100
▁purs 100
▁públ 100
▁którą 100
▁طريقة 100
▁parece 100
▁destroy 100
▁typical 100
▁identity 100
▁engineers 100
▁קור 100
▁pracy 100
▁destru 100
▁benefit 100
▁shouldn 100
schijnlijk 100
ray 100
ibo 100
ową 100
▁מל 100
▁تک 100
entie 100
▁bees 100
▁valu 100
▁difer 100
▁około 100
ابه 100
▁hate 100
▁soph 100
▁adults 100
▁ray 100
▁كار 100
▁نقوم 100
▁dalle 100
كنولوجيا 100
äter 100
▁kal 100
▁isol 100
▁konf 100
▁البع 100
▁causa 100
▁niekt 100
▁باشید 100
▁holding 100
▁sequence 100
▁sorprend 100
▁difficile 100
▁investment 100
ader 100
amen 100
▁pus 100
▁eran 100
▁człow 100
▁diferente 100
▁necessary 100
aged 100
▁מדה 100
czenie 100
▁להבין 100
▁tempor 100
▁buch 100
▁chcę 100
▁dónde 100
ژه 100
ختر 100
▁hill 100
▁begins 100
▁36 100
olds 100
ibles 100
▁جایی 100
▁czasu 100
▁genoeg 100
▁statistics 100
ám 100
מם 100
▁edge 100
▁הולך 100
▁zdrow 100
-2 100
chę 100
śla 100
▁לט 100
ettr 100
▁zar 100
ività 100
▁corpo 100
▁sappiamo 100
xic 100
zing 100
▁ihm 100
▁קשה 100
▁boom 100
▁grav 100
▁trud 100
▁دهند 100
▁gentlem 100
▁everyday 100
קיי 100
▁bow 100
▁1990 100
▁bits 100
▁verz 100
▁wand 100
▁emiss 100
▁easier 100
ye 100
onie 100
wijs 100
▁علا 100
▁وجد 100
▁دیگه 100
▁وهذه 100
▁jedes 100
▁الاست 100
▁raised 100
▁autonom 100
▁monitor 100
▁wahrscheinlich 100
atti 100
▁beach 100
▁musical 100
▁interface 100
طق 100
door 100
▁כזה 100
others 100
▁quelli 100
▁glauben 100
▁administr 100
▁dh 100
רגיה 100
▁fünf 100
▁creation 100
ąć 100
▁date 100
▁lever 100
▁quote 100
▁nessuno 100
▁privile 100
▁opposite 100
חס 100
▁قر 100
جتما 100
ciones 100
▁dacht 100
▁honor 100
▁trata 100
▁failure 100
▁ژ 100
izes 100
▁row 100
▁sull 100
▁הדרך 100
▁سيكون 100
▁körper 100
▁thinks 100
▁australia 100
▁agriculture 100
voel 100
▁ואם 100
▁gewe 100
▁nowe 100
▁falls 100
▁zasad 100
connect 100
▁colors 100
▁hombre 100
▁llegar 100
▁require 100
▁unseren 100
äft 100
▁aer 100
▁szyb 100
▁prest 100
▁tomar 100
▁varia 100
▁gesund 100
wir 100
هات 100
craft 100
▁elev 100
▁لديهم 100
▁master 100
▁chicago 100
▁england 100
▁volunte 100
ثة 100
acz 100
prof 100
ولايات 100
▁deeply 100
▁freund 100
▁lernen 100
▁società 100
bur 100
ckt 100
ومة 100
llen 100
▁سطح 100
▁نحو 100
▁inge 100
▁cultura 100
▁gesehen 100
▁molecule 100
▁bon 100
▁פני 100
▁میت 100
▁exch 100
▁vlie 100
▁ingred 100
▁której 100
▁tratta 100
edy 100
ذكر 100
ینه 100
awia 100
▁migr 100
▁pengu 100
▁hoeveel 100
osi 100
wad 100
▁recy 100
▁vijf 100
▁بصورة 100
▁dachte 100
▁ontwer 100
▁اندازه 100
▁entirely 100
פס 100
ema 100
لات 100
▁ihrem 100
▁cuatro 100
▁manten 100
ened 100
▁dys 100
לם 100
عى 100
یب 100
اله 100
▁شن 100
▁gap 100
▁האר 100
▁غذا 100
eared 100
▁במשך 100
▁normally 100
ניי 100
شاف 100
enty 100
▁wod 100
▁آنچه 100
▁moves 100
▁weird 100
▁slechts 100
ulp 100
▁اشت 100
▁طرف 100
▁plus 100
▁זוהי 100
▁egypt 100
▁ongel 100
▁factor 100
עו 100
cke 100
روه 100
یکی 100
▁2,000 100
▁conten 100
▁gruppo 100
▁landen 100
▁onderzoek 100
▁szt 100
▁أجل 100
▁horm 100
▁kick 100
▁huis 100
▁analy 100
▁מערכת 100
ñas 100
ומה 100
▁פת 100
arla 100
schl 100
▁ense 100
▁stuck 100
▁combin 100
▁انا 100
▁evil 100
▁تواند 100
▁capable 100
קס 100
▁اد 100
▁unf 100
وانات 100
▁chir 100
▁groep 100
▁continent 100
aggi 100
ding 100
pekt 100
▁afry 100
atures 100
▁boven 100
▁نستطيع 100
ov 100
ients 100
▁באמצ 100
▁uncle 100
▁slowly 100
▁vostro 100
zna 100
elet 100
▁gift 100
▁jong 100
▁هنوز 100
▁bright 100
▁piccolo 100
▁جان 100
aften 100
▁días 100
czeńst 100
▁antib 100
▁gedaan 100
▁engineer 100
▁wykorzyst 100
andon 100
▁agli 100
▁القد 100
▁pounds 100
▁diversi 100
▁brauchen 100
▁moeilijk 100
▁perfectly 100
تنا 100
▁fabric 100
▁planning 100
▁seriously 100
▁הבע 100
▁فرد 100
▁chap 100
▁نبود 100
▁cient 100
▁trained 100
▁astronom 100
▁principles 100
داشت 100
▁شکل 100
▁reag 100
▁harder 100
▁languages 100
lle 100
▁לר 100
icio 100
سانی 100
▁לדע 100
▁effetti 100
▁organic 100
▁disappear 100
فض 100
itet 100
▁מהם 100
▁dużo 100
▁دهیم 100
▁الشيء 100
▁semplice 100
נטי 100
bamos 100
łości 100
▁vibr 100
▁raggi 100
▁illness 100
▁proberen 100
▁عظ 100
▁בלי 100
ometer 100
▁باشند 100
▁worldwide 100
agli 100
czne 100
ליים 100
▁paese 100
▁ילדים 100
▁meters 100
▁compared 100
נן 100
▁rigu 100
▁قمنا 100
▁weise 100
▁degree 100
▁natura 100
▁experts 100
ppo 100
iker 100
▁ott 100
▁בהם 100
▁crack 100
▁dunque 100
▁entsche 100
▁distance 100
ینده 100
جع 100
▁toil 100
▁wear 100
▁wier 100
▁ونحن 100
▁medium 100
▁warming 100
تا 100
▁بالط 100
▁seite 100
▁caught 100
▁inevit 100
▁cuán 100
▁compare 100
▁versuchen 100
▁נע 100
▁נק 100
ריות 100
ركات 100
▁erv 100
▁للح 100
▁فعلا 100
▁razem 100
▁elettr 100
▁reward 100
▁believed 100
ragen 100
▁meat 100
▁perf 100
▁sería 100
▁właści 100
▁antwort 100
▁corruption 100
anos 100
▁sov 100
▁אור 100
gehen 100
▁empow 100
▁mosqu 100
▁proud 100
▁razón 100
▁stone 100
▁cientí 100
▁kracht 100
▁٬ 100
▁eb 100
inder 100
▁خاطر 100
▁ندار 100
▁paesi 100
▁steps 100
▁finished 100
גה 100
קת 100
▁بو 100
▁tall 100
▁danke 100
▁حوالي 100
▁دولار 100
▁toward 100
▁tweede 100
uel 100
▁cad 100
▁nein 100
▁estim 100
▁kenya 100
▁مانند 100
ologist 100
▁hidden 100
▁materia 100
▁waarschijnlijk 100
▁مدرس 100
▁کتاب 100
▁scuola 100
▁dezelfde 100
▁multiple 100
occ 100
ואו 100
ونا 100
▁mús 100
▁כשא 100
▁آنجا 100
▁السل 100
▁aarde 100
▁desire 100
▁dreams 100
▁proyecto 100
▁ort 100
▁إذن 100
▁argu 100
▁zone 100
▁afric 100
▁alter 100
▁round 100
▁studied 100
▁zukunft 100
arr 100
▁flat 100
▁lift 100
▁pure 100
▁الجن 100
▁fourth 100
▁opened 100
▁ruimte 100
▁discipl 100
▁globale 100
▁independent 100
شه 100
jar 100
▁26 100
arci 100
owym 100
פרים 100
▁neu 100
▁بسي 100
▁لهم 100
▁lect 100
▁sept 100
▁heads 100
▁ordinary 100
▁whenever 100
▁cognitive 100
كار 100
▁رق 100
oking 100
▁compos 100
▁آزمایش 100
▁necesitamos 100
▁ית 100
wiet 100
▁shr 100
emaal 100
▁peak 100
▁crime 100
▁primero 100
lak 100
ards 100
▁אומ 100
▁ויש 100
▁hizo 100
▁בסדר 100
▁solid 100
▁factory 100
▁insects 100
▁livello 100
▁consumption 100
▁q 100
unto 100
▁ker 100
▁أما 100
▁حصل 100
avamo 100
▁dich 100
▁وهنا 100
▁دارید 100
▁article 100
▁pojaw 100
▁surprise 100
גד 100
▁jim 100
uerdo 100
▁alta 100
▁roof 100
▁سلول 100
esterd 100
▁exerc 100
▁gobier 100
▁vengono 100
גש 100
iot 100
load 100
pair 100
▁öff 100
orrow 100
▁scoper 100
▁sister 100
▁survival 100
▁tomorrow 100
▁principle 100
igr 100
واس 100
▁65 100
▁ور 100
bere 100
ترین 100
▁dato 100
▁ziel 100
▁metal 100
▁zeigt 100
▁diagnos 100
▁highest 100
gru 100
▁edu 100
▁ore 100
▁منه 100
▁staan 100
▁zaczy 100
▁brazil 100
▁interesante 100
בית 100
▁جعل 100
▁כולם 100
▁مليون 100
▁للغاية 100
▁managed 100
▁przypad 100
▁العل 100
▁والأ 100
chodzi 100
onders 100
▁giusto 100
▁الطاقة 100
esterday 100
▁prendere 100
▁yesterday 100
▁ring 100
▁דולר 100
▁damage 100
▁مجموعة 100
▁followed 100
▁galaxies 100
▁constantly 100
ופה 100
یجه 100
cket 100
iges 100
▁argue 100
▁geeft 100
▁restaurant 100
ופי 100
talk 100
▁למצ 100
inander 100
▁bepaal 100
▁estaban 100
zęd 100
▁sob 100
▁חדש 100
▁פרו 100
atica 100
▁flor 100
▁לאחר 100
▁horiz 100
▁resto 100
▁verder 100
▁winter 100
▁weather 100
▁alternative 100
och 100
▁menge 100
▁sentido 100
ałam 100
ierd 100
▁fan 100
▁bran 100
▁cast 100
▁بهذا 100
▁circle 100
▁appropr 100
▁planeta 100
▁probabilmente 100
can 100
פון 100
תיד 100
▁כה 100
rijf 100
▁میگ 100
▁نسب 100
▁hoofd 100
▁hinter 100
▁orient 100
▁european 100
▁ontwikkel 100
▁universum 100
ijkt 100
▁במו 100
▁rend 100
▁interf 100
▁motion 100
izzazione 100
▁unterschied 100
dzy 100
igli 100
בלים 100
▁hur 100
▁leer 100
▁cuerpo 100
▁unless 100
▁contract 100
חור 100
frica 100
▁szczę 100
▁כמובן 100
▁gingen 100
▁nauczy 100
▁enfermed 100
هتما 100
▁בלתי 100
czenia 100
▁الهند 100
iciente 100
▁pequeño 100
añ 100
▁حي 100
▁szko 100
▁cycle 100
▁miglio 100
▁ارتباط 100
▁trasform 100
▁bla 100
▁pół 100
▁הלא 100
▁encu 100
▁vaak 100
▁wave 100
▁آمریک 100
▁failed 100
▁strutt 100
▁tienes 100
▁voices 100
▁equivalent 100
▁wirtschaft 100
▁قص 100
hrer 100
pert 100
estic 100
▁adol 100
▁fresh 100
▁grupo 100
▁concerned 100
▁oczywiście 100
oh 100
▁rak 100
▁señ 100
▁tort 100
▁closed 100
▁galaxy 100
▁unglaub 100
▁vediamo 100
▁רח 100
iali 100
ciare 100
▁empt 100
▁poter 100
▁trochę 100
▁دوباره 100
▁desarroll 100
▁נח 100
▁תע 100
▁שאי 100
ibili 100
▁گروه 100
▁indem 100
▁peter 100
▁demokr 100
▁interno 100
▁pubblico 100
یمی 100
ggio 100
▁בדרך 100
▁nadie 100
▁zeker 100
▁gebruikt 100
▁collective 100
gaan 100
▁jeff 100
▁mezzo 100
▁chciał 100
▁operating 100
ياه 100
▁vin 100
▁معم 100
▁names 100
▁dinner 100
▁fossil 100
▁molecular 100
izen 100
uses 100
▁pir 100
▁piace 100
▁battle 100
▁waarop 100
▁director 100
▁advantage 100
کتر 100
▁gross 100
▁gezond 100
צוב 100
pass 100
▁azi 100
▁dip 100
▁هوا 100
▁lady 100
▁wars 100
▁pages 100
▁prakt 100
▁rzecz 100
rof 100
▁95 100
ijna 100
▁oft 100
illed 100
▁boat 100
▁ksią 100
▁medi 100
▁wenig 100
▁remote 100
aga 100
eper 100
▁tat 100
▁חשב 100
▁کود 100
▁salt 100
▁expon 100
▁cartoon 100
נתי 100
▁ham 100
▁lungo 100
▁explos 100
▁increasingly 100
azz 100
يفة 100
remo 100
▁המק 100
▁أخذ 100
richt 100
▁cinque 100
▁exists 100
▁limited 100
▁helemaal 100
▁currently 100
לך 100
▁ktoś 100
▁והיא 100
uments 100
▁מיליון 100
umen 100
▁soc 100
▁للا 100
▁dimensions 100
óm 100
רגע 100
گان 100
▁كث 100
▁beim 100
▁letters 100
▁resource 100
▁soldiers 100
gro 100
ريقيا 100
▁zrob 100
▁دلیل 100
▁kompl 100
cere 100
▁whom 100
▁avoid 100
▁praten 100
▁comunità 100
▁الولايات 100
cos 100
ابت 100
▁فن 100
halen 100
▁antic 100
▁empres 100
▁entender 100
▁electrical 100
▁hi 100
▁arms 100
▁parent 100
▁entertain 100
▁mentioned 100
▁fif 100
▁בית 100
▁הקט 100
▁bear 100
▁دادن 100
▁oznacza 100
راحی 100
adomo 100
▁لهذا 100
▁grown 100
▁mówią 100
▁researchers 100
▁جل 100
▁הופ 100
▁deve 100
▁manif 100
schr 100
▁تبد 100
▁cort 100
▁subs 100
▁wpły 100
▁hacemos 100
▁posible 100
▁majority 100
iam 100
▁وان 100
▁creë 100
▁בזמן 100
▁levens 100
▁stupid 100
▁ואנחנו 100
مند 100
▁أقل 100
▁سمت 100
wości 100
▁kurz 100
▁اجتما 100
▁succeed 100
▁edificio 100
▁גור 100
▁گیر 100
▁eins 100
▁מאשר 100
▁manch 100
▁przep 100
▁semplicemente 100
tek 100
حات 100
ließ 100
zone 100
▁gam 100
▁آور 100
▁2006 100
▁לקחת 100
▁vemos 100
▁comment 100
▁ragazzi 100
ót 100
pes 100
הלי 100
ینی 100
▁מוכ 100
▁امروز 100
▁explic 100
▁interaction 100
▁laboratorio 100
▁סט 100
onych 100
▁obama 100
▁uniti 100
ילו 100
uries 100
▁bijna 100
▁airplane 100
ברת 100
مية 100
wart 100
▁sui 100
▁לעצ 100
ersch 100
▁mies 100
▁nord 100
▁seat 100
▁grade 100
▁reduc 100
▁dzieje 100
▁przeci 100
▁command 100
▁hetzelfde 100
▁generations 100
ós 100
jard 100
kach 100
▁לכך 100
known 100
▁catt 100
▁neut 100
▁delen 100
▁shoes 100
▁signals 100
▁spectrum 100
hab 100
abol 100
iors 100
▁erkl 100
▁النا 100
▁humano 100
▁perman 100
كو 100
▁rab 100
▁chim 100
▁maps 100
▁چهار 100
▁obser 100
▁circum 100
▁department 100
▁probablemente 100
▁ii 100
▁سخ 100
cond 100
ernt 100
▁bajo 100
▁cure 100
▁frau 100
▁تصور 100
izzato 100
▁assem 100
▁equal 100
▁sulle 100
▁temat 100
▁advert 100
▁cerebr 100
▁paying 100
▁spesso 100
▁tir 100
▁أمر 100
eremos 100
هاز 100
يار 100
ערכת 100
▁ucc 100
▁מגי 100
▁קבו 100
appen 100
▁echte 100
▁vorrei 100
▁waarin 100
סטי 100
▁دائما 100
▁avevano 100
▁designing 100
قف 100
▁יצ 100
▁מכל 100
▁مال 100
מונות 100
▁rodz 100
▁quién 100
▁attach 100
▁kosten 100
▁extract 100
▁northern 100
ئات 100
mero 100
▁estu 100
▁nuova 100
▁ويمكن 100
▁gevoel 100
▁sommige 100
▁migliore 100
▁intellectual 100
gas 100
▁בן 100
life 100
iscono 100
▁settim 100
▁estados 100
▁businesses 100
via 100
cend 100
▁cow 100
▁bedo 100
▁pand 100
▁לומר 100
▁المر 100
▁توجه 100
▁regul 100
▁seiner 100
▁später 100
▁soil 100
▁أنهم 100
▁najle 100
▁szcze 100
▁nutzen 100
▁britain 100
▁especial 100
▁transition 100
rz 100
▁fi 100
inner 100
▁apar 100
▁hong 100
▁stuk 100
▁traged 100
▁brengen 100
voud 100
משים 100
place 100
▁bone 100
▁rede 100
▁معظم 100
▁angst 100
▁שונים 100
▁wearing 100
▁described 100
כב 100
▁مض 100
▁pin 100
▁hasn 100
▁vostra 100
▁humanos 100
▁później 100
▁constant 100
▁essential 100
أك 100
cal 100
ród 100
▁תר 100
▁نقط 100
▁keinen 100
▁بطريقة 100
▁superficie 100
▁195 100
▁השת 100
▁پول 100
riage 100
▁entde 100
▁heavy 100
▁לאנשים 100
▁انتخاب 100
esa 100
jen 100
eline 100
▁osią 100
▁עליו 100
source 100
▁negot 100
▁verde 100
▁breath 100
▁imagin 100
▁phones 100
▁drawing 100
يني 100
erves 100
▁load 100
▁explan 100
▁oceans 100
oor 100
שבו 100
جازه 100
▁آمد 100
▁2001 100
▁miljard 100
▁consequences 100
راع 100
▁dun 100
▁lit 100
▁oct 100
▁illeg 100
▁riusc 100
ío 100
וכל 100
▁הפר 100
▁بدا 100
▁hätte 100
▁fueron 100
▁eigenen 100
cas 100
سون 100
ugen 100
▁וכך 100
▁تصو 100
▁fell 100
▁kant 100
▁líne 100
▁słow 100
▁ترین 100
▁eerst 100
▁treated 100
▁amerikan 100
▁strategy 100
گز 100
onia 100
واصل 100
erder 100
▁קורה 100
▁dział 100
▁shapes 100
▁witness 100
▁absolute 100
▁مف 100
▁تلا 100
▁erfa 100
▁שהיה 100
▁گفتم 100
▁estab 100
▁ایجاد 100
▁library 100
▁llamado 100
▁menselijke 100
kle 100
orr 100
peł 100
▁تل 100
▁عمر 100
ommen 100
▁vele 100
▁quiet 100
▁malatt 100
▁snow 100
▁vend 100
▁לתוך 100
▁scene 100
אלה 100
▁فا 100
olen 100
owis 100
ויים 100
▁שהי 100
iędzy 100
▁2003 100
▁sala 100
▁حرکت 100
▁piutt 100
▁leaves 100
▁democratic 100
▁عب 100
vole 100
▁صحيح 100
▁comin 100
▁hypoth 100
▁quería 100
▁piuttosto 100
רבה 100
ونی 100
chron 100
▁1980 100
▁میشه 100
▁daily 100
▁eleph 100
▁sympt 100
▁trend 100
▁wygląda 100
iency 100
kunde 100
pping 100
▁adam 100
▁grid 100
▁mieć 100
▁user 100
▁האנו 100
▁homes 100
▁mothers 100
▁management 100
▁أل 100
▁losing 100
▁rappres 100
▁kilometers 100
ąc 100
amow 100
▁lou 100
▁tap 100
▁برو 100
▁معا 100
änder 100
▁absor 100
▁algún 100
▁أشياء 100
idelijk 100
▁trials 100
▁يستطيع 100
bby 100
ris 100
זרת 100
ربة 100
▁اگه 100
arnos 100
▁vess 100
▁caused 100
▁mutter 100
▁suppose 100
▁studenten 100
pun 100
iede 100
▁rig 100
▁מידע 100
▁توسط 100
▁لديك 100
▁sites 100
▁todav 100
▁employe 100
کز 100
opod 100
▁niño 100
▁מדוע 100
▁gesagt 100
▁gezien 100
▁برنامه 100
▁למי 100
usual 100
▁dzis 100
▁holes 100
▁למצוא 100
▁número 100
▁escuela 100
▁stanford 100
גיש 100
▁מצי 100
quiera 100
▁ثلاثة 100
▁garden 100
▁planeten 100
וחד 100
▁מזה 100
▁נוס 100
▁تغي 100
▁susp 100
▁وأنا 100
▁stock 100
▁meeste 100
emu 100
ستر 100
▁בזה 100
▁بیر 100
▁besl 100
▁gute 100
▁גבוה 100
▁القط 100
▁متفاوت 100
▁archite 100
▁bewegen 100
▁todavía 100
▁הראשונה 100
یدن 100
▁ram 100
icità 100
▁cyber 100
▁input 100
▁republ 100
▁systeem 100
▁distribution 100
▁خودم 100
▁היינו 100
▁miglia 100
▁suggests 100
آن 100
جب 100
▁بحث 100
▁وجه 100
heden 100
▁anth 100
▁coca 100
▁erde 100
▁obst 100
▁schön 100
▁تولید 100
▁naszych 100
▁ovviamente 100
stoff 100
▁coral 100
▁vehicle 100
▁property 100
gon 100
ئلة 100
enten 100
▁wyda 100
▁רבים 100
▁layer 100
▁saber 100
▁الصورة 100
כלו 100
عام 100
zeni 100
▁بدن 100
▁feder 100
▁liquid 100
▁tedtalk 100
mun 100
aret 100
▁jas 100
▁قمت 100
▁cosm 100
▁surf 100
▁tests 100
▁آموزش 100
▁martin 100
▁tenden 100
▁testing 100
▁tijdens 100
▁worried 100
▁disaster 100
acle 100
adic 100
▁nak 100
▁nee 100
▁שום 100
▁وأن 100
▁گرد 100
▁hans 100
▁מחדש 100
▁awful 100
▁carol 100
▁doświad 100
▁chemistry 100
▁דר 100
fish 100
▁méd 100
▁ארו 100
▁opera 100
▁przyp 100
▁risol 100
▁بتوان 100
▁gesell 100
▁מכיוון 100
rus 100
zek 100
وقع 100
yczne 100
▁außer 100
▁comer 100
▁lifet 100
▁mucha 100
▁conver 100
adamente 100
▁entrepreneurs 100
شق 100
alu 100
▁كت 100
inig 100
isse 100
▁enseñ 100
▁בשביל 100
▁virgin 100
▁dynamic 100
gra 100
▁ליי 100
▁poem 100
▁kwest 100
lei 100
ależ 100
▁trag 100
▁augen 100
▁error 100
▁laugh 100
▁markt 100
▁mniej 100
▁począ 100
▁assist 100
▁killing 100
▁prawdzi 100
▁loop 100
▁folks 100
▁28 100
▁عرض 100
▁lamp 100
עיונות 100
▁poner 100
▁geomet 100
▁roughly 100
▁pleasure 100
▁مرب 100
▁ampl 100
▁jede 100
▁ogget 100
▁صغيرة 100
▁utiliz 100
▁curious 100
▁setting 100
▁schaffen 100
סון 100
▁لد 100
▁شدم 100
▁محد 100
ijnen 100
▁klim 100
▁spie 100
▁هنالك 100
▁áfrica 100
▁oportun 100
▁reprodu 100
▁operation 100
▁september 100
▁مسا 100
▁lata 100
▁לקבל 100
▁المخ 100
▁اجازه 100
▁النوع 100
▁parall 100
▁parole 100
▁emerging 100
▁launched 100
▁mortality 100
▁programma 100
▁respuesta 100
טין 100
▁شان 100
▁hoog 100
▁buena 100
▁appena 100
▁conect 100
▁muscle 100
▁stream 100
▁married 100
▁powiedzieć 100
fin 100
zać 100
▁אב 100
ring 100
▁שתי 100
▁geze 100
▁נוכל 100
▁שאתה 100
▁بالأ 100
▁largo 100
▁studi 100
▁compañ 100
▁finish 100
▁opening 100
▁costruire 100
ested 100
▁كيفية 100
▁movies 100
▁especie 100
▁whereas 100
cja 100
ses 100
resp 100
heids 100
▁kost 100
▁المس 100
▁krank 100
▁umani 100
▁הרעיון 100
voorbeeld 100
▁associated 100
▁enige 100
▁kreat 100
▁nervous 100
▁construction 100
kaz 100
יהם 100
▁120 100
▁گرفته 100
▁profund 100
mm 100
▁sug 100
▁clar 100
▁plot 100
owałem 100
▁3,000 100
▁کننده 100
▁giorni 100
stellung 100
▁cambiare 100
▁feelings 100
kk 100
▁ange 100
pected 100
▁accad 100
▁beeld 100
▁pamię 100
▁pross 100
▁steel 100
▁proceso 100
▁specifically 100
حه 100
eron 100
▁chw 100
▁ren 100
▁licz 100
▁ואתם 100
▁grant 100
▁الحصول 100
▁grootste 100
cut 100
ودة 100
▁fäh 100
▁ماش 100
▁cibo 100
▁mogę 100
▁span 100
▁يفعل 100
anging 100
▁invited 100
▁sentence 100
▁bijvoorbeeld 100
alla 100
gers 100
▁حقي 100
▁سری 100
▁blow 100
▁puts 100
mat 100
מון 100
رام 100
ünst 100
▁vre 100
▁מוח 100
▁uite 100
▁الكب 100
▁strada 100
▁angeles 100
▁covered 100
▁dolarów 100
▁keeping 100
▁pierwszy 100
▁construir 100
▁grandmother 100
omi 100
ואי 100
ناه 100
▁אה 100
▁ona 100
▁osc 100
▁tuv 100
▁traum 100
▁نتیجه 100
▁satisf 100
▁cultures 100
טות 100
حيط 100
روف 100
▁תא 100
▁700 100
▁ross 100
▁خانه 100
▁films 100
▁lijkt 100
▁cortex 100
▁contain 100
kop 100
بحث 100
▁يسم 100
gment 100
▁budd 100
▁وعند 100
▁الجديد 100
▁przedstaw 100
▁technical 100
▁fís 100
▁män 100
rieben 100
▁mountains 100
▁bog 100
▁veil 100
▁بلکه 100
▁zaczą 100
▁troppo 100
▁amerika 100
▁ciencia 100
▁instrum 100
▁שג 100
olar 100
wind 100
▁sąd 100
▁להע 100
unter 100
▁1950 100
▁ersch 100
▁prowad 100
▁immagine 100
▁chemicals 100
▁surprised 100
bb 100
▁lawy 100
▁coordin 100
▁brothers 100
▁thoughts 100
وسط 100
edig 100
▁הדי 100
▁جنگ 100
owany 100
▁بودن 100
▁centr 100
▁miesz 100
▁musik 100
▁tratt 100
▁organs 100
▁lichaam 100
▁succede 100
▁الأشخاص 100
▁advanced 100
▁analysis 100
▁ungefähr 100
▁mł 100
▁يست 100
▁أنني 100
▁عليك 100
▁cloth 100
▁stret 100
wid 100
viol 100
▁تست 100
▁ants 100
▁army 100
▁dziś 100
▁manh 100
▁شبیه 100
▁incor 100
▁perci 100
▁cellule 100
▁pianeta 100
▁begonnen 100
▁clinical 100
▁congress 100
هاب 100
▁olt 100
▁שמת 100
▁taki 100
▁میده 100
▁smile 100
▁آینده 100
▁financi 100
dru 100
ریق 100
▁لح 100
zust 100
▁dod 100
▁וכל 100
▁rates 100
▁داشتم 100
▁bouwen 100
zus 100
מור 100
usst 100
▁oor 100
▁החל 100
▁آدم 100
▁pray 100
▁polity 100
وري 100
▁برگ 100
lying 100
▁marg 100
▁moja 100
▁wiecie 100
▁podstaw 100
▁macchina 100
רתי 100
iana 100
uale 100
▁משמ 100
▁quei 100
▁suoi 100
▁הספר 100
▁shall 100
▁imagen 100
▁trzeba 100
▁japanese 100
طا 100
cast 100
▁تحد 100
▁acht 100
▁suit 100
acters 100
▁nello 100
▁richtig 100
▁schauen 100
▁większość 100
▁characters 100
nić 100
elte 100
oken 100
▁پرس 100
▁neem 100
▁shif 100
▁دختر 100
▁niesamow 100
▁equipment 100
▁funktioniert 100
▁آل 100
utie 100
▁bay 100
▁dok 100
▁hai 100
▁impr 100
▁وبعد 100
▁empty 100
▁maint 100
▁navig 100
▁poten 100
▁define 100
▁הסיפור 100
▁dealing 100
etz 100
trz 100
ואה 100
ודל 100
▁ku 100
▁gat 100
▁męż 100
▁כמעט 100
▁مجرد 100
▁alber 100
▁znale 100
▁stessi 100
▁lessons 100
▁sources 100
زال 100
هام 100
wają 100
יינו 100
▁سخت 100
▁extr 100
▁ingl 100
▁adopt 100
▁amery 100
▁dolph 100
▁fondo 100
▁ponad 100
▁vulnerable 100
ترة 100
occup 100
▁allo 100
▁amig 100
▁giov 100
▁silk 100
▁الخط 100
▁drugie 100
▁geloof 100
▁capacità 100
▁emissions 100
▁evolutionary 100
▁haus 100
▁לחלו 100
▁occhi 100
▁clever 100
▁filled 100
▁bambino 100
▁epidemic 100
wr 100
ולות 100
acing 100
▁wiem 100
▁bevor 100
▁podía 100
▁mundial 100
▁origami 100
▁sophistic 100
uu 100
▁ali 100
▁ere 100
▁מלא 100
▁guid 100
▁hadn 100
▁weak 100
▁بعضی 100
▁تحدث 100
▁البعض 100
▁الحديث 100
קל 100
cyj 100
udo 100
وكب 100
kins 100
onen 100
▁ego 100
▁vote 100
▁erinn 100
▁practical 100
aran 100
▁lies 100
▁تعداد 100
▁marine 100
▁células 100
▁viruses 100
zas 100
גיד 100
▁suf 100
▁cens 100
▁الكل 100
▁dello 100
▁oltre 100
▁ببینید 100
▁chicken 100
▁miliardi 100
▁producing 100
ران 100
علق 100
▁inn 100
▁بگو 100
aanse 100
ician 100
ograp 100
▁flies 100
▁igual 100
▁sugar 100
▁users 100
▁helpen 100
دن 100
cić 100
iczne 100
nieuw 100
▁dots 100
▁5,000 100
▁chron 100
▁estad 100
▁saved 100
▁manage 100
▁poster 100
▁string 100
▁battery 100
▁informazioni 100
▁rw 100
▁מוז 100
▁suic 100
▁wach 100
▁wohl 100
▁horse 100
▁abstract 100
▁generate 100
▁experienced 100
رخ 100
▁kno 100
▁בשי 100
▁giro 100
▁genug 100
▁belong 100
▁correl 100
▁pequeña 100
▁dinosaurs 100
▁נא 100
▁dios 100
▁rozum 100
öl 100
sum 100
▁verant 100
cé 100
سن 100
▁وف 100
▁ידע 100
aufen 100
▁crim 100
▁ride 100
▁ascol 100
▁texas 100
▁toler 100
▁جميعا 100
▁iniziato 100
▁finalmente 100
rob 100
aliz 100
▁לשי 100
▁ملا 100
elfen 100
omini 100
▁مادر 100
▁gates 100
▁possa 100
▁לעולם 100
▁creature 100
▁existence 100
iw 100
ológ 100
osen 100
▁stadt 100
▁باشیم 100
ardziej 100
▁konnten 100
▁considered 100
▁najbardziej 100
▁wetenschapp 100
itz 100
عبة 100
▁חוק 100
ienti 100
▁ford 100
▁matt 100
▁باور 100
▁ساده 100
▁erfol 100
▁essen 100
▁بیرون 100
▁techniques 100
▁wetenschap 100
▁effectively 100
סוף 100
onde 100
▁ספר 100
▁מספיק 100
▁dispon 100
▁papier 100
▁frequen 100
▁pytanie 100
▁scoperto 100
▁פה 100
▁שש 100
מנות 100
ونها 100
▁kim 100
▁cinco 100
▁announ 100
▁safety 100
▁strang 100
▁manhatt 100
▁importance 100
جال 100
▁מנס 100
▁قسم 100
itals 100
▁junt 100
▁facts 100
▁ghana 100
▁schul 100
▁stamp 100
▁sweet 100
▁inizio 100
▁المثال 100
▁struggle 100
وح 100
ytu 100
יין 100
باه 100
روب 100
▁former 100
▁iz 100
essi 100
▁התי 100
▁קוד 100
▁kons 100
▁اكثر 100
▁بناء 100
▁chain 100
▁fácil 100
▁avanti 100
▁pensato 100
welt 100
innen 100
▁gree 100
▁słys 100
▁لديه 100
▁pensate 100
▁guardate 100
▁processes 100
▁perception 100
بعض 100
▁إي 100
▁potr 100
▁ziek 100
▁lingu 100
▁reput 100
▁ridic 100
▁circumst 100
▁implement 100
▁microsoft 100
▁organized 100
▁فأ 100
▁نس 100
▁eld 100
eding 100
neath 100
▁igno 100
isches 100
▁beweg 100
▁przest 100
ologists 100
▁risposta 100
▁protection 100
▁underneath 100
▁connections 100
ará 100
▁מור 100
ivere 100
▁możecie 100
emd 100
spr 100
łoż 100
قال 100
▁rę 100
▁zwier 100
▁unters 100
▁الأخرى 100
▁valuable 100
▁possibilities 100
pan 100
לוב 100
▁אד 100
olit 100
▁oni 100
▁יצי 100
▁kier 100
▁unex 100
izioni 100
▁facing 100
▁ladies 100
▁mostra 100
▁probleme 100
spe 100
یدم 100
ścia 100
▁تكن 100
▁segur 100
▁wiemy 100
▁player 100
▁arrived 100
▁spielen 100
wej 100
ראו 100
ioso 100
tail 100
▁تسم 100
iform 100
▁mant 100
▁obes 100
stream 100
▁gdyby 100
▁uganda 100
▁players 100
شة 100
omm 100
inos 100
ufen 100
▁كام 100
▁میک 100
▁pregn 100
▁ideeën 100
▁zoveel 100
▁miejsce 100
▁relevant 100
dp 100
ضی 100
ركز 100
ostr 100
▁pog 100
▁vec 100
▁cambr 100
▁donna 100
▁ervan 100
▁fewer 100
▁goals 100
▁schwier 100
▁confront 100
▁exchange 100
ריק 100
▁فعال 100
▁marav 100
▁ogrom 100
▁قليلا 100
▁golden 100
▁تقريبا 100
atamente 100
ást 100
▁וגם 100
▁cały 100
▁בעלי 100
▁تعمل 100
▁autos 100
▁گذشته 100
▁pollen 100
▁metabol 100
isl 100
▁lon 100
▁מהי 100
▁نور 100
▁alph 100
▁graf 100
finden 100
▁wynik 100
▁الدول 100
▁encoun 100
▁skelet 100
▁الخاصة 100
▁variety 100
hin 100
łych 100
נטרנט 100
▁1970 100
▁smith 100
▁stare 100
▁segundo 100
▁voedsel 100
▁vogliamo 100
rzeć 100
▁heißt 100
▁nobel 100
▁czasie 100
▁cutting 100
▁eenvoud 100
▁telefon 100
▁consumer 100
▁esperienza 100
▁comfortable 100
▁mathematical 100
ודו 100
میم 100
acci 100
oven 100
stof 100
heits 100
▁المب 100
▁denkt 100
▁miglior 100
▁cantidad 100
▁identify 100
מט 100
لد 100
wia 100
arte 100
▁نما 100
▁شرکت 100
▁نوعا 100
▁neuen 100
▁بإمكان 100
▁gravity 100
خرج 100
راب 100
▁תי 100
▁ferm 100
▁subt 100
▁نعرف 100
▁ziemi 100
▁helfen 100
▁pienso 100
▁stimul 100
▁lugares 100
żs 100
عث 100
irt 100
íst 100
ocup 100
▁żad 100
▁مرح 100
▁qued 100
▁rene 100
▁המדי 100
▁السي 100
▁haiti 100
▁حقيقة 100
▁partes 100
▁uomini 100
▁affected 100
▁desarrol 100
▁erzählen 100
▁computing 100
▁introduce 100
▁ll 100
▁nul 100
▁لكل 100
affen 100
▁pozi 100
▁aspir 100
aca 100
یزی 100
iett 100
▁طبی 100
▁للإ 100
▁trop 100
▁aging 100
▁dzieck 100
▁explains 100
utes 100
▁سپس 100
progr 100
▁amazon 100
▁الدماغ 100
▁expected 100
▁trabajar 100
▁newspaper 100
▁percentage 100
iro 100
iber 100
▁191 100
▁קטן 100
▁שמע 100
▁sole 100
▁التع 100
▁المؤ 100
▁ideen 100
▁nächsten 100
▁relatively 100
rea 100
igde 100
موذج 100
▁סרט 100
▁שכל 100
▁ends 100
▁leps 100
▁soul 100
▁سوال 100
▁achie 100
▁frequ 100
▁higgs 100
areness 100
ationen 100
▁potere 100
▁خواهند 100
▁میتوان 100
▁consist 100
▁reaction 100
▁convinced 100
chem 100
▁המע 100
▁שנו 100
▁شنا 100
▁bibli 100
▁march 100
▁meses 100
▁union 100
▁związ 100
▁bottle 100
▁driver 100
bru 100
▁85 100
plex 100
ijden 100
istra 100
▁gain 100
cimiento 100
گو 100
upt 100
illo 100
טיקה 100
▁800 100
▁peł 100
هتمام 100
▁clip 100
▁domu 100
▁eben 100
▁fate 100
▁ultra 100
▁aspett 100
▁houses 100
▁transm 100
▁lifetime 100
▁naturally 100
▁transformation 100
cję 100
ulf 100
ële 100
▁فی 100
imeter 100
▁میتون 100
▁bł 100
הליך 100
▁cán 100
▁jij 100
▁לוק 100
▁teams 100
▁unusual 100
ارك 100
▁שפ 100
erta 100
umul 100
▁fakt 100
▁سبيل 100
▁يعرف 100
▁chaos 100
▁książ 100
▁widać 100
▁خواهیم 100
▁eastern 100
▁rzeczyw 100
▁windows 100
▁convince 100
▁graduate 100
▁manhattan 100
גו 100
רב 100
▁תנו 100
▁أرب 100
akers 100
▁każd 100
▁máqu 100
▁pink 100
▁juego 100
▁refer 100
▁takich 100
▁ultimi 100
▁carefully 100
▁לאי 100
▁stap 100
friend 100
▁atten 100
▁liebe 100
▁منظور 100
ionales 100
▁palest 100
▁picked 100
▁wireless 100
▁nou 100
▁הפי 100
▁پنج 100
abili 100
▁boek 100
▁soms 100
▁schiz 100
▁cáncer 100
▁lavorare 100
جز 100
tore 100
▁הני 100
▁hurt 100
▁sztu 100
▁التن 100
▁chocol 100
▁mannen 100
▁typically 100
▁expression 100
امی 100
łość 100
▁muzy 100
▁langs 100
▁silic 100
▁spoke 100
▁stood 100
▁לבנות 100
▁poziom 100
▁visible 100
elijkheid 100
▁represents 100
bly 100
atar 100
czen 100
down 100
gefü 100
▁doe 100
▁تکن 100
itted 100
sters 100
▁espl 100
▁estr 100
▁korea 100
▁improv 100
iba 100
áct 100
שור 100
bors 100
ריקה 100
▁uur 100
▁viet 100
▁congo 100
▁quizá 100
▁vroeg 100
▁volgens 100
▁invention 100
ey 100
ריה 100
iada 100
▁fui 100
▁jam 100
▁לתת 100
ismus 100
▁bare 100
geving 100
▁chart 100
▁לגמרי 100
▁calling 100
▁marriage 100
▁רצ 100
▁چی 100
▁שאם 100
▁وكل 100
zieli 100
▁تفعل 100
gevens 100
▁polar 100
▁scopr 100
▁forgot 100
▁unlike 100
▁الماضي 100
▁primary 100
▁technik 100
▁preoccup 100
aco 100
żyć 100
طلق 100
▁אופ 100
▁نرى 100
▁meis 100
▁טובה 100
▁اونا 100
▁credit 100
▁trillion 100
▁satellite 100
▁inher 100
▁teeth 100
▁همیشه 100
▁pomysł 100
gle 100
بية 100
isme 100
just 100
▁adm 100
▁انر 100
▁graag 100
▁النظر 100
▁części 100
▁deeper 100
▁desper 100
▁fortun 100
▁którego 100
▁periodo 100
▁exercise 100
▁hydrogen 100
▁queremos 100
▁البيانات 100
▁generally 100
hö 100
agn 100
▁רוב 100
▁خور 100
▁pill 100
itarian 100
ización 100
▁advent 100
▁environments 100
byt 100
ieu 100
اكل 100
aled 100
foot 100
▁brut 100
▁pięk 100
▁نفعل 100
▁nieuws 100
▁spelen 100
śle 100
ابات 100
▁cav 100
arono 100
▁goods 100
▁hombres 100
▁unserem 100
▁mistakes 100
▁hospitals 100
atos 100
▁חוד 100
▁לכן 100
owali 100
▁honey 100
▁jedno 100
▁komór 100
▁الأولى 100
▁bisschen 100
▁requires 100
▁efficiency 100
▁experiencia 100
atten 100
▁hice 100
▁وارد 100
▁oxford 100
▁laboratory 100
▁mej 100
واسطة 100
▁dogs 100
▁klas 100
▁pace 100
▁shel 100
▁stro 100
▁petro 100
▁fantas 100
▁inspiration 100
nę 100
aks 100
صنع 100
▁aten 100
cience 100
▁voord 100
▁świet 100
▁aunque 100
▁buying 100
▁diabet 100
▁circuit 100
▁pacific 100
▁definitely 100
▁situations 100
شي 100
غلب 100
anse 100
▁uds 100
ieran 100
ático 100
▁صورة 100
▁לשנות 100
▁جهانی 100
▁mężczy 100
▁pensando 100
▁sviluppo 100
▁naturaleza 100
tes 100
ספר 100
وقف 100
מיים 100
▁mall 100
▁wine 100
▁أقول 100
▁herum 100
▁begann 100
▁wcześnie 100
▁entscheid 100
▁radiation 100
▁حی 100
acto 100
▁הארץ 100
▁podej 100
▁theme 100
▁warto 100
▁السيا 100
▁alzheim 100
▁capture 100
▁passionate 100
ijs 100
גיל 100
ادل 100
▁اكت 100
genes 100
▁reef 100
▁root 100
▁conto 100
▁ellas 100
▁بینید 100
▁ritual 100
▁behaviors 100
▁ek 100
▁کا 100
izia 100
▁אית 100
▁سرا 100
▁mesi 100
▁dalej 100
▁gewor 100
▁welke 100
▁تبدیل 100
▁bubble 100
▁einzel 100
▁genere 100
▁height 100
▁promise 100
▁überall 100
▁diagnost 100
▁received 100
▁يف 100
legen 100
▁hits 100
▁sola 100
▁كتاب 100
▁همچنین 100
▁include 100
طلاق 100
▁ההת 100
▁أين 100
otech 100
▁hind 100
▁nuev 100
▁تقول 100
▁blijven 100
▁profond 100
▁watched 100
ארד 100
▁ję 100
ziek 100
▁بکن 100
esten 100
▁aston 100
▁بگذار 100
▁الفكرة 100
▁uiteind 100
iat 100
nel 100
نبال 100
▁بسا 100
▁كثير 100
▁assign 100
▁channel 100
arvi 100
▁عکس 100
lands 100
▁אותן 100
▁عاما 100
▁waves 100
▁כאילו 100
▁עבודה 100
▁intelig 100
▁sending 100
▁healthcare 100
▁photographs 100
▁זק 100
▁اث 100
▁geg 100
konom 100
▁المحيط 100
▁centers 100
▁ontwikk 100
▁משתמשים 100
▁properties 100
box 100
aste 100
zieh 100
▁hub 100
icted 100
iders 100
▁flie 100
▁kree 100
▁połą 100
▁tons 100
▁forced 100
▁seinen 100
▁maravill 100
▁psychology 100
غب 100
żej 100
ביבה 100
▁woj 100
▁zan 100
ietro 100
▁asks 100
▁جالب 100
▁costa 100
▁gioco 100
▁liked 100
▁secre 100
▁impuls 100
▁cameras 100
▁środowis 100
ded 100
nah 100
هور 100
▁mum 100
▁שהת 100
▁pasa 100
▁دهید 100
▁زیرا 100
▁moeder 100
▁poetry 100
▁hollywood 100
isa 100
▁בל 100
فهوم 100
▁runs 100
▁darum 100
▁sight 100
▁mirror 100
▁بواسطة 100
▁quantum 100
▁controvers 100
▁המט 100
▁رشد 100
▁hoff 100
▁tema 100
▁muslim 100
▁najwię 100
▁applied 100
▁istnieje 100
▁palabras 100
▁innovative 100
▁introduced 100
erà 100
▁לז 100
fekt 100
فاعل 100
▁avv 100
▁ley 100
▁moim 100
▁miner 100
▁pilot 100
▁كثيرا 100
▁preocup 100
▁horrible 100
▁processo 100
▁components 100
jed 100
usa 100
kind 100
▁broke 100
▁paris 100
▁blocks 100
▁critic 100
▁miejsc 100
▁germany 100
▁personally 100
ös 100
cje 100
عين 100
acia 100
gende 100
▁euch 100
▁sott 100
▁כדור 100
▁nadzie 100
▁stabil 100
▁najleps 100
.5 100
▁języ 100
gangen 100
▁atoms 100
▁storm 100
▁telep 100
▁jednym 100
▁survey 100
▁unidos 100
▁release 100
▁באמצעות 100
▁antwoord 100
▁historii 100
▁official 100
iso 100
ktor 100
ńczy 100
▁mäd 100
icing 100
▁dnia 100
▁עלינו 100
owaliśmy 100
امة 100
▁ذا 100
hold 100
omin 100
▁eeuw 100
▁unit 100
▁אתכם 100
profit 100
▁jedną 100
▁encuent 100
▁manchmal 100
▁proteins 100
▁rational 100
▁contempor 100
▁employees 100
▁وی 100
acyj 100
iasi 100
▁מעט 100
▁rode 100
▁باعث 100
illing 100
▁bauen 100
▁kreeg 100
▁quals 100
▁sapere 100
igkeiten 100
▁scienza 100
▁wspania 100
▁chimpanze 100
▁collaboration 100
azo 100
ville 100
▁nied 100
▁tecn 100
▁vive 100
▁ساعت 100
▁umano 100
اط 100
aby 100
▁יח 100
izza 100
ברות 100
▁dłu 100
▁שונה 100
iarden 100
▁court 100
▁storie 100
▁opinion 100
▁raccont 100
▁rapidly 100
▁cambridge 100
▁movements 100
zają 100
רונה 100
▁ras 100
▁כוח 100
▁נות 100
▁flag 100
▁psic 100
vangen 100
▁arten 100
▁senses 100
روس 100
ency 100
▁فرو 100
▁שלוש 100
werken 100
▁memor 100
▁vital 100
▁مجموع 100
bringen 100
▁sequen 100
▁corresp 100
▁designs 100
▁kitchen 100
▁sü 100
zech 100
ارية 100
▁kry 100
▁tale 100
▁مثلا 100
▁namen 100
▁leuten 100
▁אומרים 100
▁anticip 100
▁birthday 100
▁qualsiasi 100
▁possibilità 100
igd 100
arle 100
ליות 100
▁será 100
▁umie 100
▁التق 100
▁بهذه 100
▁candid 100
▁famiglia 100
▁location 100
גן 100
یط 100
hle 100
front 100
▁zajm 100
▁ciągu 100
▁sides 100
▁vidas 100
▁piccola 100
▁چیزهایی 100
▁southern 100
▁sophisticated 100
▁gore 100
▁heen 100
▁בואו 100
▁الأح 100
bracht 100
▁obten 100
▁rivol 100
▁upper 100
▁المال 100
▁السؤال 100
▁encoura 100
▁minutos 100
▁victims 100
▁studenti 100
▁חס 100
▁טי 100
▁يو 100
enses 100
▁gast 100
▁shad 100
▁دلار 100
▁soldi 100
▁solved 100
▁woorden 100
▁funziona 100
▁zichzelf 100
yo 100
ięcy 100
▁mim 100
▁rez 100
▁dign 100
▁proz 100
▁الأع 100
▁potraf 100
▁الجميع 100
▁replace 100
▁hersenen 100
▁educational 100
▁transportation 100
fol 100
▁ابت 100
odzie 100
▁unas 100
▁parti 100
▁schwer 100
▁muestra 100
▁cercando 100
▁diabetes 100
▁pierwsze 100
▁politicians 100
cido 100
fera 100
piej 100
▁השו 100
▁فكر 100
▁مسئ 100
entic 100
▁gere 100
▁mógł 100
▁shut 100
▁האדם 100
▁فيما 100
▁carne 100
▁agenda 100
▁midden 100
▁modello 100
▁prosper 100
ila 100
ran 100
نتج 100
نظر 100
▁bf 100
▁בחי 100
▁blau 100
▁الوح 100
▁مواد 100
▁voort 100
▁pollution 100
בט 100
bage 100
▁מול 100
▁bada 100
▁cuál 100
▁enth 100
▁nest 100
▁osób 100
▁fotos 100
▁الكون 100
▁funciona 100
▁voorbeeld 100
▁ź 100
جار 100
▁میان 100
hnlich 100
▁mogli 100
▁nieuw 100
▁popol 100
▁مشكلة 100
▁estruct 100
▁precies 100
هن 100
▁ואת 100
▁بكل 100
▁club 100
▁larg 100
▁mile 100
▁claro 100
▁delic 100
▁wspól 100
▁طراحی 100
▁camino 100
▁میلیون 100
▁selling 100
▁zobaczyć 100
▁desarrollo 100
וה 100
iec 100
راق 100
▁kü 100
▁łą 100
▁خص 100
iona 100
כלים 100
▁kup 100
▁lan 100
ولوژی 100
▁sape 100
heiten 100
▁resil 100
▁wieku 100
▁להגיע 100
▁regard 100
▁sentir 100
▁importa 100
כלה 100
hund 100
▁המא 100
▁الشب 100
▁admit 100
▁laser 100
▁الحقي 100
▁option 100
▁avrebbe 100
▁behavioral 100
▁básicamente 100
kami 100
▁فال 100
▁1000 100
▁pobl 100
▁تريد 100
▁statt 100
▁alzheimer 100
irm 100
atom 100
jemy 100
כולת 100
▁głów 100
▁false 100
▁skill 100
▁titan 100
ikaanse 100
▁existe 100
▁noemen 100
صال 100
▁رؤية 100
▁daarom 100
▁musica 100
▁znajdu 100
▁cercare 100
▁gobierno 100
ns 100
▁بق 100
esth 100
▁oly 100
inson 100
▁eric 100
▁tanz 100
▁כאלה 100
▁تاری 100
▁kultur 100
▁diverso 100
▁technological 100
ih 100
énd 100
▁fä 100
▁frü 100
▁ואי 100
▁לפע 100
▁فان 100
ומרים 100
▁dane 100
▁habr 100
▁mush 100
▁zona 100
▁sharks 100
▁chromos 100
▁industria 100
▁totalmente 100
رسی 100
عنا 100
كال 100
▁فك 100
ären 100
▁قدم 100
▁עובד 100
▁claim 100
▁risks 100
▁creato 100
▁siguiente 100
▁dut 100
▁هكذا 100
▁يريد 100
▁nacht 100
▁stava 100
▁driven 100
▁animali 100
▁progett 100
▁therapy 100
▁animales 100
▁carrying 100
▁interior 100
خي 100
wend 100
▁nem 100
▁zin 100
▁יחד 100
▁وصل 100
▁گوش 100
▁debe 100
▁gren 100
▁أصبح 100
opodob 100
▁quiere 100
▁النظام 100
▁empathy 100
▁ragione 100
▁election 100
▁milliarden 100
▁transplant 100
ویی 100
▁phr 100
▁شكل 100
▁قاد 100
▁ארבע 100
▁السب 100
ements 100
▁vagina 100
▁películ 100
▁immagini 100
דבר 100
akty 100
▁קרי 100
▁سخن 100
▁نصف 100
eremo 100
icios 100
▁eten 100
▁tony 100
estyle 100
terior 100
▁abbia 100
▁merav 100
▁muziek 100
▁recept 100
▁embargo 100
▁familia 100
▁vaccine 100
▁particolare 100
kre 100
▁نج 100
cios 100
cker 100
▁daw 100
▁ترت 100
▁دنی 100
▁gehe 100
▁homo 100
▁מתוך 100
▁تبدو 100
▁fragment 100
▁principio 100
jr 100
ilo 100
▁aż 100
ibly 100
äche 100
▁هدف 100
▁گذا 100
▁impl 100
▁zaken 100
▁forsch 100
▁philip 100
icks 100
reas 100
▁bob 100
▁מנת 100
immer 100
▁pant 100
▁sees 100
▁taste 100
▁wegen 100
▁comida 100
▁niezwy 100
▁comprom 100
▁großart 100
זם 100
ריך 100
واز 100
▁rev 100
abled 100
▁adem 100
▁wert 100
ension 100
▁kijkt 100
▁reven 100
▁tendr 100
▁howard 100
▁بالطبع 100
▁implant 100
▁ultimate 100
▁encourage 100
ogli 100
▁ucz 100
▁ولم 100
esign 100
scale 100
▁nasz 100
▁paio 100
▁علاق 100
system 100
▁devast 100
▁formas 100
▁planeet 100
▁reverse 100
▁gegevens 100
żli 100
פתח 100
▁בנ 100
▁ته 100
gele 100
stra 100
voll 100
▁gdp 100
lines 100
▁allá 100
▁dict 100
▁מתחי 100
▁curve 100
▁shame 100
▁انرژی 100
▁بیماری 100
▁feature 100
▁violent 100
▁awareness 100
▁journalist 100
rog 100
לנו 100
▁יע 100
cole 100
itte 100
صبحت 100
▁ate 100
▁کلا 100
▁wake 100
▁السا 100
▁شدند 100
▁linked 100
▁música 100
▁seinem 100
▁strand 100
▁التفكير 100
ekt 100
▁zau 100
▁exec 100
▁clase 100
▁nuove 100
▁ważne 100
▁وعندما 100
▁depends 100
▁mistake 100
▁instruct 100
▁komputer 100
▁wondering 100
▁circumstances 100
كب 100
aną 100
▁55 100
▁wus 100
▁הבא 100
▁عشر 100
▁attr 100
▁nome 100
▁אחרת 100
vision 100
▁femin 100
▁wicht 100
▁dieren 100
▁courage 100
▁maanden 100
▁silicon 100
▁hardware 100
sey 100
▁tib 100
▁زیر 100
▁خوبی 100
▁pensé 100
▁renew 100
▁برابر 100
▁member 100
اث 100
zia 100
ropy 100
wich 100
כונה 100
▁lee 100
▁agen 100
▁נשים 100
struct 100
▁notes 100
▁sechs 100
▁ماشین 100
▁neighbors 100
▁exploration 100
róż 100
بین 100
مار 100
وها 100
nitt 100
▁całe 100
▁nove 100
▁pool 100
▁والد 100
▁belle 100
▁phase 100
▁schule 100
▁الخلايا 100
حق 100
zens 100
ריים 100
▁דוג 100
▁להש 100
▁מהמ 100
▁كال 100
▁infl 100
▁obra 100
▁أنفس 100
▁breve 100
▁zetten 100
▁znaleź 100
▁vietnam 100
▁explanation 100
▁roy 100
▁כסף 100
▁دهم 100
▁عنه 100
▁clock 100
▁dobre 100
▁porta 100
▁באותו 100
▁الريا 100
▁تغيير 100
▁często 100
▁proven 100
▁penguins 100
טת 100
ępu 100
ایت 100
inta 100
▁امت 100
gence 100
▁devo 100
▁infer 100
▁liegt 100
▁nennen 100
▁szczeg 100
▁העבודה 100
▁geweest 100
▁educación 100
▁algorithms 100
▁discussion 100
▁manufacturing 100
óre 100
▁emo 100
▁أرد 100
▁biod 100
▁jung 100
▁kamp 100
▁vroe 100
▁מתכו 100
ologie 100
ondere 100
▁forza 100
▁robić 100
▁motivo 100
▁يمكنكم 100
▁anderes 100
▁bewusst 100
▁uiteindelijk 100
וסר 100
اتي 100
arme 100
▁vit 100
▁לפי 100
▁תוך 100
accia 100
alled 100
▁byłem 100
▁قانون 100
▁kobiet 100
▁respir 100
▁sagten 100
▁script 100
▁teleph 100
▁العاده 100
▁disgust 100
▁hablando 100
▁relative 100
▁increased 100
▁cambiamento 100
agę 100
iop 100
ויי 100
▁ling 100
▁ogen 100
▁betre 100
▁quell 100
▁staff 100
▁stere 100
▁تجربه 100
▁نحتاج 100
▁burning 100
▁kontrol 100
▁aprender 100
▁zrozumie 100
▁geschichten 100
gd 100
ße 100
wną 100
קור 100
▁ath 100
▁خودش 100
▁added 100
▁noche 100
▁wired 100
▁normale 100
▁conservation 100
▁gesellschaft 100
uce 100
רוע 100
فاع 100
مله 100
ieht 100
zahl 100
▁alb 100
▁obt 100
leben 100
▁klar 100
▁rząd 100
▁בטוח 100
▁diver 100
▁bedrijf 100
zm 100
▁tą 100
bild 100
▁alc 100
▁wyb 100
▁אפש 100
▁מדע 100
بيوتر 100
▁خانو 100
▁review 100
▁steven 100
▁activities 100
gno 100
هنگ 100
ورك 100
▁jum 100
▁unc 100
▁מהר 100
▁anst 100
▁bicy 100
▁tief 100
▁gesam 100
▁verke 100
▁بیشتری 100
▁protest 100
▁accurate 100
▁chiamato 100
▁prepared 100
▁historias 100
یف 100
arzy 100
ilen 100
ollar 100
▁cord 100
▁cards 100
▁horas 100
▁hunger 100
▁minuti 100
▁passato 100
▁interests 100
▁entwickelt 100
▁destruction 100
ajo 100
hlt 100
chos 100
▁והת 100
▁מים 100
▁سعی 100
▁icon 100
▁penn 100
▁الدا 100
▁السر 100
▁بدلا 100
▁brein 100
▁dokład 100
▁filter 100
▁krijgt 100
▁mädchen 100
▁seconda 100
▁רב 100
▁fen 100
▁קיי 100
▁תוכ 100
▁دوم 100
▁نیز 100
uster 100
▁sied 100
▁סביב 100
▁مجال 100
▁vuole 100
▁wykon 100
▁دنبال 100
▁متوجه 100
▁volume 100
▁controlled 100
▁meaningful 100
aupt 100
being 100
ficos 100
▁jedy 100
▁ruch 100
▁tast 100
▁محیط 100
▁نريد 100
▁בעזרת 100
▁שיכול 100
▁مدرسه 100
▁przesz 100
▁להראות 100
▁erkennen 100
▁geworden 100
▁gustaría 100
▁indietro 100
▁medicina 100
aza 100
ומת 100
طلب 100
rass 100
▁معد 100
▁2011 100
▁houd 100
▁feite 100
▁obraz 100
▁spieg 100
▁לעבוד 100
▁rocket 100
▁wunder 100
▁zmienia 100
▁bü 100
czes 100
نتاج 100
ücken 100
▁cath 100
▁kopf 100
▁sacr 100
▁anten 100
▁evalu 100
▁inject 100
▁combine 100
▁powinni 100
▁duidelijk 100
פא 100
lang 100
فكار 100
همية 100
▁toy 100
ggere 100
▁mary 100
▁refr 100
▁capit 100
▁diret 100
▁luogo 100
▁gehört 100
▁factors 100
▁الإنسان 100
▁internal 100
▁comunidad 100
izm 100
ליה 100
وبة 100
▁להח 100
▁قلب 100
▁هنگ 100
▁marc 100
▁reun 100
▁מבחי 100
▁plans 100
▁تصمیم 100
▁mismos 100
▁collapse 100
▁gentlemen 100
äu 100
odu 100
olt 100
whel 100
▁kir 100
▁صدا 100
build 100
▁تحقی 100
▁derek 100
▁línea 100
▁amigos 100
▁خواهید 100
▁defined 100
▁quarter 100
▁różnych 100
▁zaczyna 100
▁المشكلة 100
يي 100
thr 100
iliz 100
▁پشت 100
▁bono 100
▁lake 100
▁היחי 100
▁minor 100
▁zorgen 100
▁overwhel 100
▁transfer 100
جي 100
ופו 100
ابق 100
▁طب 100
▁ترى 100
▁سیا 100
▁جنوب 100
▁lucht 100
▁پروژه 100
iedenis 100
▁gebouw 100
▁regener 100
▁scratch 100
▁sentito 100
▁recorded 100
▁sociedad 100
▁ancestors 100
yth 100
جان 100
alne 100
▁champ 100
▁olymp 100
▁orbit 100
▁persu 100
ramient 100
▁falling 100
▁quieren 100
▁combination 100
▁شع 100
aven 100
what 100
▁درک 100
alten 100
▁cabe 100
▁تلاش 100
▁منهم 100
▁keeps 100
▁topic 100
▁naszej 100
▁اقتصاد 100
▁singing 100
▁interesse 100
ęb 100
▁آش 100
נסות 100
▁بلا 100
▁cock 100
▁mini 100
▁ultr 100
▁בבית 100
▁أعرف 100
▁hören 100
▁واقعی 100
icznych 100
▁משמעות 100
▁abandon 100
▁intorno 100
اع 100
lag 100
וצה 100
משי 100
▁lös 100
▁tyle 100
umenti 100
▁dagen 100
▁enkel 100
▁hijos 100
▁recyc 100
▁אמרתי 100
▁drives 100
▁maakte 100
▁namens 100
▁funding 100
80 100
ضة 100
ähr 100
▁ופ 100
▁تيد 100
▁bull 100
▁hide 100
▁zoom 100
making 100
▁beide 100
kolwiek 100
▁بسیاری 100
▁afterno 100
▁amounts 100
וגי 100
ieni 100
agers 100
▁pied 100
▁stehen 100
▁cooking 100
▁piccoli 100
▁publiek 100
▁occurred 100
▁encounter 100
▁collection 100
▁herramient 100
▁fundamentally 100
أل 100
ترك 100
anth 100
keys 100
▁lov 100
▁bios 100
czucie 100
▁mózgu 100
▁rozwiąz 100
▁besonders 100
مم 100
סיה 100
▁هند 100
▁ello 100
▁leuk 100
▁الحك 100
▁نفسه 100
▁strip 100
▁سرطان 100
▁pulled 100
▁existen 100
▁trovato 100
▁geweldig 100
cope 100
▁הרי 100
▁gebä 100
▁nikt 100
▁próx 100
▁tank 100
▁دریا 100
▁زبان 100
▁هزار 100
▁globe 100
▁لديها 100
▁cancro 100
▁remain 100
▁spider 100
▁deshalb 100
▁soorten 100
▁paradigm 100
ביא 100
▁là 100
נטים 100
▁cio 100
▁oké 100
▁gelu 100
▁split 100
▁worlds 100
▁consult 100
▁defense 100
▁mercato 100
▁opnieuw 100
▁podrían 100
▁surgeon 100
▁infected 100
▁mondiale 100
▁informationen 100
ír 100
نون 100
ويل 100
armi 100
itas 100
uper 100
well 100
▁מבו 100
▁שמי 100
▁gosp 100
▁josh 100
▁tsun 100
▁zami 100
▁الجز 100
▁ought 100
▁signs 100
▁formed 100
▁indien 100
▁outcome 100
▁sunlight 100
▁właściwie 100
▁kb 100
ched 100
elas 100
rost 100
▁بسر 100
▁کلی 100
▁2002 100
▁kong 100
▁stel 100
▁gusta 100
▁reale 100
▁stell 100
rachten 100
▁rápido 100
▁storyt 100
▁geboren 100
▁religions 100
▁spiritual 100
▁literature 100
wis 100
בנה 100
خته 100
▁mama 100
▁teor 100
ternal 100
▁scott 100
▁גדולה 100
▁שאנשים 100
▁framework 100
▁أث 100
▁گی 100
▁wah 100
▁שמו 100
▁بیا 100
iture 100
▁escr 100
▁razy 100
▁toll 100
▁vort 100
▁costo 100
▁moore 100
▁flowers 100
▁glamour 100
▁mettere 100
▁manifest 100
▁verändern 100
▁participate 100
▁پد 100
lagen 100
reven 100
▁gray 100
▁يجعل 100
▁אוקיי 100
▁العلم 100
▁نهاية 100
▁negoti 100
▁records 100
▁dramatic 100
▁נש 100
enso 100
▁rum 100
עילות 100
▁lage 100
▁modi 100
▁stun 100
▁tape 100
▁vond 100
▁kamen 100
▁deaths 100
▁genius 100
▁zeiden 100
▁treating 100
▁authority 100
▁cominciato 100
si 100
گفت 100
cola 100
roph 100
stel 100
▁קרו 100
▁بند 100
▁puoi 100
▁כיום 100
isters 100
▁roads 100
▁toxic 100
▁وبالت 100
▁nuevas 100
▁simplic 100
▁technique 100
zar 100
זרה 100
ياس 100
mber 100
خصوص 100
▁niej 100
▁tack 100
▁ترون 100
nienia 100
▁crick 100
▁opowi 100
▁שנקרא 100
▁propag 100
▁largely 100
▁verhalen 100
דן 100
fft 100
▁תש 100
▁آف 100
ירות 100
يران 100
schap 100
טיפול 100
▁permet 100
▁seguir 100
▁mechanical 100
حظة 100
صاب 100
یدی 100
▁kro 100
enken 100
views 100
▁część 100
▁testa 100
▁اعتقد 100
▁عملية 100
▁operate 100
▁diventare 100
▁embarrass 100
▁economists 100
▁presentation 100
alo 100
▁هز 100
erto 100
▁صنع 100
▁عدة 100
▁cres 100
▁geval 100
▁نداشت 100
▁recurs 100
▁المكان 100
▁closely 100
▁najwięks 100
▁economist 100
▁هی 100
▁خبر 100
nisse 100
▁dorm 100
▁gulf 100
▁jose 100
▁netz 100
▁assol 100
▁masch 100
▁quadr 100
▁patiën 100
▁sample 100
▁tratar 100
▁habitat 100
▁appropriate 100
ברו 100
טית 100
رده 100
فضل 100
▁pá 100
▁حض 100
enni 100
▁reh 100
▁eggs 100
▁głow 100
▁małe 100
▁oben 100
▁sets 100
▁السن 100
▁czyli 100
▁embed 100
▁infant 100
▁każdego 100
▁mushroom 100
▁rispetto 100
▁التكنولوجيا 100
כך 100
קרו 100
رسة 100
ille 100
▁reb 100
alian 100
▁aufg 100
▁glad 100
▁używ 100
▁تقری 100
▁wider 100
▁dropped 100
▁atención 100
▁infinite 100
▁vehicles 100
▁trabajando 100
▁unexpected 100
היו 100
▁يخ 100
▁cot 100
▁imá 100
▁قلت 100
▁zbyt 100
▁membr 100
▁length 100
▁newton 100
▁począt 100
ographer 100
▁finance 100
▁architects 100
▁electronic 100
▁cd 100
▁zde 100
▁متش 100
ieniu 100
▁sint 100
▁حياة 100
▁napis 100
▁regel 100
▁hoping 100
▁perciò 100
▁neurolog 100
▁geographic 100
▁philosophy 100
قيق 100
icia 100
▁نزد 100
▁aggi 100
▁bike 100
▁irre 100
▁sale 100
▁מאות 100
▁درون 100
▁roots 100
▁shell 100
▁تصویر 100
▁gender 100
▁reached 100
▁الصغيرة 100
▁gebeuren 100
▁wondered 100
▁increíble 100
▁traveling 100
▁physically 100
usi 100
واج 100
▁فت 100
zept 100
▁appr 100
▁mogl 100
▁pair 100
▁distur 100
▁últimos 100
▁somewhat 100
▁33 100
▁فض 100
agna 100
greg 100
▁haw 100
▁לפת 100
▁שמש 100
▁stos 100
▁uczy 100
▁ontmo 100
▁shark 100
▁catast 100
▁demasi 100
▁bereits 100
▁copyright 100
▁erreichen 100
▁applications 100
uck 100
حاء 100
jący 100
▁ההי 100
▁ניס 100
▁auss 100
▁duur 100
▁ears 100
▁trig 100
▁determin 100
▁لب 100
▁لش 100
▁توس 100
▁estás 100
▁liver 100
▁whist 100
▁الامر 100
▁debería 100
▁público 100
▁imágenes 100
ikt 100
▁يس 100
▁שמא 100
▁לדעת 100
▁doubt 100
▁jedna 100
▁میکنم 100
▁halten 100
▁afternoon 100
▁incredibile 100
zzi 100
عنی 100
لاح 100
▁dy 100
▁آر 100
▁raw 100
▁إست 100
▁احد 100
▁ينب 100
▁sytu 100
▁zbud 100
▁جيدة 100
▁bronx 100
▁datab 100
▁künst 100
▁الأمور 100
▁benutzen 100
▁instinct 100
▁struttura 100
▁differenza 100
▁potentially 100
حص 100
bas 100
זון 100
كتب 100
وجب 100
amma 100
ingt 100
izin 100
remos 100
zeich 100
▁جوان 100
▁passen 100
▁decline 100
▁parallel 100
▁wcześniej 100
▁productive 100
▁أر 100
▁زي 100
▁نخ 100
pher 100
wohl 100
dollar 100
▁henry 100
▁الصين 100
▁vertra 100
▁הולכים 100
▁parking 100
▁tonight 100
▁protected 100
▁selection 100
▁diferencia 100
ady 100
שימה 100
▁sty 100
▁byli 100
▁fake 100
▁ipod 100
▁jane 100
▁thin 100
▁بحيث 100
▁طبيع 100
▁antar 100
▁brian 100
▁cuest 100
▁ללמוד 100
hundert 100
▁beiden 100
▁boring 100
▁equipo 100
▁modelo 100
▁russia 100
▁salute 100
▁contrast 100
▁memories 100
▁migliaia 100
زند 100
▁بس 100
▁وش 100
iable 100
ساسية 100
ettere 100
▁maxim 100
▁acting 100
▁overal 100
▁permit 100
▁poprze 100
▁teilen 100
▁vooral 100
▁clothes 100
▁remains 100
connected 100
▁subjects 100
▁footprint 100
נע 100
izio 100
illas 100
▁feit 100
▁joke 100
▁milk 100
▁decre 100
▁grate 100
▁morte 100
▁verte 100
▁prawda 100
▁occasion 100
aki 100
zcz 100
ظمة 100
▁rb 100
wczy 100
aming 100
▁adop 100
▁limb 100
▁ללכת 100
▁deden 100
▁הבעיה 100
▁andrew 100
▁gospod 100
▁stelle 100
▁theore 100
▁governo 100
cano 100
سيقى 100
ينات 100
▁והי 100
▁מתי 100
▁بان 100
ching 100
▁wort 100
סטוריה 100
▁lengu 100
▁dovuto 100
▁obecnie 100
▁publicz 100
▁messages 100
▁functions 100
▁challenging 100
▁מעל 100
▁janu 100
▁plek 100
▁القص 100
adoras 100
▁alien 100
▁matem 100
▁مقابل 100
▁każdym 100
▁musste 100
▁parado 100
▁chiesto 100
▁frankly 100
▁wherever 100
▁entertainment 100
bai 100
óry 100
مسة 100
nger 100
part 100
▁זוכ 100
▁ages 100
▁gott 100
▁guar 100
▁brook 100
▁desaf 100
▁llama 100
▁ascolt 100
▁monkey 100
▁florida 100
▁younger 100
▁existing 100
▁instruments 100
▁verschiedene 100
iev 100
فية 100
▁קר 100
iore 100
▁שבע 100
▁שהמ 100
▁پیچ 100
▁geïn 100
▁powie 100
▁german 100
▁hätten 100
▁federal 100
▁pensamos 100
orto 100
ählt 100
טיבי 100
סתכל 100
▁مبا 100
atico 100
iveau 100
▁głos 100
▁خوان 100
▁dirig 100
▁plate 100
▁reson 100
▁השנים 100
▁faccio 100
▁ostatn 100
▁rechts 100
▁sozial 100
▁energii 100
▁engaged 100
▁disposit 100
▁features 100
▁released 100
בא 100
▁cic 100
▁odw 100
jeron 100
▁apro 100
▁mózg 100
▁till 100
father 100
▁chocolate 100
هل 100
łym 100
بور 100
ucin 100
▁اید 100
▁fals 100
▁hulp 100
▁آورد 100
▁avanz 100
▁końcu 100
▁lista 100
▁dialog 100
▁económ 100
▁humana 100
▁dancing 100
▁diagram 100
▁fondament 100
▁podríamos 100
▁mt 100
▁כנ 100
hour 100
שינו 100
▁صنا 100
▁entf 100
▁depth 100
▁figli 100
▁numer 100
▁بينما 100
▁جامعه 100
▁fisher 100
▁machte 100
▁sprzed 100
▁affront 100
▁manipul 100
▁microbes 100
▁qualunque 100
ترل 100
kcji 100
orse 100
▁bele 100
▁وذلك 100
▁rooms 100
▁وهناك 100
▁portra 100
cription 100
▁conferen 100
▁manieren 100
▁identific 100
▁greenhouse 100
ulo 100
▁حالة 100
▁شركة 100
▁ayuda 100
▁descr 100
▁exped 100
▁państ 100
▁spont 100
▁القرن 100
▁ساخته 100
▁bakter 100
▁creëren 100
rad 100
تين 100
ilit 100
שיתי 100
▁سنت 100
▁مدى 100
ieten 100
▁imit 100
▁lets 100
▁piac 100
▁pref 100
▁رائع 100
▁sanit 100
▁advice 100
▁llamada 100
▁tracking 100
▁resistance 100
▁investigación 100
قص 100
año 100
▁قل 100
ikes 100
▁athe 100
▁busy 100
▁leon 100
▁یعنی 100
▁boxes 100
▁uitge 100
▁expans 100
▁slides 100
▁mejores 100
▁combined 100
▁digitale 100
▁transformed 100
▁شی 100
llig 100
otti 100
ובות 100
▁تمر 100
▁قصة 100
▁oude 100
inction 100
▁vivere 100
▁chirurg 100
▁rzeczywisto 100
▁geschiedenis 100
ئی 100
har 100
גרים 100
▁furn 100
▁noem 100
▁label 100
▁writer 100
▁dachten 100
▁الإنترنت 100
▁standards 100
▁jeż 100
▁לסי 100
ownik 100
▁clay 100
▁mate 100
▁العم 100
▁کمتر 100
▁dicen 100
▁pharm 100
▁الصور 100
▁dostęp 100
▁gelukk 100
▁الطريق 100
▁stronger 100
▁المستقبل 100
▁component 100
חן 100
نف 100
200 100
ike 100
iner 100
orde 100
▁عدم 100
onald 100
ureau 100
▁heet 100
▁actions 100
▁conclus 100
▁centuries 100
▁reference 100
ím 100
ersi 100
ופים 100
▁ink 100
▁rio 100
▁bath 100
▁sinn 100
▁בעיה 100
▁נמצא 100
▁cento 100
▁تقریبا 100
▁monkeys 100
▁przekon 100
▁determine 100
▁conclusion 100
▁entrepreneur 100
xide 100
▁océ 100
▁התע 100
▁להר 100
▁מרו 100
▁بنفس 100
▁جواب 100
istics 100
▁darin 100
▁esatt 100
▁pyram 100
▁steht 100
niejsze 100
▁embrace 100
▁concrete 100
▁measured 100
▁pequeños 100
▁prawdopodob 100
▁technologii 100
yd 100
לון 100
▁ib 100
▁רג 100
woluc 100
▁jail 100
▁całym 100
▁ernst 100
▁الشمس 100
▁preced 100
▁fingers 100
▁komplex 100
▁unknown 100
▁احتمالا 100
▁confidence 100
▁rappresent 100
öff 100
▁أنك 100
▁حما 100
▁cave 100
▁konk 100
▁rent 100
▁seed 100
issimo 100
▁cents 100
▁lying 100
▁bilder 100
▁saturn 100
▁teoria 100
▁estudiantes 100
eto 100
isi 100
ایش 100
طية 100
▁lux 100
▁ذهن 100
▁nose 100
▁wcią 100
▁المل 100
▁intim 100
▁טובים 100
▁handle 100
▁pozost 100
▁rozwij 100
▁sposob 100
▁verbre 100
aneously 100
▁accompl 100
▁earthqu 100
▁empezar 100
▁implications 100
ابد 100
▁پذ 100
▁پاس 100
▁amor 100
▁rush 100
▁להצי 100
▁derde 100
▁siglo 100
▁wpływ 100
▁پایین 100
▁legisl 100
▁medida 100
▁rwanda 100
▁vanuit 100
▁מיליארד 100
▁villages 100
▁explained 100
▁esattamente 100
עיל 100
onic 100
▁jac 100
▁łat 100
▁بهم 100
▁życiu 100
▁مقدار 100
cciones 100
▁arriba 100
▁clouds 100
▁contar 100
▁regions 100
▁tsunami 100
▁milionów 100
▁continued 100
▁kilometer 100
اتی 100
agon 100
וצאה 100
▁והמ 100
▁معت 100
▁lecz 100
▁rose 100
▁زنان 100
▁alsof 100
▁amici 100
▁stack 100
▁robotic 100
▁comunque 100
▁contamin 100
▁illusion 100
▁exactamente 100
דל 100
▁عد 100
rich 100
▁jes 100
▁בכך 100
▁خطر 100
licht 100
▁benj 100
▁opow 100
▁climb 100
▁السبب 100
▁classic 100
▁council 100
▁extinct 100
▁housing 100
▁stephen 100
▁economia 100
▁29 100
▁יל 100
ints 100
kant 100
گیری 100
▁הלי 100
▁מהא 100
▁resc 100
▁sage 100
▁sobą 100
▁فیلم 100
▁להפוך 100
▁sensor 100
▁szybko 100
▁badania 100
▁estudio 100
▁intense 100
▁islands 100
▁widzicie 100
▁telescope 100
גת 100
ודי 100
ורק 100
owana 100
▁nick 100
▁کنار 100
▁empie 100
▁gerne 100
▁grain 100
▁immun 100
▁insul 100
▁output 100
▁options 100
▁overall 100
▁solving 100
▁concepts 100
▁grateful 100
▁required 100
▁superior 100
isy 100
ريكا 100
▁beob 100
▁thum 100
▁ينبغي 100
▁gruppe 100
▁wystar 100
▁airport 100
▁fishing 100
▁presente 100
شاء 100
hler 100
▁ooh 100
▁wyt 100
▁chce 100
▁cree 100
▁fern 100
▁apare 100
▁buona 100
▁veter 100
▁virtu 100
▁acuerdo 100
▁figures 100
▁التعليم 100
cam 100
óch 100
immt 100
plan 100
▁sze 100
▁ומת 100
▁audio 100
▁dilem 100
▁grond 100
▁nazyw 100
▁rozpo 100
▁songs 100
▁spost 100
▁veren 100
▁versu 100
▁درمان 100
▁chiama 100
▁clinic 100
▁fright 100
▁gefühl 100
▁sphere 100
▁أستطيع 100
▁einzige 100
▁evening 100
▁resulta 100
▁تکنولوژی 100
▁terrorism 100
קן 100
בתי 100
▁רע 100
▁wiz 100
usias 100
▁kern 100
▁tant 100
▁לספר 100
▁נכנס 100
erebbe 100
▁cable 100
glichen 100
▁escuch 100
▁verspre 100
هي 100
ייד 100
sein 100
▁ani 100
itors 100
▁2050 100
▁acts 100
▁arqu 100
▁fizy 100
▁tube 100
▁éste 100
▁ادام 100
ibyśmy 100
▁actor 100
▁bemer 100
▁pasar 100
▁pueda 100
▁thick 100
▁انگیز 100
▁anonym 100
▁naszym 100
▁wydaje 100
▁illegal 100
▁poprzez 100
▁swimming 100
▁dimension 100
llt 100
מתי 100
aire 100
▁והא 100
▁קרה 100
▁منكم 100
▁گونه 100
acular 100
▁dwóch 100
▁rhyth 100
▁style 100
▁vertr 100
▁puzzle 100
▁relate 100
▁concert 100
▁المجتمع 100
▁baseball 100
erem 100
כולם 100
▁350 100
▁מנה 100
▁שיה 100
accio 100
ależy 100
iałem 100
▁ober 100
▁seks 100
▁لحظه 100
▁jedem 100
▁kraju 100
▁therm 100
▁الرئي 100
▁eerder 100
▁eradic 100
▁wszech 100
▁último 100
▁الأمري 100
▁توانند 100
▁aggress 100
▁wiadomo 100
▁economía 100
▁presence 100
▁biodivers 100
▁prototype 100
▁attenzione 100
allo 100
מנים 100
▁wes 100
▁bond 100
▁doel 100
▁talib 100
▁bedoel 100
▁facial 100
▁bestaat 100
▁mystery 100
▁stworzyć 100
▁processing 100
سد 100
▁37 100
agne 100
acion 100
rogen 100
▁catal 100
▁oxyto 100
▁przes 100
▁כולנו 100
▁severe 100
▁stands 100
▁consequ 100
▁خانواده 100
▁straordin 100
ייקט 100
▁במח 100
aceut 100
esome 100
▁abra 100
▁seis 100
▁summ 100
▁الكم 100
▁وبال 100
▁title 100
▁שלושה 100
▁ادامه 100
▁الماء 100
▁dicono 100
▁volevo 100
▁לחלוטין 100
▁imparare 100
▁unglaublich 100
▁unternehmen 100
▁naturalmente 100
ries 100
علام 100
▁gor 100
▁mapp 100
▁sean 100
▁شگفت 100
▁wings 100
▁مستوى 100
▁microbi 100
▁unclear 100
▁underwater 100
-19 100
emi 100
imet 100
wość 100
רצות 100
▁כלל 100
▁توی 100
▁صرف 100
پیوتر 100
▁loud 100
▁ساله 100
▁השאלה 100
iciones 100
▁50,000 100
▁divide 100
▁excell 100
▁frente 100
▁rivers 100
▁toilet 100
▁oportunidad 100
جن 100
iaj 100
▁فق 100
רופה 100
▁bau 100
▁beb 100
▁klin 100
▁prue 100
▁pupp 100
▁fract 100
▁mojej 100
▁preso 100
▁افتاد 100
▁pocket 100
▁remove 100
▁neither 100
▁crescita 100
קשר 100
ينا 100
unku 100
▁dust 100
▁vivo 100
▁לדוג 100
▁bones 100
▁dress 100
▁usual 100
▁valor 100
▁میکنه 100
▁deploy 100
▁dispar 100
▁impres 100
▁tenían 100
▁mercado 100
ואר 100
ابی 100
▁שצ 100
ivas 100
oust 100
جهزة 100
▁iba 100
▁ilo 100
▁tér 100
▁utr 100
▁تقل 100
▁aire 100
▁desk 100
▁بالإ 100
▁بیمار 100
▁causing 100
▁lifestyle 100
▁appreciate 100
نها 100
▁ade 100
▁איש 100
▁מני 100
▁بحا 100
opher 100
▁flip 100
▁musi 100
▁עצמי 100
▁معنا 100
▁מדהים 100
▁ayudar 100
▁france 100
▁promot 100
▁careful 100
▁recording 100
▁interactive 100
vv 100
uso 100
óst 100
▁خي 100
▁sms 100
▁aper 100
▁axis 100
▁abajo 100
▁dozen 100
▁posib 100
▁przej 100
▁soviet 100
▁tricks 100
▁الممكن 100
imientos 100
▁reinvent 100
▁romantic 100
▁meravigli 100
▁narrative 100
▁möglichkeit 100
oce 100
▁מכם 100
▁مخت 100
child 100
comes 100
▁aand 100
▁retr 100
▁taal 100
▁taus 100
▁abund 100
▁truck 100
quality 100
▁kształ 100
▁proport 100
▁dovremmo 100
▁measuring 100
▁statement 100
כני 100
وست 100
▁وظ 100
kańs 100
▁cia 100
▁jue 100
▁mcd 100
▁dish 100
▁راست 100
▁común 100
▁ethiop 100
▁papers 100
▁braucht 100
▁curiosity 100
▁disorders 100
שם 100
kan 100
ופר 100
לול 100
امت 100
loed 100
oint 100
▁10- 100
▁jew 100
▁spel 100
▁uitd 100
▁zatem 100
▁besten 100
▁degrad 100
▁sucede 100
▁stunden 100
abilities 100
▁migliori 100
▁onderwijs 100
▁conventional 100
▁sustainability 100
athan 100
▁aria 100
▁רבות 100
nością 100
▁bombs 100
▁eruit 100
▁queen 100
▁capita 100
▁estrem 100
▁latest 100
▁pronto 100
▁zastan 100
▁equally 100
▁hicimos 100
▁vertical 100
▁providing 100
▁astonishing 100
▁distributed 100
fi 100
awi 100
عدة 100
▁cup 100
▁צעי 100
punkt 100
▁נעשה 100
▁קודם 100
▁موسی 100
▁نکرد 100
▁krebs 100
▁massa 100
▁שינוי 100
▁repair 100
▁secolo 100
▁المزيد 100
▁awesome 100
▁johnson 100
▁miejsca 100
▁będziemy 100
▁disorder 100
▁transmit 100
▁innerhalb 100
acc 100
ensa 100
irse 100
orous 100
▁لازم 100
▁aplic 100
▁atrás 100
▁evolve 100
▁להתחיל 100
▁domande 100
▁أفريقيا 100
▁football 100
▁verstand 100
▁społeczeńst 100
dze 100
▁וד 100
igur 100
imon 100
سبوع 100
▁ske 100
▁duiz 100
▁dwie 100
▁perc 100
▁wash 100
▁chose 100
▁20,000 100
▁recono 100
▁attacks 100
▁dzisiaj 100
▁theorie 100
▁authentic 100
▁preguntas 100
רוק 100
▁אג 100
▁بپ 100
apor 100
عاية 100
▁klu 100
▁مدت 100
mlich 100
zicht 100
▁soff 100
▁wist 100
▁אמרו 100
▁route 100
▁score 100
▁חושבת 100
▁کنترل 100
▁oploss 100
▁inspire 100
▁medizin 100
▁vessels 100
▁dovrebbe 100
▁verloren 100
▁sensitive 100
▁jahrhundert 100
▁dni 100
▁nit 100
▁opp 100
▁جال 100
▁مار 100
▁cina 100
▁ולכן 100
▁نكون 100
▁genoc 100
▁خواست 100
gestellt 100
▁treffen 100
נוך 100
znie 100
▁joe 100
▁moo 100
▁پسر 100
▁paso 100
▁bangl 100
▁والآن 100
▁orange 100
▁آمریکا 100
▁بهترین 100
▁bestimm 100
▁اجتماعی 100
▁attività 100
▁equation 100
▁کامپیوتر 100
▁controllo 100
▁irgendwie 100
zel 100
זים 100
thal 100
ساسا 100
▁déc 100
kommt 100
▁metà 100
▁ergeb 100
▁repor 100
▁بكثير 100
▁ستكون 100
▁scared 100
▁staten 100
▁identical 100
▁opportunità 100
▁interestingly 100
כר 100
עד 100
ذب 100
hai 100
كات 100
ودی 100
ässt 100
▁קול 100
▁corn 100
▁sabe 100
▁scel 100
▁sopr 100
▁conce 100
▁dopam 100
▁esist 100
▁firma 100
▁القاد 100
▁ندارد 100
▁entsch 100
▁siendo 100
▁algorithm 100
▁exploring 100
זל 100
hnt 100
äre 100
▁vö 100
▁شر 100
midd 100
ליון 100
iking 100
▁hook 100
▁nets 100
▁bible 100
▁bizar 100
▁vivir 100
▁שונות 100
▁button 100
▁czegoś 100
▁lincol 100
▁prices 100
▁render 100
▁guardare 100
▁potremmo 100
▁simplicity 100
▁ub 100
▁קל 100
geme 100
wand 100
endet 100
▁ojos 100
▁rete 100
▁النو 100
▁امید 100
▁دادم 100
▁نسبت 100
▁kevin 100
▁logic 100
▁scher 100
▁assume 100
▁obesity 100
▁وبالتالي 100
rà 100
فاء 100
▁sca 100
ników 100
▁plug 100
▁carta 100
▁equil 100
▁fried 100
▁myśli 100
▁charity 100
▁collected 100
▁laboratori 100
oco 100
בלתי 100
▁نگه 100
ziale 100
▁digo 100
▁الأما 100
▁llevar 100
▁studie 100
▁מעניין 100
▁breathe 100
▁classes 100
▁instant 100
▁scritto 100
▁paintings 100
lyn 100
ndr 100
▁kä 100
▁usc 100
▁wzi 100
▁בתי 100
▁تقد 100
uther 100
▁dług 100
▁mail 100
▁faced 100
▁horen 100
▁różne 100
▁stało 100
▁المرض 100
▁gemein 100
▁whales 100
לומר 100
▁fed 100
▁ogn 100
annte 100
arter 100
culos 100
▁luft 100
▁ansch 100
▁latin 100
▁spotk 100
▁heroes 100
ialmente 100
▁economie 100
▁obsessed 100
▁republic 100
בק 100
aja 100
mel 100
פוס 100
جاب 100
وائ 100
▁הו 100
▁gon 100
änger 100
▁führ 100
▁tipi 100
▁עצמו 100
▁shake 100
▁stron 100
▁vormen 100
▁silence 100
▁theoret 100
ariamente 100
▁interven 100
▁increment 100
בוע 100
انم 100
تهم 100
▁dź 100
▁ár 100
שובה 100
▁משו 100
▁قاب 100
acles 100
▁bese 100
▁flew 100
▁gand 100
▁vede 100
▁חדשה 100
▁بعدی 100
acción 100
▁revel 100
▁daniel 100
▁prawie 100
▁suffer 100
▁מקבלים 100
ließlich 100
▁happier 100
▁riguard 100
▁magnetic 100
▁sandwich 100
▁connecting 100
فی 100
jas 100
pox 100
شري 100
▁خد 100
itti 100
▁meg 100
▁tus 100
▁محل 100
▁استط 100
▁الأد 100
▁justo 100
▁woord 100
▁feeding 100
▁outcomes 100
▁printing 100
▁partnership 100
ئن 100
שיג 100
ثیر 100
▁oj 100
▁نک 100
pery 100
▁dil 100
▁تعل 100
וצאות 100
▁diep 100
▁flug 100
▁bezig 100
▁blogs 100
▁trova 100
▁نمایش 100
▁הילדים 100
▁domestic 100
▁importanti 100
▁popolazione 100
ctic 100
▁ile 100
▁jazz 100
▁palm 100
▁zwyk 100
▁רעיון 100
▁owners 100
▁umwelt 100
▁fiction 100
▁performing 100
zeń 100
emia 100
غيير 100
▁ارزش 100
▁haupt 100
▁plays 100
▁verst 100
ruzione 100
▁attrib 100
▁sachen 100
▁kobiety 100
▁luister 100
▁academic 100
▁struktur 100
▁banglades 100
▁celebrate 100
▁christmas 100
▁ضد 100
▁عق 100
häng 100
wach 100
▁fox 100
▁بهش 100
▁رود 100
▁cash 100
▁لهذه 100
▁chief 100
▁parla 100
▁conosc 100
▁murder 100
▁scienzi 100
▁increases 100
▁directions 100
يق 100
▁מן 100
łada 100
▁fys 100
▁החד 100
opard 100
▁decy 100
▁edad 100
▁skup 100
▁عنها 100
▁nuovi 100
▁chcemy 100
▁mojego 100
▁możesz 100
▁obwohl 100
▁balloon 100
▁centrum 100
▁pensiamo 100
otechnolog 100
▁arquitect 100
▁población 100
▁entwickeln 100
▁productivity 100
erò 100
داء 100
▁pm 100
▁vs 100
▁אק 100
culo 100
into 100
▁fid 100
igung 100
▁angi 100
▁crea 100
▁pale 100
▁peer 100
▁אוכל 100
▁المط 100
called 100
▁weigh 100
▁immune 100
▁nombre 100
▁robust 100
▁portare 100
▁rebuild 100
▁wyobraź 100
▁meetings 100
▁możliwości 100
ęg 100
▁כח 100
poca 100
▁kab 100
▁szk 100
▁ככל 100
uting 100
▁nano 100
▁seti 100
▁תהיה 100
▁چقدر 100
▁escal 100
▁norte 100
▁nulla 100
▁thema 100
▁חדשות 100
▁بحاجة 100
▁quizás 100
▁trends 100
▁ongeloof 100
▁capacidad 100
▁microscop 100
פע 100
غر 100
ket 100
feld 100
▁abu 100
▁بزن 100
▁trot 100
▁aktiv 100
▁disag 100
▁shock 100
▁המידע 100
▁עליהם 100
▁phrase 100
▁seguro 100
▁triang 100
▁combust 100
▁economies 100
ár 100
bei 100
جاه 100
▁blu 100
▁bum 100
▁wyp 100
▁قائ 100
atsch 100
wierd 100
▁volv 100
▁أخبر 100
▁اللا 100
▁تغير 100
itudes 100
mittel 100
▁miser 100
▁vater 100
▁gebied 100
▁borders 100
يام 100
▁שר 100
otte 100
erson 100
etzen 100
grund 100
ática 100
▁hawa 100
▁poza 100
▁uncom 100
▁vader 100
▁חשבתי 100
▁النساء 100
▁collaps 100
▁همانطور 100
▁bepaalde 100
▁necesita 100
▁occident 100
▁ottenere 100
▁precisely 100
▁psychological 100
▁verschiedenen 100
سك 100
▁تك 100
haus 100
▁کنی 100
haupt 100
▁aang 100
▁biol 100
▁draa 100
▁feyn 100
▁glac 100
▁herz 100
▁inqu 100
▁القا 100
▁cuore 100
▁stavo 100
▁umana 100
▁zupeł 100
▁أنواع 100
▁jesteś 100
▁kwamen 100
▁realiz 100
▁tamaño 100
▁widzimy 100
▁raggiung 100
▁permanent 100
▁seguridad 100
▁sorprendente 100
▁קו 100
ieri 100
▁تعد 100
alize 100
lobal 100
▁fout 100
▁item 100
▁طریق 100
▁grows 100
▁incon 100
▁mitad 100
▁تصميم 100
▁کسانی 100
uciones 100
▁garage 100
▁nelson 100
▁الأكثر 100
▁izquier 100
▁samples 100
▁embedded 100
▁orchestra 100
▁automatically 100
ליח 100
▁عج 100
▁seb 100
▁خلق 100
▁صوت 100
iging 100
▁beer 100
▁דקות 100
umines 100
▁advoc 100
▁flood 100
▁kanker 100
▁modell 100
▁potuto 100
▁surely 100
▁volunt 100
▁lincoln 100
▁nowhere 100
▁benjamin 100
▁motivation 100
▁vorstellen 100
fun 100
uda 100
ترض 100
enas 100
ächt 100
▁disk 100
▁sele 100
▁sier 100
▁zatr 100
▁satur 100
▁suppl 100
▁هستید 100
▁cabeza 100
▁jeżeli 100
▁oceaan 100
▁parola 100
▁spoken 100
▁swoich 100
▁existed 100
▁recuper 100
▁consumers 100
▁physicist 100
óc 100
وغ 100
zet 100
äus 100
اطر 100
▁pitt 100
▁präs 100
▁pump 100
▁رسید 100
▁pitch 100
▁למעלה 100
▁نزدیک 100
جتماعية 100
▁agreed 100
▁begint 100
▁genial 100
▁lovely 100
▁gemeins 100
▁naszego 100
▁omgeving 100
ائج 100
کنون 100
▁unt 100
istro 100
▁colt 100
▁fung 100
▁bezpie 100
▁fuerza 100
▁mister 100
▁توانست 100
▁einigen 100
▁zamiast 100
▁condivid 100
▁patienten 100
nier 100
▁rus 100
▁tek 100
▁جور 100
▁نبا 100
assem 100
▁dien 100
▁איזה 100
▁הגיע 100
▁أليس 100
▁لمدة 100
essero 100
▁einde 100
▁بسرعة 100
▁lepiej 100
▁succes 100
▁ultimo 100
▁ambient 100
▁neander 100
▁sprache 100
▁erhalten 100
łon 100
▁0. 100
▁pc 100
▁éx 100
عتبر 100
▁jur 100
ingly 100
▁pacj 100
▁rail 100
▁רואה 100
▁angry 100
▁ersta 100
▁shang 100
▁walks 100
▁archit 100
▁charla 100
▁narrow 100
▁regres 100
▁stellt 100
▁vicino 100
▁carried 100
▁arrivare 100
▁plaatsen 100
▁vrienden 100
▁incentives 100
▁menschlichen 100
ża 100
▁+ 100
جين 100
سين 100
قلت 100
igte 100
▁חשמ 100
▁למד 100
▁چشم 100
▁מיני 100
▁شاهد 100
▁utter 100
▁yield 100
▁habían 100
▁morgen 100
▁narzęd 100
▁regime 100
▁poorest 100
▁elephant 100
▁application 100
▁conversations 100
blo 100
ibe 100
روی 100
▁dv 100
stüt 100
▁הבר 100
eland 100
▁stom 100
▁بطور 100
▁قسمت 100
▁papel 100
▁الرجل 100
▁autism 100
▁eltern 100
▁enable 100
▁esiste 100
▁موسیقی 100
lichkeit 100
▁aspetto 100
▁gleiche 100
▁kleiner 100
▁palabra 100
▁sensors 100
▁demasiado 100
גני 100
דמה 100
راج 100
راك 100
رون 100
רבות 100
שבים 100
▁vale 100
▁جهاز 100
▁چنین 100
gelijk 100
▁arist 100
▁primi 100
▁bewust 100
▁מדברים 100
▁crucial 100
▁sistemi 100
▁stworzy 100
▁district 100
▁improvis 100
▁mosquito 100
▁questione 100
▁١ 100
izi 100
leb 100
خصص 100
▁يؤ 100
cina 100
תיות 100
رانی 100
▁المق 100
▁dijeron 100
▁kindern 100
▁floating 100
▁pregnant 100
▁przypadku 100
▁reduction 100
▁synthetic 100
mie 100
ولي 100
gram 100
▁כוכ 100
▁متح 100
zeniu 100
▁buff 100
▁deut 100
▁knee 100
▁wing 100
▁zało 100
▁עומד 100
▁تخيل 100
zonder 100
▁spons 100
▁thuis 100
▁לגרום 100
industr 100
▁latach 100
▁stayed 100
▁islamic 100
▁kingdom 100
▁verwenden 100
▁movimiento 100
▁innovations 100
rów 100
omes 100
oord 100
שיים 100
▁hir 100
▁poś 100
▁היי 100
▁שהא 100
think 100
▁plac 100
▁różn 100
▁saud 100
▁وعلى 100
▁delhi 100
▁fruit 100
▁messo 100
▁swoją 100
▁العلا 100
▁وهكذا 100
▁sweden 100
▁download 100
▁drinking 100
▁earthquake 100
wing 100
▁hond 100
▁städ 100
▁משנה 100
▁حاضر 100
▁kraft 100
▁ocurr 100
▁powst 100
▁wciąż 100
▁אחרות 100
▁elabor 100
▁tested 100
▁במיוחד 100
▁الخارج 100
▁centina 100
▁liberal 100
▁nämlich 100
▁pushing 100
▁sistemas 100
▁presented 100
▁spreading 100
▁engagement 100
wał 100
ماد 100
arli 100
fica 100
iled 100
äten 100
stage 100
▁2020 100
▁fred 100
▁mike 100
urance 100
▁refle 100
▁devono 100
▁farmer 100
▁norden 100
▁persön 100
▁divided 100
▁człowiek 100
▁distingu 100
▁pomiędzy 100
▁shoulder 100
▁situazione 100
הים 100
thur 100
بعاد 100
▁keu 100
▁ومع 100
liono 100
zeugen 100
▁beden 100
▁المسا 100
▁anatom 100
▁offers 100
▁propia 100
▁valore 100
▁chapter 100
▁feynman 100
▁vogliono 100
éc 100
סות 100
ihad 100
ليات 100
▁gaf 100
▁mud 100
ölker 100
▁עליה 100
▁paras 100
▁الدرا 100
▁گرفتم 100
▁season 100
▁tratando 100
▁sculpture 100
sah 100
▁wk 100
aint 100
vorm 100
واجه 100
▁zim 100
כונות 100
▁mode 100
▁הברי 100
▁leeft 100
▁مشابه 100
igheden 100
through 100
▁padres 100
▁zmienić 100
▁contains 100
▁gebeurde 100
▁relación 100
▁commitment 100
sa 100
ראים 100
שיות 100
▁jou 100
▁prev 100
▁نشون 100
▁verfü 100
▁مفهوم 100
▁ekonom 100
▁otrzym 100
▁sbagli 100
▁volver 100
▁verbess 100
▁materiał 100
▁compartir 100
▁volunteers 100
داع 100
صيل 100
▁anx 100
▁קלי 100
▁افز 100
▁کجا 100
itory 100
▁cass 100
▁cioè 100
▁sket 100
▁אוהב 100
▁آنرا 100
▁معنی 100
▁craft 100
▁recib 100
▁scala 100
▁skept 100
▁słuch 100
▁مدينة 100
▁ciento 100
▁heaven 100
▁joined 100
▁painful 100
▁riconos 100
▁programa 100
▁depending 100
▁potrebbero 100
לוי 100
▁pf 100
▁ss 100
ammo 100
▁jet 100
▁żyw 100
▁فضا 100
קשורת 100
▁ours 100
▁rela 100
▁surg 100
▁zain 100
▁النف 100
▁درجة 100
▁fixed 100
▁publik 100
▁reject 100
▁sicure 100
▁constra 100
▁zupełnie 100
▁surrounded 100
عون 100
omag 100
weit 100
▁رنگ 100
▁فرص 100
▁مرض 100
▁dear 100
▁wody 100
▁בעיות 100
▁הסיבה 100
▁תמונה 100
▁riusci 100
▁section 100
▁welcome 100
▁distinct 100
▁maintain 100
▁secondly 100
▁transparency 100
▁vulnerability 100
צח 100
ודת 100
פחה 100
جابة 100
ليون 100
▁lig 100
▁عصب 100
▁للع 100
możli 100
worth 100
▁mani 100
mitted 100
▁famos 100
▁geest 100
▁pracht 100
▁wygląd 100
idamente 100
ilidades 100
▁paradox 100
▁przeciw 100
▁wollten 100
▁wprowad 100
▁współpr 100
nią 100
▁lag 100
▁عاد 100
ساعدة 100
▁ener 100
▁سرعت 100
▁مشاه 100
global 100
▁dense 100
▁forte 100
▁jonge 100
▁larry 100
▁دنیای 100
▁10.000 100
▁bureau 100
▁rozwią 100
▁electro 100
▁william 100
▁involves 100
▁verschil 100
סם 100
ظن 100
adr 100
geh 100
عاب 100
یتی 100
▁mm 100
śleć 100
نوان 100
▁192 100
▁alf 100
▁שבא 100
arian 100
wania 100
▁lens 100
▁writ 100
▁filos 100
▁المنط 100
▁protoc 100
▁اتفاقی 100
▁desider 100
▁asteroid 100
▁democrat 100
▁ervaring 100
▁telescop 100
▁gemeenschap 100
▁jó 100
יתנו 100
▁orb 100
▁پرد 100
ziała 100
▁bold 100
▁envi 100
▁تحصل 100
▁پاسخ 100
phones 100
▁enemy 100
▁spell 100
▁tiend 100
▁tygod 100
aterial 100
richten 100
▁escala 100
▁propio 100
▁tenido 100
▁influen 100
▁sentire 100
▁provides 100
▁uncertain 100
▁optimistic 100
dad 100
هاي 100
case 100
wnym 100
▁ack 100
▁وهم 100
▁busc 100
▁chol 100
▁cięż 100
▁huid 100
▁מראה 100
liches 100
▁cielo 100
▁stück 100
▁unbel 100
▁أصبحت 100
▁całkow 100
▁county 100
▁danych 100
▁anthrop 100
▁segunda 100
zustellen 100
▁quantità 100
▁furniture 100
▁translate 100
bud 100
حال 100
غاز 100
یره 100
anym 100
iday 100
▁ילד 100
▁بدم 100
▁בתור 100
▁מעור 100
▁المف 100
▁رفتم 100
escent 100
ologia 100
▁میخوا 100
▁rising 100
▁strony 100
▁suicide 100
▁الحيوانات 100
▁governance 100
▁populations 100
ctu 100
fre 100
rzy 100
▁eén 100
▁ממו 100
▁أحب 100
▁برخ 100
▁کاف 100
▁naam 100
▁sund 100
▁נפלא 100
iseren 100
▁klima 100
▁obiett 100
▁چیزهای 100
▁przestr 100
▁breaking 100
▁volledig 100
▁risultato 100
טב 100
ahn 100
ghi 100
łum 100
טרו 100
▁صن 100
ywat 100
▁spa 100
▁וזו 100
▁أود 100
▁aside 100
▁laden 100
▁letzt 100
▁práct 100
▁sales 100
▁youth 100
▁رفتار 100
▁efecto 100
utamente 100
▁bicycle 100
▁incontr 100
▁oxytocin 100
▁particle 100
▁symptoms 100
▁zrozumieć 100
-4 100
uct 100
▁دف 100
bren 100
haft 100
טיים 100
▁caf 100
▁בשם 100
class 100
estos 100
▁cham 100
▁enfr 100
▁tuve 100
▁اصلی 100
▁ذهبت 100
▁corso 100
▁daher 100
▁hemis 100
▁pizza 100
▁sieci 100
▁subur 100
▁البحث 100
▁adjust 100
▁limits 100
▁strumenti 100
▁31 100
vlak 100
▁mañ 100
▁nin 100
נהגות 100
▁lego 100
▁sque 100
▁הטבע 100
▁تصبح 100
▁dzień 100
▁hello 100
▁parli 100
▁الرائ 100
▁damals 100
▁offered 100
▁takiego 100
▁philanth 100
▁christian 100
▁inspiring 100
▁photography 100
ië 100
▁خی 100
▁rub 100
▁vest 100
▁زیاد 100
▁bitte 100
▁cardi 100
▁opens 100
▁رائعة 100
▁dietro 100
▁nessun 100
▁recomm 100
▁sports 100
▁znaleźć 100
▁elektron 100
▁imparato 100
▁properly 100
▁stations 100
כתי 100
avor 100
▁שנות 100
ophren 100
▁chest 100
▁kamer 100
▁linea 100
▁overl 100
▁extent 100
▁perpet 100
▁simult 100
▁עובדים 100
▁forests 100
▁schizophren 100
ąt 100
gie 100
▁lg 100
aars 100
kens 100
ربون 100
▁mri 100
icken 100
istor 100
ounid 100
▁eres 100
▁mite 100
▁sess 100
▁يحصل 100
▁avrei 100
▁halen 100
▁rende 100
▁santa 100
▁חדשים 100
▁miałem 100
▁powers 100
ualmente 100
▁distant 100
▁savings 100
▁الماضية 100
▁breathing 100
▁suficiente 100
حب 100
ظار 100
▁سف 100
▁zip 100
▁spar 100
▁ברור 100
▁dirty 100
▁niego 100
▁robią 100
▁tower 100
▁bezieh 100
▁entend 100
▁killer 100
▁semana 100
▁saranno 100
▁reaching 100
fur 100
oen 100
wed 100
ído 100
صدر 100
▁abr 100
▁jaw 100
▁מוק 100
▁اهم 100
burgh 100
teren 100
נרגיה 100
▁راجع 100
▁anger 100
▁sheep 100
▁urząd 100
▁במהלך 100
▁البدا 100
erweise 100
ycznych 100
▁agency 100
▁behave 100
▁comple 100
▁crimin 100
▁senior 100
▁voelen 100
▁worker 100
▁fortune 100
▁portato 100
▁touched 100
▁parlando 100
▁unterstüt 100
▁virtually 100
▁überhaupt 100
▁dramatically 100
ax 100
pat 100
äng 100
חלט 100
دار 100
▁למו 100
oring 100
מינים 100
▁inny 100
▁zoek 100
▁ביחד 100
▁חייב 100
▁زیست 100
▁colleg 100
▁emerge 100
▁facile 100
▁התחלתי 100
▁avevamo 100
▁gebäude 100
▁ciudades 100
▁recovery 100
tać 100
خفض 100
erei 100
mart 100
force 100
▁chef 100
▁hast 100
▁lied 100
▁pint 100
▁היכן 100
▁سریع 100
denken 100
orient 100
▁dagli 100
▁éxito 100
▁extend 100
▁poison 100
▁produz 100
▁refuge 100
▁całkiem 100
▁harvest 100
▁muscles 100
▁stoppen 100
▁allowing 100
▁lighting 100
▁tecnologie 100
cí 100
סו 100
وث 100
כיר 100
deel 100
▁rin 100
▁למש 100
tiamo 100
using 100
venes 100
▁drew 100
▁emph 100
▁zent 100
▁emple 100
▁unico 100
▁única 100
▁گذاشت 100
▁smooth 100
▁دستگاه 100
▁dioxide 100
▁wanting 100
▁التصميم 100
▁versucht 100
▁tú 100
▁سع 100
kton 100
baren 100
▁1998 100
▁خصوص 100
▁رابط 100
▁زنده 100
▁dźwię 100
▁whale 100
▁دانشگاه 100
▁política 100
▁recognition 100
pla 100
נוע 100
ريك 100
▁لج 100
▁dvd 100
▁età 100
▁sod 100
▁ככה 100
▁esqu 100
▁ايضا 100
▁aange 100
▁إعادة 100
▁sprawd 100
▁ziekte 100
▁חודשים 100
▁letting 100
▁grandfather 100
cyd 100
▁jh 100
▁جو 100
ובדה 100
צוני 100
▁امر 100
onnen 100
▁olie 100
▁الحل 100
▁demás 100
▁koran 100
▁middel 100
▁última 100
▁אנרגיה 100
▁diction 100
▁granted 100
conscious 100
▁africans 100
▁symmetry 100
▁elsewhere 100
▁settimana 100
▁ضع 100
▁مک 100
pack 100
▁tea 100
▁alco 100
▁temp 100
▁zehn 100
▁clint 100
▁tasks 100
▁المهم 100
▁هزینه 100
▁mañana 100
▁struck 100
▁verzam 100
▁wright 100
▁yorker 100
▁debemos 100
▁density 100
▁uniform 100
▁incident 100
▁resultado 100
▁controlling 100
דק 100
بلغ 100
▁öl 100
▁tuo 100
▁fulf 100
market 100
▁hause 100
▁jelly 100
▁rocks 100
▁tries 100
▁gewalt 100
▁pubblic 100
▁destroyed 100
▁impression 100
غط 100
cla 100
אשר 100
بيب 100
airs 100
atte 100
hlte 100
odes 100
▁biz 100
▁למח 100
▁لدى 100
ética 100
▁bass 100
▁butt 100
▁rome 100
▁وليس 100
arbeit 100
▁flash 100
▁inclu 100
▁שימוש 100
▁leiden 100
▁neural 100
▁beelden 100
▁distint 100
▁rainfor 100
▁الاقتصاد 100
▁dokładnie 100
▁regierung 100
▁crecimiento 100
jaś 100
אנו 100
וצר 100
half 100
icer 100
▁ולמ 100
ellos 100
while 100
▁conj 100
▁desc 100
▁جيدا 100
▁نخوا 100
▁legit 100
▁posti 100
▁samym 100
▁seeds 100
▁único 100
▁übers 100
▁invers 100
▁männer 100
▁volete 100
▁watson 100
▁license 100
▁taliban 100
ספ 100
▁46 100
▁72 100
▁لع 100
ifen 100
zung 100
▁aim 100
▁ببر 100
▁حدي 100
żenie 100
▁fand 100
▁יהיו 100
▁أعني 100
▁dicht 100
▁grave 100
▁القصة 100
▁linear 100
▁placed 100
▁prosth 100
▁abraham 100
▁consume 100
▁herself 100
▁unbeliev 100
▁demonstrate 100
iad 100
rix 100
ידי 100
حرك 100
ظيم 100
▁ضخ 100
▁وض 100
▁chop 100
▁الأل 100
▁زندگ 100
▁judge 100
▁sacco 100
▁الإست 100
schnitt 100
▁comune 100
▁kommun 100
▁znaczy 100
▁الفضاء 100
▁boundaries 100
▁universidad 100
▁neuroscience 100
זיק 100
asto 100
houd 100
ikel 100
▁pfl 100
▁جزي 100
owała 100
▁zwar 100
▁مطال 100
▁escape 100
▁joshua 100
▁człowie 100
▁interag 100
▁tragedy 100
entlichen 100
▁conflicts 100
▁movimento 100
dig 100
זיה 100
▁42 100
▁إد 100
atta 100
رایط 100
▁cen 100
▁tes 100
▁ברח 100
▁peso 100
▁החלק 100
▁ואנו 100
▁chips 100
▁efekt 100
▁istot 100
▁minus 100
▁moich 100
▁nadal 100
▁tarde 100
iveness 100
▁plenty 100
▁regret 100
▁opposed 100
▁المدرسة 100
▁سخنرانی 100
▁genitori 100
▁corporate 100
ريس 100
▁puls 100
▁מעבר 100
▁الحم 100
▁معرفة 100
▁intuit 100
▁ändern 100
▁חייבים 100
▁الثلاث 100
▁beliefs 100
▁diventa 100
▁nächste 100
▁الجديدة 100
▁arguments 100
▁practices 100
▁principal 100
▁afterwards 100
bul 100
ادث 100
هما 100
mail 100
zaam 100
קרים 100
▁الظ 100
▁درس 100
▁طفل 100
ivano 100
▁grip 100
▁lont 100
▁שעות 100
▁مشار 100
▁نعلم 100
▁يصبح 100
▁يعيش 100
▁mieli 100
▁frozen 100
▁oorlog 100
▁secure 100
▁wzrost 100
▁المواد 100
▁میکنند 100
▁propria 100
▁überras 100
▁diciendo 100
▁responsabil 100
ئك 100
▁3. 100
▁bip 100
▁לשם 100
▁نقل 100
▁שאין 100
▁نظرت 100
▁نفسي 100
▁abuse 100
▁getan 100
▁parec 100
▁scary 100
▁الحرب 100
▁شرایط 100
▁capito 100
▁commod 100
▁appeared 100
▁morality 100
▁provided 100
▁shanghai 100
gal 100
gia 100
▁eh 100
itie 100
▁متر 100
▁blan 100
▁nimi 100
▁okre 100
▁pour 100
▁vite 100
▁śred 100
▁בשנה 100
▁fisch 100
▁jones 100
▁marsh 100
▁rozwo 100
▁מבינים 100
▁appears 100
▁moesten 100
▁الطبيعة 100
▁criminal 100
▁estimate 100
▁باستخدام 100
▁sicurezza 100
zte 100
ساسي 100
▁193 100
▁إلا 100
▁مذه 100
▁berg 100
▁dado 100
▁herm 100
▁pile 100
▁seek 100
▁spęd 100
▁legacy 100
▁يستخدم 100
izations 100
▁aspects 100
▁entered 100
▁january 100
▁utilizz 100
▁aircraft 100
▁gospodar 100
▁refriger 100
▁accidents 100
▁wszystkim 100
▁estadounid 100
▁przeprowad 100
او 100
ció 100
אתי 100
▁תפ 100
reef 100
äume 100
וחים 100
▁190 100
attle 100
▁bald 100
▁ocur 100
▁taka 100
▁fifth 100
▁uwagę 100
▁anfang 100
▁entram 100
▁hearts 100
▁instru 100
▁pagina 100
▁retire 100
▁پیشرفت 100
▁jóvenes 100
▁zobaczy 100
▁emergency 100
▁represented 100
ęt 100
کو 100
uum 100
רוא 100
سيا 100
طرح 100
▁zg 100
عامل 100
▁rek 100
▁sek 100
▁ترا 100
▁وحت 100
archy 100
▁bouw 100
▁cous 100
▁disp 100
▁obie 100
▁אמרה 100
▁بعمل 100
▁blank 100
▁spots 100
▁الصحي 100
▁عبارة 100
▁august 100
▁deciso 100
▁mainly 100
▁paraly 100
▁propor 100
▁provoc 100
▁simile 100
▁stanza 100
▁erstaun 100
▁máquina 100
▁persist 100
▁apparently 100
▁industries 100
▁microscope 100
▁personality 100
עור 100
▁התא 100
▁aard 100
▁bero 100
▁eduk 100
▁mied 100
▁الرق 100
ionali 100
rokken 100
▁basso 100
▁fluid 100
▁zabaw 100
▁manual 100
▁delight 100
▁fenomen 100
▁achieved 100
▁nadzieję 100
▁advertising 100
fu 100
בן 100
chr 100
łop 100
ובים 100
رارة 100
▁pit 100
▁מוס 100
▁حجم 100
▁خلا 100
state 100
▁1999 100
▁acab 100
▁appe 100
▁cara 100
▁laut 100
▁quit 100
▁segn 100
▁sink 100
▁stir 100
▁cliff 100
▁اکنون 100
▁تحتاج 100
▁وكانت 100
▁powodu 100
▁wilden 100
▁alcohol 100
▁nachdem 100
▁pozwala 100
▁gleichen 100
▁następnie 100
bek 100
وله 100
ومی 100
מוקר 100
▁ממה 100
▁haya 100
▁برخی 100
▁guide 100
▁paura 100
▁מעולם 100
▁flower 100
▁muerte 100
▁يمكنني 100
▁corazón 100
▁sopravv 100
▁vooruit 100
▁الثانية 100
▁attached 100
▁imagined 100
▁konferen 100
▁sciences 100
▁schreiben 100
▁telephone 100
hu 100
اذ 100
agd 100
ייס 100
פיה 100
▁אש 100
▁130 100
▁ain 100
▁dib 100
▁rug 100
▁hamb 100
▁melt 100
▁فران 100
▁angle 100
▁dejar 100
▁koszt 100
▁smoke 100
▁أنحاء 100
▁الجزء 100
istenza 100
▁gratis 100
▁bizarre 100
▁energet 100
▁mandela 100
▁backwards 100
▁chimpanzees 100
▁agricultural 100
كه 100
וחר 100
auso 100
מריק 100
▁hug 100
▁tie 100
ierto 100
▁blis 100
▁labs 100
▁ésta 100
▁למשל 100
▁باشم 100
atisch 100
▁chcie 100
▁units 100
▁śmier 100
gelopen 100
▁border 100
▁länder 100
▁native 100
▁repeat 100
▁داشتند 100
▁gezicht 100
▁muslims 100
▁overcome 100
▁inevitable 100
akte 100
▁suk 100
▁כלי 100
▁روب 100
agger 100
ision 100
▁המון 100
▁מגיע 100
▁amate 100
▁behal 100
▁الضوء 100
▁دقیقا 100
▁cheese 100
▁puedan 100
▁terren 100
▁gelukkig 100
▁chciałbym 100
▁amerikaanse 100
nek 100
ושר 100
ollo 100
לחמה 100
▁לאח 100
▁מוג 100
▁چيز 100
▁alte 100
▁nazy 100
▁عادة 100
uchten 100
▁crops 100
▁habla 100
▁skull 100
▁tante 100
▁להגיד 100
▁expres 100
▁joseph 100
changing 100
▁finanzi 100
▁infatti 100
▁lecture 100
▁verhalten 100
▁טכנולוגיה 100
טל 100
bod 100
pal 100
שמע 100
رنا 100
طاء 100
يري 100
erse 100
ساطة 100
▁להו 100
▁بشه 100
lungs 100
recht 100
▁ممكن 100
éramos 100
▁kaart 100
▁purch 100
▁الصوت 100
▁الكهر 100
▁ممکنه 100
▁bereit 100
▁formal 100
▁hardly 100
▁overle 100
▁rodzin 100
genommen 100
▁antibiot 100
▁película 100
▁sinistra 100
łud 100
חתי 100
ونة 100
ände 100
לינו 100
▁syl 100
energ 100
volle 100
רופות 100
▁acid 100
▁foods 100
▁guten 100
▁maszy 100
▁paral 100
▁pobre 100
▁tanti 100
▁árbol 100
▁במקרה 100
▁السنة 100
▁همراه 100
iseerde 100
▁colony 100
▁waarde 100
▁دریافت 100
▁cheaper 100
▁pratica 100
▁האחרונות 100
▁bedrijven 100
▁verändert 100
▁exhibition 100
leo 100
סיק 100
enze 100
kcie 100
▁amy 100
▁במע 100
▁התק 100
liest 100
ucion 100
▁caps 100
▁enem 100
▁hora 100
▁mete 100
▁mice 100
▁בפני 100
▁משום 100
▁سؤال 100
▁coinc 100
▁metaf 100
▁proof 100
▁sinds 100
▁تاريخ 100
▁slaver 100
▁תמונות 100
▁receive 100
▁depressed 100
▁variation 100
▁belangrijkste 100
לל 100
rac 100
▁xx 100
▁اق 100
▁apo 100
ricul 100
wegen 100
▁colp 100
▁בכלל 100
▁בעוד 100
▁חברת 100
▁بلند 100
▁فعله 100
▁febru 100
▁maest 100
▁tired 100
pervlak 100
▁además 100
▁editor 100
▁empecé 100
▁erklär 100
▁export 100
▁führen 100
▁silent 100
▁تستخدم 100
stelling 100
▁conness 100
▁grenzen 100
▁passing 100
▁schlecht 100
▁szczegól 100
▁accessible 100
▁disappeared 100
כז 100
▁ceo 100
▁نسم 100
opath 100
▁eher 100
▁إليه 100
▁براى 100
▁نوشت 100
▁למרות 100
▁مشروع 100
▁lehrer 100
▁rodzaj 100
▁stable 100
▁سازمان 100
▁geloven 100
▁flexible 100
▁elections 100
▁nauczycie 100
▁cooperation 100
bc 100
sk 100
كنت 100
▁מנ 100
gląd 100
town 100
▁cum 100
▁kie 100
▁رجل 100
▁معل 100
ujący 100
▁tang 100
▁wund 100
▁איפה 100
▁מדבר 100
▁שהיו 100
▁أبدا 100
▁سواء 100
fläche 100
ividad 100
▁drawn 100
▁sicht 100
▁yours 100
▁اونجا 100
▁بگویم 100
▁میکند 100
▁concep 100
▁raccon 100
▁weapon 100
▁מאיתנו 100
▁aristot 100
▁giovani 100
▁traject 100
▁voordat 100
▁מתחילים 100
▁רעיונות 100
▁surfaces 100
▁electronics 100
▁internation 100
▁spectacular 100
اپ 100
▁۳ 100
nąć 100
حلة 100
▁idi 100
▁ممت 100
third 100
▁الطب 100
▁نکته 100
▁هرگز 100
▁4,000 100
▁cuánt 100
▁neben 100
▁trotz 100
▁دقیقه 100
▁fallen 100
▁vostri 100
▁jednego 100
▁memoria 100
▁suspect 100
▁darkness 100
▁contribute 100
جو 100
נון 100
bouw 100
ietà 100
ängt 100
▁grü 100
▁אצל 100
▁מכן 100
▁mare 100
▁toss 100
▁עצמם 100
▁هفته 100
ábamos 100
▁drove 100
▁elder 100
▁salir 100
▁tipos 100
otherap 100
▁estate 100
▁oldest 100
peryment 100
▁cricket 100
▁filosof 100
▁privacy 100
▁prodotto 100
▁enfermedad 100
▁herausford 100
▁experimental 100
ברתי 100
قائق 100
▁ibm 100
▁نگر 100
▁bied 100
▁devi 100
▁druk 100
▁frei 100
▁june 100
▁nerd 100
iziert 100
▁cryst 100
▁kopen 100
▁unten 100
forward 100
▁almeno 100
▁medios 100
▁charlie 100
▁dignity 100
▁risultati 100
ريت 100
▁48 100
▁תת 100
eles 100
▁cul 100
▁هاي 100
iance 100
ائنات 100
▁bege 100
▁fool 100
▁mooi 100
▁אינו 100
▁מתחת 100
▁שאלה 100
▁grace 100
▁lopen 100
▁unica 100
▁שניתן 100
▁الغذا 100
▁دادیم 100
▁falsch 100
▁innego 100
▁predat 100
▁sieben 100
▁prozess 100
▁recente 100
▁dziewczy 100
▁biolumines 100
▁informazione 100
kać 100
עין 100
▁kh 100
▁שוא 100
▁שזו 100
▁اضا 100
oline 100
yendo 100
▁niew 100
▁otto 100
▁شناس 100
▁fears 100
▁fuels 100
▁impos 100
▁junge 100
▁الموا 100
▁لأنها 100
▁میکرد 100
▁zoeken 100
▁pyramid 100
▁smallpox 100
▁dedicated 100
▁collecting 100
▁eksperyment 100
▁temperatura 100
▁uh 100
zentr 100
▁klaar 100
▁כלומר 100
▁קטנים 100
▁fronte 100
▁vorher 100
▁indones 100
▁neutral 100
▁obtener 100
▁المدينة 100
▁المشاكل 100
▁malattie 100
▁describes 100
▁adolescent 100
▁menschliche 100
▁verandering 100
▁enfermedades 100
uut 100
ague 100
prim 100
▁jar 100
▁ترس 100
▁عائ 100
▁كند 100
nahme 100
▁irak 100
▁الأش 100
▁لكنه 100
ología 100
▁geist 100
▁jakby 100
▁nerve 100
▁phant 100
▁regen 100
▁swoim 100
▁הייתם 100
omagnet 100
▁arriva 100
▁dessen 100
schaften 100
▁ludziom 100
▁raising 100
▁dominant 100
▁facility 100
▁includes 100
▁siquiera 100
▁continues 100
▁historical 100
▁improvement 100
pas 100
rió 100
سام 100
لية 100
czaj 100
miss 100
ücke 100
▁moz 100
▁nov 100
▁מין 100
▁تلف 100
▁طرح 100
gging 100
▁mett 100
▁pione 100
▁serio 100
▁دعونا 100
möglich 100
owanych 100
▁kennis 100
▁percep 100
▁ultras 100
▁clinton 100
▁qualità 100
▁wheelch 100
▁animation 100
▁calculate 100
▁expectations 100
pak 100
قطة 100
ennt 100
▁cud 100
▁gaz 100
▁pav 100
▁העצ 100
abeth 100
yczny 100
▁aust 100
▁kart 100
▁نهای 100
aktion 100
▁entra 100
▁illus 100
▁lleva 100
▁metri 100
▁oblig 100
▁ricev 100
▁tonen 100
▁nuevos 100
▁efforts 100
▁afgelopen 100
▁improvvis 100
▁contemporary 100
oo 100
מס 100
مع 100
zig 100
orsa 100
rieb 100
▁leap 100
▁slim 100
▁گیری 100
engine 100
▁banks 100
▁lässt 100
▁misur 100
▁توسعه 100
▁fahren 100
▁langer 100
▁pomyśl 100
▁بعنوان 100
entemente 100
▁schrijven 100
▁functional 100
▁informacji 100
▁powinniśmy 100
▁presidente 100
▁treatments 100
▁assolutamente 100
شرات 100
power 100
▁etap 100
▁jaką 100
▁wych 100
▁اتاق 100
▁كنيم 100
▁مشتر 100
▁flour 100
▁naked 100
▁دانید 100
itution 100
▁juiste 100
▁zmiany 100
▁تعرفون 100
▁contrad 100
▁speakers 100
▁virginia 100
▁solamente 100
▁tedglobal 100
▁ecosystems 100
▁restaurants 100
▁transparent 100
śc 100
urd 100
aben 100
ifer 100
▁ميل 100
itial 100
▁logo 100
▁گوید 100
▁mirar 100
▁tight 100
▁libros 100
▁niveau 100
▁rispos 100
▁vaccin 100
▁מתכוון 100
▁możliwe 100
▁zwierzę 100
▁controls 100
▁dolphins 100
▁dynamics 100
▁organize 100
▁integrated 100
▁underground 100
גור 100
שאר 100
ولد 100
▁איי 100
▁עצמ 100
▁רצי 100
▁مرگ 100
going 100
night 100
▁rely 100
▁tren 100
▁بالك 100
ziałem 100
▁długo 100
▁helic 100
▁manos 100
▁sabes 100
▁البلد 100
▁barrel 100
▁daarna 100
▁gedrag 100
▁maggio 100
▁גדולים 100
▁leonardo 100
▁traveled 100
enschappen 100
▁colleague 100
-20 100
bew 100
toe 100
cale 100
pled 100
▁מאז 100
▁1900 100
▁bend 100
▁dick 100
ślałem 100
▁canad 100
▁coach 100
▁stark 100
▁wyjaś 100
▁30,000 100
▁bringt 100
▁circul 100
▁obserw 100
▁został 100
▁amongst 100
▁methods 100
▁engaging 100
▁pazienti 100
▁recognized 100
bez 100
opy 100
רכז 100
وال 100
▁rok 100
▁برق 100
▁سان 100
▁alas 100
▁bind 100
▁gods 100
▁traf 100
▁השלי 100
▁נוסף 100
▁اننا 100
▁براي 100
▁واضح 100
▁award 100
▁invit 100
▁jesus 100
▁metod 100
▁sembr 100
▁terap 100
▁ויותר 100
▁gespro 100
▁jednej 100
▁letzte 100
▁visión 100
▁dziecko 100
▁miejscu 100
▁pequeñas 100
▁fortunately 100
▁ingredients 100
pf 100
يده 100
▁رخ 100
▁لس 100
olic 100
שיבה 100
يتها 100
▁oze 100
▁בתח 100
ifice 100
tanto 100
▁bian 100
▁pues 100
▁agent 100
▁passo 100
▁אמיתי 100
▁לנסות 100
▁adding 100
▁ignore 100
▁pomocą 100
▁sicuro 100
▁signed 100
▁thrown 100
▁ingenie 100
▁percept 100
▁publish 100
▁stewart 100
▁globally 100
▁shooting 100
▁privilege 100
▁interacting 100
▁architectural 100
kü 100
ził 100
czny 100
▁بله 100
▁رسم 100
▁سري 100
▁toma 100
▁złoż 100
▁הפרו 100
urende 100
▁gründ 100
▁yemen 100
▁عليهم 100
▁biznes 100
▁cellen 100
▁hungry 100
▁intero 100
▁jewish 100
▁juntos 100
▁الرجال 100
▁الكبيرة 100
▁aandacht 100
▁guarante 100
▁hallucin 100
▁sociales 100
▁searching 100
▁situación 100
▁entwicklung 100
شن 100
500 100
يته 100
▁וק 100
▁كي 100
appy 100
ięks 100
kere 100
וחות 100
משיך 100
שרים 100
▁האמ 100
▁ובע 100
▁كون 100
▁bars 100
▁detr 100
▁קטנה 100
enness 100
▁filmm 100
▁inten 100
▁voorsp 100
▁wochen 100
▁נמצאים 100
▁ninguna 100
▁synchron 100
ctr 100
בלו 100
arze 100
road 100
▁ene 100
▁wip 100
ogram 100
▁geef 100
▁opis 100
▁swój 100
▁פולי 100
▁وإذا 100
crimin 100
נתונים 100
▁afect 100
▁amore 100
▁peric 100
▁relax 100
▁cultiv 100
▁fühlen 100
▁menudo 100
▁mittel 100
▁shakes 100
▁האחרון 100
ichtlich 100
▁sensory 100
▁اینترنت 100
▁gedanken 100
▁produces 100
▁pacientes 100
▁fascinated 100
rik 100
רחב 100
agos 100
tych 100
ווים 100
▁mue 100
▁הסת 100
▁جون 100
level 100
wnych 100
▁triv 100
▁החלט 100
▁كلما 100
▁dzied 100
▁quart 100
▁antigu 100
▁jungen 100
▁sticks 100
▁swojej 100
▁cientos 100
▁exposed 100
▁laptops 100
▁rodzaju 100
▁waarbij 100
▁البشرية 100
▁focusing 100
▁hicieron 100
▁petrolio 100
▁betrachten 100
▁reputation 100
▁ridiculous 100
▁probability 100
▁لط 100
usal 100
▁wok 100
▁יפה 100
▁cura 100
▁meme 100
▁però 100
▁آوری 100
▁متحد 100
ierzch 100
ndrome 100
▁espos 100
▁tatto 100
▁לאורך 100
▁crying 100
▁waarvan 100
▁estructura 100
▁computadora 100
bil 100
uig 100
uri 100
باح 100
▁ky 100
arza 100
igan 100
list 100
▁בעל 100
▁مطم 100
grade 100
▁ingr 100
▁toes 100
ycznie 100
▁laure 100
▁poważ 100
▁tages 100
▁wound 100
▁اطراف 100
▁الصنا 100
▁نفسها 100
▁compag 100
▁layers 100
▁schild 100
▁افرادی 100
▁geschäft 100
▁customers 100
▁científicos 100
▁globalization 100
▁comportamiento 100
حصل 100
ملة 100
▁דו 100
irlo 100
uele 100
▁للك 100
ented 100
▁bias 100
▁tone 100
▁decía 100
▁erlau 100
▁krijg 100
▁petró 100
▁pezzo 100
▁محدود 100
▁arthur 100
▁destra 100
▁geheim 100
▁insist 100
▁zmieni 100
▁אחוזים 100
▁termini 100
▁weitere 100
▁atlantic 100
▁apartment 100
▁highlight 100
▁industrie 100
▁izquierda 100
▁separated 100
▁affordable 100
▁הטכנולוגיה 100
▁photographer 100
غذ 100
hum 100
זרח 100
למי 100
▁96 100
▁är 100
conf 100
▁פוע 100
▁جلو 100
atuur 100
▁fase 100
▁lato 100
▁ugly 100
▁بفهم 100
▁گفته 100
▁fiber 100
▁finds 100
▁medit 100
▁memes 100
▁perse 100
▁piedi 100
▁restr 100
▁tysią 100
▁verme 100
▁עיצוב 100
▁emphas 100
▁landed 100
▁preval 100
▁footage 100
▁hanging 100
▁nemmeno 100
▁parlato 100
▁welches 100
▁النهاية 100
▁petróleo 100
▁repeated 100
▁scientif 100
▁textbook 100
▁researcher 100
uz 100
حم 100
acj 100
غان 100
▁مز 100
amed 100
ppen 100
▁rib 100
▁unh 100
▁שית 100
falls 100
▁التد 100
▁یافت 100
essimo 100
▁mooie 100
▁zanim 100
▁أربعة 100
▁الثال 100
▁بزرگی 100
▁cognit 100
▁condiv 100
▁direkt 100
▁océano 100
▁rescue 100
▁korzyst 100
nas 100
أخذ 100
ajes 100
ardi 100
erma 100
essa 100
hank 100
سباب 100
▁פרי 100
▁مجد 100
▁במדי 100
▁دیده 100
atieve 100
ולוגיה 100
▁ambul 100
▁diagr 100
▁accomp 100
▁entren 100
▁jedoch 100
▁daarvan 100
▁quienes 100
▁roboter 100
▁staaten 100
▁correspond 100
ثي 100
agi 100
סיס 100
قاد 100
otip 100
unik 100
▁للن 100
iczny 100
▁1994 100
▁anzi 100
▁dico 100
▁gioc 100
▁shir 100
▁کافی 100
esthes 100
▁nogal 100
▁notte 100
▁vanno 100
▁צריכה 100
century 100
▁calcol 100
▁gelijk 100
▁immers 100
▁magari 100
▁sugger 100
▁gesicht 100
▁speaker 100
▁میلیارد 100
▁politica 100
▁discoveries 100
▁gesundheits 100
▁breakthrough 100
-3 100
iki 100
וים 100
▁قض 100
▁ghi 100
▁tua 100
▁הרג 100
▁تنا 100
▁صور 100
▁cher 100
▁النت 100
▁خوام 100
▁صفحه 100
▁połow 100
▁להשיג 100
▁الجان 100
erungen 100
iedzieć 100
▁eigene 100
▁grunde 100
▁nathan 100
▁نیستند 100
▁moderne 100
▁chiamata 100
▁openness 100
▁centinaia 100
▁erfahrung 100
▁bangladesh 100
zip 100
سلة 100
חקים 100
▁rei 100
▁zee 100
▁zet 100
▁beij 100
▁telé 100
▁הממש 100
▁التى 100
▁توجد 100
cznych 100
▁spett 100
▁כנראה 100
▁שאפשר 100
▁czasem 100
▁الكتاب 100
atschapp 100
▁risorse 100
▁الأفكار 100
▁verenigde 100
▁consequence 100
▁przyszłości 100
סא 100
niu 100
,500 100
bior 100
othe 100
צרים 100
▁oog 100
▁pue 100
ativi 100
czone 100
▁hire 100
▁plum 100
▁quím 100
▁zorg 100
▁בכדי 100
▁מחשב 100
▁نقطه 100
▁orden 100
▁tiere 100
▁views 100
▁الاخت 100
▁لكنها 100
▁acknow 100
▁excuse 100
▁meines 100
▁naukow 100
▁خودمان 100
▁میکنیم 100
▁permite 100
▁الموضوع 100
▁discorso 100
▁operations 100
ذك 100
gem 100
prob 100
ائرة 100
حيان 100
▁ברו 100
▁עשר 100
▁רגע 100
▁تجد 100
immen 100
لاقات 100
▁brad 100
▁rach 100
▁wyra 100
▁נקרא 100
▁الات 100
▁فترة 100
▁altru 100
▁أطفال 100
▁حياتي 100
▁nummer 100
▁الثاني 100
▁algorit 100
▁removed 100
▁allerlei 100
▁potreste 100
▁recursos 100
▁musicians 100
▁underlying 100
▁predictions 100
nut 100
écn 100
گیر 100
▁2, 100
▁يه 100
gnąć 100
ikal 100
iler 100
מיין 100
ربما 100
פתחות 100
▁hago 100
▁nurt 100
▁tage 100
▁מדהי 100
▁بخوا 100
▁مركز 100
▁مشخص 100
▁hilfe 100
▁kilku 100
▁lesen 100
▁schol 100
▁sheet 100
▁مجبور 100
▁borrow 100
▁davanti 100
▁herinner 100
▁horizont 100
▁intuition 100
▁immaginare 100
▁belangrijke 100
▁38 100
elbe 100
جميع 100
▁fog 100
▁defe 100
▁masz 100
▁rück 100
likely 100
▁fatta 100
▁maker 100
▁noord 100
▁لأننا 100
▁waarmee 100
▁cartoons 100
▁database 100
▁unlikely 100
▁soluzione 100
▁interactions 100
nu 100
فز 100
ecd 100
عرف 100
ولی 100
grow 100
osas 100
▁bam 100
▁eis 100
▁hut 100
▁המג 100
▁ante 100
▁sali 100
▁vera 100
▁לשלו 100
▁سرما 100
▁شمال 100
kształ 100
▁advis 100
▁drill 100
▁giorn 100
▁infra 100
▁initial 100
▁początku 100
▁generated 100
▁fantastico 100
▁resultados 100
omy 100
wod 100
ולת 100
ייק 100
امي 100
ریه 100
ober 100
عتمد 100
▁zow 100
▁زوج 100
aters 100
▁biał 100
▁buon 100
▁hina 100
▁الأص 100
▁شبکه 100
▁conve 100
▁dobra 100
▁ogran 100
▁finanz 100
▁nurses 100
▁هنگامی 100
▁failing 100
▁respecto 100
▁scenario 100
▁commission 100
▁rzeczywistości 100
מק 100
فات 100
▁gy 100
▁ער 100
alle 100
brig 100
wekk 100
▁מופ 100
owing 100
▁adel 100
▁atra 100
▁wzgl 100
▁אותך 100
▁تأتي 100
▁likes 100
▁shaped 100
▁mammals 100
▁surprisingly 100
cca 100
iza 100
▁رد 100
▁ری 100
arán 100
isis 100
קלים 100
▁כרי 100
▁פור 100
kking 100
ويورك 100
▁drum 100
▁erin 100
▁lord 100
▁rick 100
▁uman 100
▁whis 100
▁وقال 100
active 100
▁arena 100
▁mówić 100
▁sette 100
▁אפשרי 100
▁داشتن 100
acional 100
▁buried 100
▁dovete 100
▁fusion 100
▁trigger 100
▁gebracht 100
▁jonathan 100
▁keyboard 100
12 100
▁جاء 100
arias 100
opter 100
▁poly 100
▁técn 100
▁الرا 100
▁craig 100
▁divid 100
▁osoby 100
▁sacred 100
▁trucks 100
▁corrupt 100
▁innocent 100
▁perspekt 100
▁السيارات 100
▁diagnosed 100
▁frequency 100
▁initiative 100
▁università 100
تل 100
لاك 100
raum 100
ומית 100
▁adn 100
▁bür 100
▁jay 100
▁zer 100
▁بگم 100
▁عوض 100
anzen 100
تمعات 100
▁2012 100
▁epis 100
▁krie 100
▁أقوم 100
▁alarm 100
▁elite 100
▁museo 100
▁teléf 100
▁upset 100
▁يتحدث 100
▁ethnic 100
▁koniec 100
▁locked 100
▁singap 100
▁اشتباه 100
▁bestaan 100
▁niektór 100
▁figuring 100
▁prostate 100
▁expertise 100
▁explosion 100
▁discipline 100
enh 100
רחש 100
جاز 100
iają 100
inkt 100
unde 100
סקים 100
ضافة 100
▁ומש 100
▁עמו 100
▁adap 100
▁choć 100
▁nowy 100
▁raus 100
▁zdol 100
▁المه 100
▁وحتى 100
▁deren 100
▁spojr 100
▁מדובר 100
▁بعيدا 100
▁faccia 100
▁gandhi 100
▁godzin 100
▁sonido 100
▁dicendo 100
▁niezwyk 100
▁symbols 100
▁artistic 100
▁completo 100
aticamente 100
▁schließlich 100
▁עק 100
aded 100
komt 100
osph 100
▁שול 100
asión 100
▁będę 100
▁lern 100
▁توضی 100
nienie 100
owaniu 100
▁remix 100
▁treas 100
▁אומרת 100
▁כיוון 100
▁سراسر 100
▁مربوط 100
riculum 100
▁teoría 100
▁اینطور 100
▁مباشرة 100
▁derecha 100
▁meestal 100
▁reports 100
▁الموجود 100
▁external 100
▁necesitan 100
▁risolvere 100
▁strategies 100
▁characteristics 100
ira 100
אול 100
▁جي 100
esti 100
وقات 100
▁fet 100
▁רשת 100
icher 100
▁brak 100
▁dość 100
▁drog 100
▁pies 100
▁plöt 100
▁zust 100
▁דומה 100
▁האמת 100
▁إنهم 100
▁الشئ 100
bility 100
ciendo 100
▁feliz 100
▁sądzę 100
cheiden 100
▁comedy 100
▁effett 100
▁יכולות 100
▁נתונים 100
▁artista 100
▁cultuur 100
▁materie 100
▁precise 100
▁الاشياء 100
▁carolina 100
▁progetti 100
▁inteligen 100
▁immaginate 100
צוע 100
باس 100
▁تض 100
▁گر 100
▁sog 100
▁להס 100
▁سبب 100
▁نسخ 100
▁وسط 100
ffect 100
שורים 100
▁czar 100
▁egal 100
▁eliz 100
▁يأتي 100
▁budyn 100
▁dimin 100
▁kelly 100
▁نمونه 100
▁chosen 100
▁denaro 100
▁solche 100
▁comprar 100
▁التاريخ 100
▁robotics 100
▁ره 100
▁قا 100
ynth 100
ترون 100
▁cub 100
▁ועל 100
▁חול 100
itore 100
▁gate 100
▁ligt 100
▁sitio 100
▁sixth 100
▁stores 100
▁ultima 100
▁المياه 100
programm 100
▁mussten 100
▁pulling 100
▁zdjęcie 100
▁reported 100
▁strangers 100
▁originally 100
▁universities 100
▁comportamento 100
uff 100
fold 100
▁המצ 100
▁آسی 100
▁kiss 100
▁zahl 100
▁devil 100
▁felic 100
▁spray 100
▁udało 100
▁الانت 100
▁المحا 100
▁gravit 100
▁legend 100
▁metrop 100
▁rarely 100
▁داشتیم 100
▁arbeits 100
▁illumin 100
▁registr 100
▁seattle 100
▁العملية 100
▁erinnern 100
▁prodotti 100
▁committed 100
▁elizabeth 100
▁resilience 100
▁communications 100
oe 100
▁يب 100
osos 100
▁cig 100
▁חמש 100
▁נגד 100
▁قرن 100
▁dean 100
▁doug 100
▁opge 100
▁rech 100
▁أعلى 100
▁صغير 100
▁corte 100
▁mówię 100
▁البحر 100
razione 100
▁esplor 100
▁overtu 100
▁מדינות 100
▁complej 100
▁ethical 100
▁genauso 100
▁graphic 100
▁session 100
▁policies 100
▁parkinson 100
▁herramientas 100
خش 100
نوع 100
▁64 100
يديو 100
▁30- 100
▁gór 100
▁reis 100
▁samm 100
▁נהדר 100
▁خمسة 100
▁مهند 100
▁depos 100
▁ieder 100
▁porus 100
▁לעזור 100
▁שקורה 100
▁אוהבים 100
▁الطعام 100
▁briefly 100
▁everest 100
▁montere 100
▁crossing 100
▁returned 100
▁excellent 100
▁curriculum 100
▁parliament 100
▁wheelchair 100
chu 100
lub 100
דאו 100
قیت 100
▁أط 100
▁نب 100
cjal 100
erci 100
gole 100
▁upd 100
▁كاف 100
itous 100
▁cole 100
▁heil 100
▁mapa 100
▁redd 100
▁voce 100
▁לבצע 100
▁למען 100
▁lokal 100
▁okres 100
▁pelig 100
▁الحال 100
▁الکتر 100
▁campus 100
▁injury 100
▁ouders 100
▁stages 100
▁zweite 100
▁lawyers 100
▁manager 100
▁semanas 100
▁מסוגלים 100
▁vertelde 100
90 100
cą 100
fo 100
sw 100
זק 100
ظه 100
מלה 100
ראש 100
▁98 100
▁وص 100
▁lap 100
▁uda 100
▁zjed 100
▁التس 100
▁بیان 100
▁وكيف 100
wnątrz 100
▁ispir 100
▁legge 100
▁lezen 100
▁physi 100
▁sabía 100
▁trash 100
▁foster 100
▁groter 100
▁oppure 100
▁quanti 100
▁stesse 100
▁viendo 100
▁wilson 100
▁zdecyd 100
▁beschik 100
▁prepare 100
▁rozumie 100
▁monterey 100
▁fantastisch 100
▁administration 100
תר 100
تك 100
ریف 100
סיון 100
▁voc 100
▁میخ 100
peare 100
▁cute 100
▁mimo 100
▁העיר 100
▁بینی 100
▁معلم 100
▁beper 100
▁conqu 100
▁دقيقة 100
▁چیزها 100
▁گفتند 100
▁funded 100
▁ningún 100
▁pushed 100
▁shadow 100
▁siento 100
▁sukces 100
▁zellen 100
▁الوصول 100
▁slavery 100
▁termine 100
▁conclude 100
▁scoprire 100
▁dependent 100
▁geweldige 100
▁immediate 100
▁protecting 100
▁collaborative 100
city 100
iano 100
ship 100
zero 100
▁cóż 100
▁zul 100
▁ארג 100
▁ظاه 100
endes 100
▁2030 100
▁racc 100
▁área 100
▁تجعل 100
fahren 100
▁dobry 100
▁dokon 100
▁porów 100
▁מתחיל 100
▁cultur 100
▁innymi 100
▁יוצרים 100
▁اللحظة 100
▁aumento 100
▁deliber 100
▁dilemma 100
▁imaging 100
▁piccole 100
▁comincia 100
▁resolver 100
▁tanzania 100
▁contrario 100
▁oppervlak 100
▁importantes 100
tro 100
urf 100
▁خر 100
utan 100
ברסי 100
ظروا 100
▁muo 100
▁אינט 100
▁صنعت 100
annten 100
▁argom 100
▁holds 100
▁muszą 100
enziale 100
▁cammin 100
▁debido 100
▁inizia 100
▁sollen 100
▁academy 100
▁advance 100
▁bibliote 100
▁samochod 100
▁rápidamente 100
▁shakespeare 100
▁möglichkeiten 100
لق 100
ups 100
wen 100
▁20- 100
▁nią 100
▁חופ 100
▁מתח 100
▁آید 100
▁ممن 100
פריקה 100
▁pozy 100
▁buddh 100
▁offen 100
▁realm 100
▁silly 100
▁تاثیر 100
▁مجتمع 100
▁arrive 100
▁invite 100
▁stroke 100
▁twenty 100
▁افزایش 100
istische 100
▁captured 100
▁contribu 100
▁wartości 100
▁differenti 100
وظ 100
▁۵ 100
cost 100
erlo 100
▁eti 100
▁نیم 100
▁amen 100
▁schö 100
▁sito 100
▁tong 100
▁wise 100
▁لانه 100
▁والإ 100
gefühl 100
▁alpha 100
▁יודעת 100
▁بررسی 100
▁مناسب 100
▁مناطق 100
▁الحالة 100
▁exploit 100
▁piensan 100
▁sterren 100
▁ساختمان 100
▁dopamine 100
▁mcdonald 100
▁resolution 100
کا 100
opl 100
בוט 100
وبا 100
▁34 100
▁عض 100
یمان 100
▁במק 100
▁שהן 100
▁שמח 100
▁تنت 100
▁پوش 100
ading 100
staan 100
▁gefä 100
▁koch 100
▁kogo 100
▁אינם 100
▁روند 100
▁param 100
▁tribe 100
▁بدأنا 100
▁منطقة 100
ujących 100
▁mumbai 100
▁planes 100
▁tribes 100
▁veroor 100
▁وأعتقد 100
▁shelter 100
▁البداية 100
▁announced 100
▁intuitive 100
▁gemeinschaft 100
▁społeczności 100
▁זי 100
imas 100
iony 100
▁מאח 100
▁مدل 100
arlos 100
iglie 100
▁ency 100
▁rust 100
▁tare 100
▁tied 100
istica 100
nahmen 100
▁półno 100
▁علاقه 100
▁establ 100
▁mortal 100
▁solito 100
▁strukt 100
▁miracle 100
▁shopping 100
▁capitalism 100
▁tecnologías 100
bin 100
▁dà 100
▁مك 100
avia 100
نيات 100
owały 100
▁hijo 100
▁lubi 100
▁piel 100
▁wyją 100
aremos 100
ziehen 100
▁czymś 100
▁italy 100
▁punti 100
▁schwe 100
▁spark 100
▁umgeb 100
▁woche 100
▁التعا 100
▁الزمن 100
izieren 100
▁defend 100
▁kiedyś 100
▁painted 100
▁synthes 100
▁konzentr 100
▁classical 100
▁computation 100
▁طف 100
iatr 100
▁env 100
▁השפ 100
▁ולע 100
▁wyzw 100
▁השנה 100
▁انهم 100
▁bucks 100
▁creen 100
▁muszę 100
▁zuvor 100
▁بودیم 100
▁actors 100
▁blijkt 100
▁empire 100
▁lösung 100
▁nowych 100
▁scores 100
▁spinal 100
▁zahlen 100
▁الوحيد 100
children 100
▁emerged 100
▁oggetti 100
▁verwand 100
aceutical 100
▁riguardo 100
▁shocking 100
▁sleeping 100
▁wszechświ 100
▁affrontare 100
▁deberíamos 100
ee 100
ls 100
בח 100
▁بج 100
gged 100
ijen 100
▁urb 100
▁سيا 100
▁قطع 100
ipend 100
▁berü 100
▁erop 100
▁rats 100
▁vino 100
▁ביום 100
▁מחקר 100
▁أولا 100
▁فكرت 100
▁conci 100
▁divor 100
▁doors 100
▁gases 100
▁slums 100
▁stond 100
▁العمر 100
▁الغرب 100
▁kaufen 100
▁pewnie 100
▁verità 100
▁weinig 100
▁בריאות 100
▁rozwoju 100
▁vertelt 100
▁angiogen 100
▁especies 100
▁wildlife 100
▁nutrition 100
▁expectancy 100
ذر 100
afr 100
ieb 100
iach 100
stad 100
▁sko 100
bauen 100
▁המדע 100
▁همون 100
▁führt 100
▁usato 100
▁לחיות 100
beelden 100
▁breaks 100
▁metros 100
▁vacuum 100
▁התמונה 100
▁المنزل 100
▁کودکان 100
▁beteken 100
▁pacjent 100
▁pasando 100
▁ragazzo 100
▁extended 100
▁powierzch 100
▁explaining 100
bon 100
cco 100
בדה 100
jech 100
orte 100
zijn 100
ريبة 100
سیله 100
▁ubi 100
▁שרו 100
▁فهي 100
▁1995 100
▁aims 100
▁ועוד 100
▁دارو 100
▁قبلا 100
▁bloed 100
▁mixed 100
▁wspom 100
▁تجربة 100
iteiten 100
▁arctic 100
▁fragte 100
▁matrix 100
▁najważ 100
▁لذ 100
łego 100
יתים 100
دیگر 100
▁lak 100
▁مقا 100
komst 100
minos 100
ujesz 100
דמנות 100
▁dawn 100
▁כמות 100
▁التأ 100
ptions 100
▁beein 100
▁comen 100
▁lewis 100
▁líder 100
▁males 100
▁توضیح 100
▁تونید 100
▁lograr 100
▁poteva 100
▁subtle 100
▁reduced 100
▁rendere 100
▁vortrag 100
▁incorpor 100
▁términos 100
▁procedure 100
▁simulation 100
▁observation 100
▁نص 100
burg 100
zimy 100
▁anz 100
▁hie 100
▁wró 100
anche 100
atief 100
ckets 100
ículo 100
▁verv 100
▁ימים 100
▁روان 100
▁blick 100
▁decyz 100
▁defic 100
▁innow 100
▁nasza 100
▁outer 100
▁spann 100
▁strom 100
▁unpre 100
▁danach 100
▁phosph 100
computer 100
▁adolesc 100
▁capaces 100
▁intrigu 100
▁secrets 100
▁biologie 100
▁publikum 100
▁conseguir 100
▁forgotten 100
▁تؤ 100
▁יצר 100
▁ضرب 100
▁belo 100
▁funk 100
▁neat 100
ennium 100
lessly 100
▁ciała 100
▁detro 100
▁flick 100
▁joven 100
▁nurse 100
▁przen 100
▁wysok 100
▁دادند 100
gelijke 100
▁ambigu 100
▁esseri 100
▁immigr 100
▁sylvia 100
▁phantom 100
▁schritt 100
▁sisters 100
▁partecip 100
▁costruito 100
▁estábamos 100
▁schwierig 100
لس 100
▁ó 100
▁44 100
▁שט 100
▁يص 100
walk 100
▁szp 100
▁تلو 100
elten 100
▁bern 100
▁cima 100
▁debt 100
▁والع 100
zeniem 100
▁aesth 100
▁array 100
▁badań 100
▁equiv 100
▁terzo 100
▁geluid 100
▁أمريكا 100
▁circles 100
▁clients 100
▁freunde 100
▁pretend 100
▁prezent 100
▁ähnlich 100
▁comprens 100
▁maggiore 100
▁alexander 100
▁interrupt 100
▁determined 100
▁encontramos 100
▁successfully 100
زو 100
طب 100
gna 100
כור 100
ارع 100
زمة 100
▁هد 100
ankt 100
gner 100
راعة 100
▁הלו 100
▁سوم 100
▁هات 100
ciuto 100
czają 100
estas 100
ächst 100
▁laid 100
▁poję 100
▁vice 100
▁משחק 100
▁بالض 100
▁عاشق 100
▁مصرف 100
▁fatti 100
▁lösen 100
▁neues 100
▁tears 100
▁באותה 100
▁الغير 100
▁אפריקה 100
▁detroit 100
▁viaggio 100
▁malattia 100
فير 100
▁وز 100
gewö 100
▁alan 100
▁pijn 100
▁poko 100
▁tuvo 100
▁zape 100
▁המים 100
▁כשאת 100
▁الاس 100
▁benöt 100
▁estre 100
▁libri 100
▁رابطه 100
ughters 100
▁barely 100
▁cztery 100
▁inches 100
▁libert 100
▁sierra 100
▁szkoły 100
▁werkte 100
▁consumo 100
▁sorpres 100
פיע 100
▁شم 100
ctus 100
דימה 100
▁fij 100
▁پزش 100
▁bist 100
▁cats 100
▁coke 100
▁עולם 100
▁ساعة 100
usiasm 100
▁burst 100
▁dolor 100
▁plaat 100
▁seats 100
▁المجم 100
saharan 100
▁andato 100
▁monate 100
▁motors 100
▁tumors 100
▁verlie 100
▁wusste 100
▁collega 100
▁strumento 100
▁teenagers 100
▁evoluzione 100
▁struggling 100
اهی 100
unci 100
wert 100
מדים 100
▁سفر 100
▁كلا 100
zeuge 100
▁grie 100
▁kort 100
▁luna 100
▁spój 100
▁خاصة 100
▁والح 100
▁ولقد 100
▁czemu 100
▁طويلة 100
▁پایان 100
▁buenos 100
▁decent 100
▁genoma 100
▁קוראים 100
▁aiutare 100
▁impatto 100
▁ethiopia 100
▁industri 100
▁niektóre 100
▁perceive 100
▁verbinden 100
▁biologists 100
▁instructions 100
aka 100
hop 100
ركت 100
ريف 100
قود 100
heen 100
oded 100
punt 100
▁tav 100
▁טיפ 100
▁עשה 100
ctica 100
▁boot 100
▁bras 100
▁inac 100
▁מסוי 100
▁آغاز 100
▁أردت 100
▁بأنه 100
▁narod 100
▁panel 100
▁przyw 100
▁verlo 100
▁wären 100
▁לייצר 100
▁بداية 100
▁يتوجب 100
▁rhythm 100
▁silver 100
▁uważam 100
▁היכולת 100
▁منظورم 100
▁يقومون 100
▁modific 100
▁onszelf 100
▁picking 100
▁rosling 100
▁ingenier 100
▁reminded 100
▁człowieka 100
▁lavorando 100
▁erschaffen 100
▁scienziati 100
דיו 100
▁né 100
fast 100
ולמי 100
▁gry 100
▁jem 100
▁اثر 100
▁صدي 100
▁chcą 100
▁inex 100
▁ושוב 100
▁למדי 100
▁الكت 100
▁نمود 100
▁نوعی 100
erecht 100
▁choos 100
▁מנסים 100
▁ending 100
▁ergens 100
▁makers 100
▁muster 100
amientos 100
▁enfrent 100
▁escuchar 100
▁lenguaje 100
▁llamamos 100
▁gedurende 100
▁programming 100
▁pharmaceutical 100
ccan 100
orre 100
werp 100
▁glu 100
▁kaw 100
▁שומ 100
awiać 100
jekte 100
oster 100
▁cake 100
▁حساب 100
▁عالی 100
▁bella 100
▁inver 100
▁nimmt 100
▁מסביב 100
▁offens 100
▁consent 100
▁founded 100
▁garbage 100
▁maniera 100
▁scrivere 100
▁fähigkeit 100
▁insurance 100
▁plötzlich 100
▁predicted 100
▁الكمبيوتر 100
▁hypothesis 100
▁verantwort 100
▁verbindung 100
wär 100
▁اک 100
gene 100
mann 100
מודד 100
ويات 100
▁הור 100
▁ומי 100
▁להצ 100
▁לכת 100
erved 100
estre 100
▁ermö 100
▁file 100
▁gede 100
▁genu 100
▁kent 100
▁lent 100
▁sexy 100
▁بخشی 100
▁يسمى 100
▁april 100
▁boden 100
▁chile 100
▁gatun 100
▁mikro 100
▁החברה 100
▁precip 100
▁robimy 100
▁methane 100
▁parties 100
▁sociali 100
▁climbing 100
▁theories 100
▁delivered 100
▁glücklich 100
▁compassione 100
שבה 100
▁47 100
▁ly 100
eday 100
jącą 100
ußen 100
waar 100
▁hybr 100
olwiek 100
▁ciert 100
▁metro 100
▁miren 100
▁ubiqu 100
▁حينها 100
▁لأنني 100
▁raccol 100
▁reveal 100
▁subway 100
▁verbaz 100
▁creando 100
▁empower 100
▁october 100
▁oggetto 100
▁someday 100
▁educated 100
▁gevangen 100
▁ostatnie 100
▁solución 100
▁surgeons 100
▁العالمية 100
▁conocimiento 100
▁photographed 100
wem 100
wym 100
ذين 100
xual 100
اسوب 100
کاری 100
▁שבי 100
▁خار 100
▁غرب 100
▁نست 100
ieres 100
▁dopp 100
▁matr 100
▁mild 100
▁دولت 100
▁وكما 100
▁blame 100
▁harry 100
▁waard 100
▁weken 100
▁eviden 100
▁konfli 100
▁scales 100
▁citizen 100
▁hunting 100
▁terreno 100
▁writers 100
▁empresas 100
▁fabulous 100
▁reporter 100
▁esperanza 100
▁paralyzed 100
▁qualities 100
zmi 100
וקה 100
طار 100
aamd 100
wirk 100
▁erk 100
▁nud 100
▁انق 100
▁glas 100
▁nowo 100
▁rang 100
▁senc 100
▁الفر 100
▁قوان 100
▁decor 100
▁kills 100
▁sauce 100
▁מאמין 100
▁مجددا 100
▁نموذج 100
ishment 100
▁buenas 100
▁curren 100
▁lawyer 100
▁miesią 100
▁puntos 100
▁הגדולה 100
▁scanner 100
▁المشروع 100
▁نيويورك 100
▁bekijken 100
▁graphics 100
▁historię 100
▁psychiat 100
▁autonomous 100
▁unbelievable 100
ثلة 100
▁فح 100
acją 100
arto 100
ombr 100
śród 100
▁czą 100
▁fum 100
▁מאי 100
▁נית 100
▁منح 100
▁پدر 100
icias 100
▁niep 100
▁ofic 100
▁scal 100
▁ואמר 100
▁سازی 100
▁کامل 100
minute 100
▁afgan 100
▁połud 100
▁retro 100
▁tooth 100
▁zerst 100
▁לפחות 100
▁منطقه 100
▁vergle 100
▁לפעמים 100
▁częścią 100
▁disrupt 100
▁visione 100
▁familien 100
▁mysterious 100
bos 100
ält 100
تمر 100
خرا 100
مام 100
huis 100
verb 100
וביל 100
ریقا 100
يدية 100
ينية 100
▁rul 100
▁دهه 100
▁محت 100
kenen 100
▁foie 100
▁ایست 100
▁الملا 100
▁dimost 100
▁entste 100
▁needle 100
▁regole 100
▁suerte 100
esthesia 100
▁besteht 100
▁tornare 100
▁الاشخاص 100
▁establish 100
▁transcend 100
▁przestrzeni 100
▁potrzebujemy 100
▁prawdopodobnie 100
cre 100
▁יד 100
▁פח 100
bank 100
أكيد 100
كلفة 100
▁cię 100
▁une 100
▁מסי 100
▁נמו 100
▁رئي 100
▁روا 100
▁کشف 100
בורים 100
כולנו 100
▁vene 100
▁wilt 100
▁الدم 100
▁شخصی 100
▁naszą 100
▁redef 100
▁sfida 100
▁تاریخ 100
▁caring 100
▁hervor 100
▁missed 100
▁tworzy 100
▁القدرة 100
▁eravamo 100
▁pokazać 100
▁spreken 100
▁الكربون 100
▁chiunque 100
▁escribir 100
▁teníamos 100
▁gegenüber 100
▁antarctica 100
▁traditions 100
▁gezondheids 100
جمع 100
▁ví 100
olas 100
▁fus 100
▁ijs 100
▁إحد 100
▁actu 100
▁czyn 100
▁earn 100
▁rile 100
▁toys 100
▁אלפי 100
▁الجل 100
▁بدست 100
▁مهمة 100
▁forme 100
▁ihres 100
▁platz 100
▁בחיים 100
▁johnny 100
▁proste 100
▁richer 100
▁völlig 100
▁commons 100
▁draußen 100
▁fossero 100
▁sterben 100
▁المنطقة 100
▁leverage 100
▁diagnostic 100
▁interpretation 100
پا 100
زية 100
plos 100
▁بام 100
▁جنب 100
eting 100
etter 100
field 100
inate 100
▁doty 100
▁głęb 100
▁leaf 100
▁semi 100
▁وكنت 100
▁bears 100
▁gonna 100
▁innym 100
▁osped 100
▁słowa 100
▁החוצה 100
▁الأقل 100
▁يعتقد 100
▁augment 100
▁bleiben 100
▁possano 100
▁uniwers 100
▁winning 100
▁articles 100
▁betracht 100
▁capability 100
▁intelligen 100
▁assumptions 100
▁genetically 100
▁uncertainty 100
▁wissenschaftler 100
אט 100
fik 100
jęt 100
ייר 100
▁oś 100
nios 100
▁180 100
▁zna 100
▁فرض 100
hören 100
áfico 100
▁młod 100
▁sits 100
▁turk 100
▁الحب 100
▁بالق 100
encial 100
▁loves 100
▁plain 100
▁pomys 100
▁scans 100
▁أشخاص 100
istisch 100
▁acceso 100
▁dozens 100
▁steden 100
▁thresh 100
▁verfüg 100
▁پیچیده 100
▁nessuna 100
▁homework 100
▁magnific 100
▁الموسيقى 100
▁detection 100
▁expansion 100
▁intervention 100
cis 100
áne 100
حول 100
egen 100
geno 100
nehm 100
▁süd 100
▁cuid 100
▁koso 100
▁ofre 100
▁ramp 100
▁اخرى 100
▁drone 100
▁sanno 100
▁viaje 100
▁übrig 100
▁דרכים 100
▁vonden 100
▁anderer 100
▁essence 100
▁kontakt 100
▁aquellos 100
▁december 100
▁mediante 100
▁mieliśmy 100
▁syndrome 100
▁speriment 100
▁matematica 100
▁proportion 100
▁biodiversity 100
łę 100
أت 100
رر 100
cet 100
ägt 100
اهش 100
ونم 100
orsi 100
oter 100
▁bak 100
▁בהת 100
▁הרצ 100
▁درد 100
teres 100
▁alga 100
▁guad 100
führen 100
kennen 100
roffen 100
▁dicho 100
▁flows 100
▁עצמנו 100
▁القوة 100
▁طبیعی 100
iviteit 100
▁domain 100
▁gemidd 100
▁manche 100
▁sprawę 100
▁vliegt 100
arbeitet 100
▁intrins 100
▁promote 100
▁accepted 100
▁anderson 100
▁macchine 100
▁permette 100
▁verbunden 100
▁occasionally 100
viv 100
chia 100
inde 100
ksam 100
▁obe 100
▁בהן 100
▁مور 100
wanie 100
علمون 100
▁adul 100
▁bail 100
▁fran 100
▁gord 100
▁laug 100
▁toep 100
▁עבוד 100
▁jihad 100
▁letto 100
▁lobby 100
▁זקוקים 100
▁bisogna 100
▁iniziare 100
▁nacional 100
▁znacznie 100
▁influenza 100
▁uncomfort 100
▁mostrarles 100
▁transmission 100
atu 100
mut 100
جيل 100
▁iv 100
▁וס 100
owod 100
▁hör 100
▁moc 100
ciaal 100
روبوت 100
▁jouw 100
▁kosm 100
▁quis 100
▁حقوق 100
▁يدعى 100
icznej 100
▁congr 100
▁perfe 100
▁ابزار 100
▁sebast 100
▁البيئة 100
fficient 100
▁bekannt 100
▁leather 100
▁telecom 100
▁الأعمال 100
▁السنوات 100
▁gefunden 100
▁generale 100
▁optimism 100
▁daughters 100
▁personale 100
▁suggested 100
▁demonstration 100
ijt 100
عار 100
▁חוז 100
▁إنت 100
▁نکن 100
berry 100
▁1997 100
▁forg 100
▁nood 100
▁amico 100
▁bruce 100
▁desap 100
▁sarah 100
▁الاول 100
related 100
▁arrang 100
▁schaal 100
▁verbet 100
▁zuerst 100
▁دیگران 100
▁spreads 100
▁beschäft 100
▁brooklyn 100
▁initially 100
▁conoscenza 100
▁suggesting 100
agh 100
rom 100
yen 100
ماع 100
▁tö 100
▁תכ 100
kowe 100
more 100
yard 100
כבים 100
ونات 100
▁ash 100
▁oli 100
▁פית 100
▁موت 100
▁چرخ 100
▁کوت 100
▁dave 100
▁dive 100
▁اصلا 100
▁حالی 100
▁acept 100
▁crist 100
▁fluss 100
▁neemt 100
▁الطرق 100
▁المري 100
▁برگرد 100
▁تفاوت 100
▁جمعیت 100
▁میزان 100
▁گرفتن 100
▁bother 100
▁chorob 100
▁montón 100
▁ocurre 100
▁turkey 100
▁ventil 100
▁volgen 100
▁الذهاب 100
▁fliegen 100
▁involve 100
▁kranken 100
▁inventor 100
▁organizz 100
▁eenvoudig 100
▁expanding 100
▁ontwerpen 100
▁vergelijk 100
▁istruzione 100
▁exponential 100
üng 100
▁zł 100
▁רפ 100
ضيات 100
▁140 100
▁ryn 100
▁أست 100
▁خمس 100
flies 100
▁herr 100
▁wink 100
▁الار 100
▁گذار 100
chodzą 100
▁bekend 100
▁column 100
▁comien 100
▁convir 100
▁cotton 100
▁ervoor 100
▁espero 100
▁liefde 100
▁mining 100
▁minuto 100
▁waters 100
▁affects 100
▁aziende 100
▁hitting 100
▁caratter 100
▁controle 100
▁całkowicie 100
▁manufactur 100
אל 100
הל 100
شل 100
قق 100
gef 100
vid 100
zij 100
جلي 100
clop 100
epen 100
jähr 100
▁قصد 100
inent 100
▁boss 100
▁lust 100
▁neer 100
▁orph 100
▁أنتم 100
▁خورد 100
▁كلمة 100
▁simon 100
▁زمینه 100
▁panels 100
▁tracks 100
▁besides 100
▁interse 100
▁möchten 100
▁visited 100
▁zdjęcia 100
▁bereiken 100
▁pandemic 100
[...]
